#version: 0.2 - Trained by `huggingface/tokenizers`
Ġ d
e s
e n
Ġ a
Ġd e
Ġ l
e r
Ġ p
t a
Ġ c
q u
a r
e l
Ġ i
c i
Ġ s
a n
o n
r e
o r
Ġl a
Ġ m
a l
u n
Ġ qu
Ġ el
â Ģ
t i
Ã ³
Ġqu e
en t
âĢ Ļ
Ġ t
a t
Ġ f
Ġ v
Ã ©
o m
Ġp er
o s
i n
Ġ en
o l
Ġ un
r a
Ġ n
i s
Ã ł
ci Ã³
Ġde l
Ġ es
r i
e m
Ġ h
Ã© s
r es
i c
ta t
m b
d a
r o
Ġa l
Ã ¨
i t
Ã Ń
Ġl es
Ġs e
Ġc om
on s
i a
Ġ C
i x
g u
Ġ re
l a
Ġa mb
m ent
Ã ²
e c
Ġel s
qu es
o t
a s
Ġi n
Ġ b
u s
an t
Ġ g
Ġn o
a ciÃ³
Ġ P
l e
Ġc on
Ġ o
i r
Ġ E
Ġun a
Ġp ro
v a
Ġ e
l i
c a
Ġ A
Ġ S
Ġ M
u r
Ġh a
Ġv a
Ġc a
Ġd i
Ġ L
ta l
u l
Ġ Ã©s
t es
s i
t s
Ġd es
d i
t u
o c
er a
t e
ta r
o b
Ġp ar
Ġm Ã©s
a d
Ġ j
Ġ (
Ġ 1
ta n
i l
ci a
Ã §
Ġdel s
al s
Ġ B
Ġa n
e ix
i tat
t er
ic a
Ġ T
Ġ 2
Ġ D
m p
Ġa ques
Ã º
Ã¨ n
on a
e t
u p
r an
o d
el l
Ġs er
or m
ci ons
it z
Ġa c
Ġt ot
em p
b l
v er
e u
i g
Ġ F
a da
Ġe x
Ġ G
os t
a c
Ġ R
i d
an y
Ġcom p
en s
ti n
e g
u m
is t
ri a
i m
u t
Ġ res
. .
a b
or s
Ġre c
Ġl l
f er
at s
Â ·
Ġm ol
Ġ V
Ã¨n cia
Ġ I
d u
Ġ r
as s
ĠE l
Ġ J
ent s
Ġ âĢ
Ġf a
in s
i ci
al l
Ġc ons
ti c
Ġes p
ent re
v i
Ġ ta
t r
Ã³ n
v es
0 0
Ġ N
E l
Ġp od
Ġf er
Ġs i
Ġp re
Ġp res
ri m
r Ãł
o ci
Ġa r
Ġse u
s s
Ġt ra
tan t
b re
Ġca p
an a
p ar
an s
t ra
g e
mb Ã©
or a
ci on
d es
Ġper s
ĠC a
ar i
ÃŃ s
Ġh i
Ġt en
d e
ob re
Ġv i
ad es
ĠL a
Ġo b
Ġp os
Ġse va
m e
y s
o p
Ġ U
v en
Ġmol t
Ġm at
âĢ Ŀ
n a
Ġal s
Ġp el
t res
Ġen s
Ġaques t
m a
Ġp r
o g
il l
or t
e d
ta ment
p os
0 1
Ġd is
Ġper Ã²
t or
h a
ti u
tat s
Ġc ar
er s
i li
Ġp u
ar c
Ġp a
in a
ĠâĢ ľ
or d
Ġpar ti
es s
Ġs obre
Ġm a
Ġc as
Ġj a
j ec
un a
e x
Ã§ a
ti ca
p r
on es
Ġi mp
Ġv ol
Ġf orm
Ġa ix
c ar
Ã ¯
Ġn ost
l es
Ġta mbÃ©
Ġp rim
g a
p er
Ġaques ta
i u
al itz
Ġv an
f orm
e gu
re b
y a
e b
Ġp ass
en ta
Ġt er
re c
t Ãł
ĠE s
al itat
ro b
ĠE n
ri b
en d
Ġ entre
u b
Ġc ol
Ġse g
g ra
ti va
si Ã³
Ġ H
bl ic
i Ã³
v ol
Ġes c
p l
Ġp ot
ci es
f ic
b le
Ġm an
v e
ĠP er
Ġh an
Ġn om
is ta
l ar
L a
Ġ on
Ġ2 01
Ġs Ã³n
p a
Ġc os
Ġan ys
du c
a v
Ġp l
Ġ Ġ
e p
Ġin ter
a ques
s e
i ta
or n
ti v
Ġc re
t en
ĠCa tal
en er
Ġt reb
Ġf ins
.. .
E s
a u
Ġg ran
Ġt rob
Ġm ar
ci p
Ġc an
al ment
qu Ã¨
Ġ 3
Ã¨ s
u c
t re
Ġl li
Ġ1 9
ur s
u re
Ġt emp
Ġs oci
n i
en ti
Ġd ia
ti l
Ġ "
o ta
qu i
Ġs ol
gu i
Ġmat eix
u ra
Ġs up
g un
Ġ em
) .
a m
ant s
Ġa ss
Ġf in
in t
Ġd on
tu ra
p i
Ġin s
a ment
Ã ¼
g i
Ġper quÃ¨
) ,
ar Ãł
Ãº s
m in
es si
Ġp ol
Ġtot s
Ġ or
r er
Ġc or
gu t
v ia
pr Ã©s
un ya
Ġqu an
Ġm es
Ġ O
Ġs ens
ti r
arc el
Ġtreb all
Ãł n
Ġre p
f ici
es c
g es
h i
Ġpar t
at ge
Ġm ill
ur ant
Ġc iu
Ġp or
Ġa p
a i
Ġse gu
ĠCatal unya
Ġf et
Ġr el
ol a
ti tu
Ġa d
ĠM ar
Ġcon c
Ġdi fer
ĠC om
ver s
Ġa b
r en
j un
Ġn i
g an
E n
r at
ic s
l o
Ġm en
le g
tiv itat
Ġes tÃł
Ã² ria
it j
r up
arcel ona
Ġ gu
Ġse us
v is
em a
Ġc al
Ġ x
ĠA l
it u
Ġ -
Ġh o
u g
Ġpers ones
ÃŃ n
Ġes ta
Ġv eu
Ġde m
Q u
Ġv is
Ãł ria
Ġes tat
Ġm un
es ti
Ġaix Ã²
e ti
Ġca da
Ġ tan
cion al
Ġll oc
Ġsens e
en ci
d or
ĠB arcelona
ment s
Ġca tal
Ġ ent
Ġpu blic
Ġse t
Ġal tres
Ġt Ã©
r ar
Ġ tin
Ġm o
Ġpro jec
it s
Ġin c
Ġ tal
Ġl i
ĠI n
re m
em bre
f ec
ul ar
en a
ri c
er i
Ġm e
Ġcom en
Ġpro f
Ġcon tra
Ġar rib
ta ciÃ³
in g
p ec
Ġ 4
Ġd os
is me
Ġin form
el la
en y
Ġf e
Ġ emp
Ġ Â
i ciÃ³
Ġp ob
Ġqu Ã¨
Ġ X
Ġv al
m et
Ġs or
er ra
Ġn ec
ti us
Ġg ener
Ġa qu
Ġc o
ĠN o
Ġv e
Ġt ran
Ġ tant
u d
u i
Ġp un
Ġcon tin
Ġtemp s
a ix
Ġp Ãº
re t
em ent
Ġ Ã
ti m
Ġqu al
er t
Ġdes prÃ©s
l s
Ġqu als
ĠS ant
ver n
Ġj o
u la
car a
ĠEl s
Ġprim er
re u
Ġa v
Ġman era
or es
Ġd urant
f i
e ci
gan itz
ter i
Ã¨n cies
Ġpol ÃŃ
Ġde ix
âĢ ¦
m ÃŃ
Ãł s
Ġ 5
Ġdi rec
a cions
d ic
ĠU n
qu e
Ġal gun
j a
Ġh em
al tres
Ġser ve
ti ques
m en
ca b
Ġnom Ã©s
p any
bl es
Ġo c
Ġs al
Ġ us
Ġm itj
on i
ili tat
os a
Ġdes c
Ġpro c
Ã² n
Ġp la
Ġmill or
Ġv eg
Ġv er
Ġaix ÃŃ
ĠA ques
ell s
Ġpers on
Ġm al
Ġp o
Ġ ti
Ġc ul
Ġcom un
Ġ era
is tes
ta c
Ġb en
Ġdifer ents
Ġa ra
ĠJ o
or i
Ġd u
jun tament
Ġ ra
n es
ar an
ī s
Ġd ir
Ġh ist
Ġtra c
a g
Ġre g
Ġ w
Ġf un
Ġg rup
on t
o vern
ri es
Ġf or
Ġ Qu
Ġac tu
Ġs itu
ar is
a p
in c
ar d
Ġa ut
h o
Ġse c
Ã² m
gu a
Ġen cara
ĠA n
Ġtran s
em b
Ġform a
f ica
Ġvi da
Ġm om
in cip
es ta
Ġveu re
ci d
l l
an es
an c
Ġb Ã©
emp re
eix en
b or
Ġt e
Ġc r
Ġpod er
Ġre alitz
tic s
at re
x a
Ġ2 00
Ġse ves
n s
l ia
qui p
Ã¨ c
ver si
ur al
Ġe t
pl ic
Ġm Ã³n
i b
Ġ 6
Ġesp eci
Ġpro duc
tr uc
Ġa m
ol og
ad or
s a
Ġten ir
Ġa f
Ġc el
Ġca mp
Ġciu tat
Ġde f
h an
Ġpr incip
Ġpro gra
Ġc ent
o ca
ĠC on
Ġs ab
ti s
end re
Ġun s
o u
in es
Ġs ub
Ġpass at
Ġno u
Ġt res
Ġm Ãł
Ġnost ra
Ġpos si
Ġp eti
Ġnost re
Ġrec up
p or
Ġs empre
an d
A l
e ta
u ro
Ġf ot
Ġin f
Ġi m
Ġprim era
Ġb ar
Ġs in
Ġl le
ol l
Ġo fer
i en
El s
m es
or ia
ix er
âĢĿ .
Ġha via
an da
enta ciÃ³
en vol
Ġc la
Ġc urs
Ġt orn
Ġno v
Ġa cab
Ġs enti
s er
Ġtot es
Ġes t
e vol
ta d
ti ves
res a
Ġ Ãº
P er
til itz
e tat
Ġprojec te
Ġmun ici
aques t
v id
i da
Ġparti cip
an ta
Ġc er
Ġb as
Ã§ ar
Ġp as
envol up
ĠC ons
Ãł r
ĠC ar
ĠC as
Ġac tivitat
ĠD e
em es
Ġo p
j ar
Ġma j
Ġqu i
Ġdis s
Ġ ec
n e
Ġp ens
Ġin t
Ġnost res
ĠĠ ĠĠ
Ġpro pos
Ġdi vers
tan ts
u Ã¯
t ell
Ġor ganitz
Ġmom ent
ar s
Ġpod en
ra ciÃ³
l ec
tu di
Ġpel s
Ġm od
u ciÃ³
ra da
Ġdi es
e di
o v
x im
ĠL l
ti t
al la
u tilitz
Ġd oc
ĠL es
ri p
at ges
Ġcan vi
Ġimp or
gu in
Ġ ri
us t
ons egu
r u
Ġj u
c at
A ques
Ġva ig
Ġset m
Ġha b
Ġdon ar
aques ta
c s
la ciÃ³
Ġan y
Ġc op
Ġcel eb
en tar
Ġt ota
h e
ĠpÃº blic
on Ã²m
i es
ĠÃ īs
Ġm in
Ġrep res
es a
Ġdes envolup
Ġap ro
s os
Ġdu es
Ġj un
Ġsoci al
av ant
Ġ 9
ĠP ar
Ġ z
Ġre f
l la
Ġ W
Ġ 7
ul l
ĠV al
Ġw eb
Ġl oc
Ġ 8
ad ors
Ġll ar
Ġres p
d re
ĠD es
Ã² g
Ġe di
ĠD i
te ix
Â »
q Ã¼
d ar
Ġ tar
âĢĿ ,
es t
Ġt o
Ġ1 0
bl ica
Ã ¡
Ġg ent
essi on
Ġp oc
m ar
Ġ1 8
Ġten en
Ġ K
d ia
Ġres ul
v Ã©s
Ġpublic aciÃ³
Ã³ s
l us
teri or
v ell
Ġinform aciÃ³
Ġcontin u
i gu
ĠR e
ol s
Ġcas a
Ġac onsegu
Ġtrob ar
d ors
! !
i f
re g
Ġquals evol
Ġpro p
an Ã§
olog ia
A juntament
er es
Ġn eg
Ġno va
Ġel ec
Ġper met
Ġtra vÃ©s
ÃŃ c
Ġd ins
Ġac c
g l
Ġaques ts
Ġd ar
Ġcos a
i ent
Ġd avant
at ura
ĠG ener
b er
Ġfa mÃŃ
Ġcon t
Ġdis pos
Ġb l
Ġg overn
Ġsi gui
Ġan ar
Ġc l
Ġa j
Ġes tan
er ci
Ġres ta
Ġ Ãł
Ġex c
Ġs ist
E S
00 0
Ġll en
er ia
Ġab ans
ĠS al
ci tat
es p
Ġm ost
i ra
Ġmol ts
versi tat
ri ca
l os
Ġnec essi
ĠP ro
v ar
ĠS i
ul es
Ġh e
Ġre fer
Ġ1 5
p us
Ġfin al
ĠT a
ĠâĢ ĵ
Ġg ra
os altres
r on
Ġb aix
Ġ utilitz
ĠÂ «
ab le
t ors
Ġpun t
Ġparti r
ĠA r
ĠA ix
Ã¨ ixer
a ut
Ġex per
Ġa par
Ġd ades
Ġc u
Ġv en
ĠPer Ã²
Ġesp any
Ġprof ession
Ġser Ãł
d is
p e
Ġrecup era
ran c
ell es
p end
Ġs ig
i v
Ġal l
ĠM a
c al
Ġre b
Ġva m
Ġserve is
esti Ã³
min ist
Ġb on
Ġm et
a va
um en
Ġcon eix
r om
Ġde c
Ġb anda
Ġnec ess
Ġh um
Ġlli bre
el s
Ġveg ada
Ġl leg
la bor
Ġarrib ar
Ġa s
Ġcon f
u ts
Ġesc ol
le x
Ġ ro
og ra
Ġpro bl
Ġa g
Ġi de
Ġmunici p
ci l
Ġpre m
Ġex emp
Ġ2 0
tor i
jec tiu
Â ´
d at
Ġcatal Ãł
ic aciÃ³
om en
Ġsetm ana
Ġc lar
n os
er en
Ġactivitat s
r os
p res
re ta
ar ra
is s
um nes
ot s
Ġm Ãºs
Ġm ant
Ġcons id
Ã² s
Ġal g
ĠJ os
Ġti pus
ĠG u
an Ã§a
r al
u res
Ġcon tr
Ġhist Ã²ria
Ġp at
Ġt Ã¨c
c om
Ġpor ta
i ons
au d
Ġrel a
1 9
Ġpr Ã²
Ġc entre
duc aciÃ³
Ġh ores
v or
it er
re ts
Ġgran s
Ġcomp ar
v oc
Ġpres id
2 01
Ġemp res
Ġser v
i Ã¨ncia
Ġpr om
Ġ1 2
Ġj ug
Ġpos ar
Ġseg ons
any a
Ġun es
fic aciÃ³
Ġserve i
n ica
g in
Ġesc ri
ar t
Ġpa ÃŃs
Ġpro pi
Ġal tre
ol Ã²g
u al
ĠL le
Ġb ona
ĠU ni
Ãłn cia
Ġf an
tal s
ĠJo an
si ons
b ilitat
Ġec onÃ²m
Ġdi u
Ġsin Ã³
Ġm er
pl ica
o f
Ġres pec
p u
Ġpob le
h om
L es
Ġciu tad
g at
ec ciÃ³
Ġdis c
ul ta
pany a
Ġinter ess
i cia
Ġal tra
er aciÃ³
ord in
Ġmen ys
Ġes tar
a f
qu en
Ġaques tes
Ġcos es
Ġe quip
g ar
itat s
Ġj oc
g n
Ġm ili
er o
Ġg rÃł
er n
ĠV i
ĠA mb
en c
Ġparti ci
Ġa gra
Ġresp ons
rÃł c
Ġrec on
Ãł g
Ġd in
s c
Ġimpor tant
Ġcap a
l ic
Ġesp ec
I n
Ġalgun s
a qu
Ġf il
on ar
" .
Ġprogra ma
g on
Ġm us
de pend
Ġfa vor
ri l
Ġn orm
Ġf ut
Ġto tal
Ġc ri
Ġfa ci
ĠU na
u da
Ġqu alitat
Ġter me
ĠS er
en tat
Ġp ri
Ġmol tes
emb la
Ġal umnes
Ġn a
ĠJ a
Ġproc Ã©s
Ġ [
A r
Ġgener al
A n
in ter
b li
d ica
Ġh om
tu bre
or re
b res
ri r
Ãł ries
ĠpolÃŃ tica
Ġgu any
Ġpass ar
du ca
ĠTa mbÃ©
gu es
ĠC ol
ass a
Ġsist ema
Ġa t
Ġp rÃłc
er ar
ac tu
l tim
v at
ci ona
Ġrec ord
Ġt el
em Ãł
Ġg aud
Ġcon ver
Ġsup ort
Ġes tudi
oci aciÃ³
Ġs ÃŃ
ĠAques t
ĠP la
ÃŃ t
Ġmateix a
ĠC al
Ġllar g
D es
I I
Ġex plic
Ġcar rer
on om
ri g
ĠM on
ĠP a
Ġm i
Ġin ici
un da
i ment
h ora
Ġseg le
Ġs om
j o
er m
n ic
Ġfa m
Ġc li
r era
Ġma i
i mp
Ġcomen Ã§ar
Ġ1 7
ti a
Ġav ui
ur os
Ġc at
Ġdes p
Ġn at
ra c
te g
Ġi l
Ġm or
E R
is i
Ġpers ona
c er
Ġdem an
Ġtrac ta
Ġcon di
g ia
tar is
Ġcomp le
Ġz ona
Ġ ,
Ġl la
Ġcomp any
Ġha ver
Ġsitu aciÃ³
Ġx ar
Ġval or
in e
ves ti
Ġdi f
ri tori
Ġd ona
Ġdef in
Ġform aciÃ³
tr u
Ġm ica
U n
itz aciÃ³
Ġl ÃŃ
p ia
Ġb us
Ġtra di
Ġn osaltres
Ġc Ãłr
om a
ir c
Ġparti t
Ġob li
as c
Ġ |
Ġqu atre
ac te
ĠmÃºs ica
Ġmant en
Ġv ost
un d
" ,
Ġtreb alla
un ci
ta da
Ġr en
Ġtemp or
ar ia
Ġf ent
Ġf ill
is siÃ³
Ġ ur
l u
Ġten im
Ġt ur
Ġp en
Ġperson al
Ġac om
v in
or di
Ġde cid
Ġpod em
ar em
Ġm on
Ġins tal
Ġpossi ble
pos iciÃ³
ter na
v ant
Ġni vell
Ġm eu
Ġb o
em ents
Ġtin d
t ot
ĠCons ell
Ã¨ r
cion als
ĠT ot
Ġ1 6
ÃŃs tica
Ġ Ã¨
Ġca mÃŃ
Ġ1 4
Ġvis i
r is
Ġsenti t
ur Ãł
Ġf es
op ular
Ġet c
Ġf em
Ġdef ens
Ġsoci etat
ĠGener alitat
m at
3 0
Ġg ai
Ġm ig
es siÃ³
Ġf Ãł
Ġinter na
Ġseg Ã¼
ir Ãł
Ġpre par
d res
Ġtal l
Ġexemp le
Ġs embla
ĠAques ta
t ural
ac tivitat
ec n
Ġsoci als
Ġp Ãłg
Ġl eg
ĠM un
ĠC an
Ġcon Ã¨ixer
Aques t
ti da
ĠB ar
Ġm entre
od e
Ġd ones
ac c
oc tubre
Ġun i
is c
ec a
Ġd ist
alitz aciÃ³
ĠJos ep
un s
r ers
Ġes tr
pr en
Ġin ten
Ġmat eri
ĠS oci
Ġs en
a par
re tat
Ġen ti
ÃŃ em
Ġdivers os
Ġe fec
ĠP al
p on
Ġe duca
ci s
ĠUni versitat
Ġset embre
Ġre un
Ġprof ess
Ã§ os
x es
ĠM an
Ġfe ina
Ġm arc
s t
Ġmes os
Ġ1 3
Ġs ota
ol i
Ġ /
om b
Ġs a
f ia
Ġaqu ÃŃ
er ca
id es
Ġdeix ar
e quip
v al
i on
an til
Ġl ec
ul s
anÃ§ ant
Ġpro du
Ġpresid ent
ĠE uro
Ġfor Ã§a
ĠV all
al ta
Ġn ens
ĠÂ ¦
Ġs ent
Ġ3 0
u it
Ġd ret
tu res
t ur
Ġrel aciÃ³
Ġdes ta
Ġhist Ã²
u di
a ta
en es
N o
Ġca us
Ġseg ona
ai gua
Ġcon jun
ĠfamÃŃ lia
Ã ±
le t
I C
an o
ab te
urs os
Ġc irc
Ġcon egu
Ġel l
un t
Ġt ri
onom ia
Ġin d
gu al
Ġproduc tes
Ġdivers es
Ġpartici par
Ġ2 5
Ġma ig
il la
C om
Ġre alitat
Ġj orn
vi en
Ġesp ai
o k
Ġin depend
Ġedi ciÃ³
Ġ201 8
Ġnov embre
or ta
li ol
Ġob res
Ġter ritori
Ġdiss eny
Ġjun y
ci n
Ġc in
Ġins titu
ti ma
ĠP u
Ġalg una
A ss
Ġpob laciÃ³
Ġin di
ĠâĢ ĺ
Ġaconsegu ir
Ġg estiÃ³
Ġveg ades
Ġprojec tes
A C
Ġparticip aciÃ³
Ġpres entar
Ãł c
Ġvol un
Ġjo ves
Ġmaj or
Ġob jec
truc ciÃ³
Ġn e
u ta
Ġno ves
Ġempres es
Ġseu a
an i
Ġcas tell
ÃŃ cia
Ġespany ol
Ġ '
u en
al e
ĠmÃł xim
vis iÃ³
Ãł l
Ġpro per
Ġt ex
Ġn Ãº
c es
form a
esc ola
Ġd en
al a
ĠcÃłr rec
Ġpres ent
fic ar
Ġa fec
a mb
Ġp in
Ġpl ant
ĠG ir
Ġespeci al
Ġllen gua
ob jectiu
n o
Ġpre gun
Ġcatal ana
ab or
ĠgrÃł cies
ĠCa mp
Ġ1 1
Ãł m
Ġcomp te
alitz ar
S i
Ġsab er
. [
ĠJ ordi
Ġo fici
Ġs em
er at
Ġel ls
Ġg en
Ġp e
ar a
Ġa mp
ĠG overn
Ġseg on
Ġgaud ir
Ġme di
Ġes de
f or
Ġter ra
Ġ .
Ġv in
Ġr Ãł
duc ciÃ³
Ã© n
ib li
la ment
li es
gu ts
Ġpun ts
Ġ k
ogra fia
ĠV a
Ġcomp l
ĠAix ÃŃ
Ġcla ss
Ġju liol
Ġpres enta
Ġde b
re a
A R
it es
ul tura
Ġalgun es
e j
Ġd rets
Ġpar a
Ġsec tor
er e
Ġme va
A T
og rÃł
Ġd om
Ġten ia
Ġsobre tot
qu er
c h
i p
Ġt or
Ġmaj oria
Ġdesc ob
labor aciÃ³
Ġcor res
er ta
b il
ter min
tu dis
Ġacom pany
Ġmitj anÃ§ant
Ġcomun icaciÃ³
ĠÃº ltim
Ġaf eg
tar Ãł
v ent
Ġta s
Ġaj ud
Ġs el
Ġno us
Ã¨ ri
ob ra
Ġman if
Ġpar lar
Ġf os
Ġcul tura
ort un
n at
Ġass egu
Ġcontr ol
ĠC o
Es tat
Ġf ou
Ġgrup s
Ġdesenvolup ament
tic le
Ġi d
ÃŃn ia
par tament
Ġ201 7
Ġmar Ã§
ac ord
ri en
oc up
Ġdiss abte
pa i
umen ge
ac ter
ist Ã¨ncia
Ġde ci
Ġt ecn
Ġf i
ÃŃt ol
Ġp opular
la cions
vesti g
Ġdi rig
Ġpa per
Ġ19 9
form aciÃ³
Ġcos tat
ix a
en ya
v ista
ĠC l
Ġdes embre
ĠT er
Ġan im
oc rÃł
li ci
ĠS anta
Ġprofession als
Ġs eny
ven dres
ĠA c
Ġ eren
Ġcom b
mb it
Ġn it
is teix
unda ciÃ³
u ria
Ã¯ sos
Ġur b
Ġ 0
eri or
Ġcorres pon
d en
Ġcontra c
er g
tan y
Ġinc lo
un y
Ã¨ m
c o
ĠC entre
Ġs an
l at
h ab
A N
es tat
gu Ã©s
ni ques
Ġesp or
ven ciÃ³
Ġtreball ar
pos ta
minist ra
Ġd ub
Ġla bor
a j
Ġe uros
Ġcons um
Ã² r
Ġmat ÃŃ
ĠVal Ã¨ncia
ĠpÃº blica
ÃŃ a
ĠF ran
Ġloc al
Ġpla Ã§a
gl Ã©s
ĠP ol
Ġve Ã¯
d s
ĠC or
Ā Ā
a gra
ĠGir ona
Ġsegu ir
Ġt eu
z e
m s
Ġm assa
Ġtorn ar
ĠM us
ad al
Ġdes tin
Ġcon tac
Ġt ema
Ġfut ur
Ġtempor ada
Ġin icia
Ġs u
Ġtrob a
Ġres id
e ts
Ġs o
titu t
Ġnat ural
Ġl iter
tÃł n
Ġ qÃ¼
Ġr om
Ġma pa
ĠfÃł cil
Ġc ob
Ġdon cs
Ġ2 1
Ġfam ili
ĠMar ia
os es
ibli ot
at Ã¨
voc at
Ġsup er
ca da
ĠnÃº m
Ġcomp rom
Ġcent res
Ġserv ir
Ġfaci li
Ġrealitz ar
s ol
d em
Ġpass a
Ġdar rer
h ir
Ġor ig
Ġcar acter
Ġoc ulta
Ġmili ons
Ġenti tats
Ġacab ar
ĠR ec
ĠS eg
ĠV ic
ri d
al t
Ġt r
Ġtex t
iv il
ac ciÃ³
os os
Ġrespec te
Ġmo vi
Ġfot o
ta gon
Ġl ÃŃnia
Ġen c
Ġ y
Ġde dic
ĠG ran
A L
v aciÃ³
Ġcom erci
ĠF undaciÃ³
b ol
ĠA ra
Ġlli bres
in ar
Ġcomen Ã§a
ĠCas tell
Ġmin uts
Ġprom o
Ġm ort
Ġ Z
Ġs on
n et
Ġcre ar
Ġfavor ita
ic le
1 1
eb rer
Ġcons er
al tra
ĠN a
au la
Ġt ren
ĠM ol
Ġrec om
Ġd ur
es tar
rim oni
ĠJ u
ÃŃ fic
Ġofer eix
ĠVi la
m an
ti ga
Ġmitj ans
ab ril
Ġf re
Ġc ur
Ã© u
Ġtra s
U na
Ã¡ n
ÃŃs tiques
Ġoc up
b a
ĠEs panya
Ġconjun t
Ġesp a
Ġpro tagon
an ia
Ġmod el
Ġdi umenge
ed ir
Ġsegu retat
or ganitz
Ġtot hom
Ġrec ursos
Ġcon ven
Ã īs
O N
Ġsi mp
Ġprobl emes
Ġe uro
u ari
Ġv ul
Ġrela cion
Ġcondi cions
Ġval enci
Aques ta
Ġpro t
Ġ â
Ġll um
ĠfamÃŃ lies
emp resa
Ġesta va
ĠprÃłc tica
Ġc inc
ĠR eg
tr Ã²n
âĢ ľ
Ã¨ tica
Ġsal ut
Ġmost ra
Es c
g rat
Ġde termin
g res
Ġ201 6
Ġob ra
ĠE x
tal la
A mb
d o
ga f
E N
Ġ ...
Ġaut or
Ġf ac
Ġmol ta
Ġf ora
ĠH i
âĢ ĵ
r Ã©s
Ġres ol
Ġmunicip al
rib u
qu it
Ġdi vendres
Ġrec erca
Ġper i
Ġn ot
2 00
v ui
Ġf ons
Ã Ģ
Ġm emb
Ġsig ni
Ġprincip al
Ġespeci alment
Ġim m
i ques
Ġvi ure
or ca
ten ciÃ³
itz ar
Ġjorn ada
li da
Ġmillor ar
Ġde u
Ġmo tiu
Ġcre aciÃ³
i Ã¨ncies
ĠS ol
Ġex plica
du ir
Ġp es
Ġs uc
ĠM ad
i tal
Ġlloc s
aques ts
Ġ2 4
Ġdec lar
Ġm ot
Ġcre ix
Ġall Ã²
Ġex pres
tiva ment
Ġvi ol
Ġf ebrer
Ġj ust
ĠM i
Ġm il
Ġdem ost
Ġf esta
ĠD E
Ġpar la
tin a
el a
Ġid enti
ĉ Ċ
Ġcom ar
Ġes ti
Ġimp l
Ġp an
Ġf as
Ġi gual
u als
Ġbas e
Ġdirec tor
Ġpeti t
reb Ã©
Ġpod rÃł
âĢ ¢
x e
Ġmus ic
ÃŃs tic
ĠS an
ent ment
glÃ©s ia
e fici
Ġpot ser
ĠT arra
Ġvis ita
p ort
s up
Ġest em
qu ÃŃ
fic at
Ġmemb res
x it
os s
Ġref lex
gu lar
Ġf ranc
Ġd ol
er ic
da vant
ĠAix Ã²
Ġg aran
Ġpod eu
h er
Ġ2 2
ĠpÃłg ina
g en
m Ãł
ĠDes prÃ©s
Ã§ at
Ġlli ure
p oca
Ġque da
rip ciÃ³
Ġpos i
Ġreg id
ÃŃs si
ca d
g ona
Ġper d
ost en
Ġxar xa
Ġc ot
Ġar t
Ĥ ¬
e z
Ġmunici pi
p re
I ns
Ġtin gut
Ġ201 5
e tes
Ġcons trucciÃ³
tra c
v eu
ĠR o
u ix
Ã¯ t
Ġnom bre
Ġlli ber
qu erra
Ġm ed
d it
Ġpor tar
ot el
tiv al
Ġim atge
ĠM as
O R
gu da
ar en
Ġpres entaciÃ³
Ġcon fi
ad ora
Ġpropos ta
1 0
Ġcul tural
Ġmill ors
ĠprÃ² pia
Ġm ob
Ġresul tats
Ġprim ers
Ġper ÃŃ
Ġ Y
Ġdem ocrÃł
ĠF ranc
w w
ĠAn t
on al
Ġg as
Ġmer cat
Ġcas os
Ġdirec ciÃ³
ili tats
Ġcons titu
Ġha urÃł
ÃŃn im
Ġaqu ells
ec u
Ġform at
ĠC iu
Ġp le
Ġmet res
Ġp ort
Ġd it
Ġprobl ema
Ġresul tat
Ãłc ter
Ġdoc u
ap ro
Ġprofession al
ss a
Ġsub s
Ġcar Ãłcter
Ġpa Ã¯sos
ĠL li
Ġv ist
ĠT e
Ġv ic
Ãł mbit
Ġtind rÃł
Ġn ord
Ġgai rebÃ©
u aris
ni es
i ments
Ġvol em
t Ã²ria
os pi
Ġcamp anya
Ġll u
Ġprincip als
ĠsegÃ¼ ent
tu al
Ġesta bl
Ġsol s
Ġv ia
minist raciÃ³
Ġlle i
Ġexper iÃ¨ncia
Ġf arÃł
Ġas pec
Ġen f
di o
Ġ rob
A c
gu any
om p
it Ãłria
Ġcat eg
Ġtar da
Ġf igu
e ig
Ġm ÃŃnim
Ġelec trÃ²n
e ducaciÃ³
Ġpres Ã¨ncia
ĠF er
l ÃŃc
Ġen ll
Ġcol or
oll ir
vi at
m aciÃ³
Ã¨ri e
Ġespec tac
es tudi
bl ement
v ors
Ġpar es
Ã¨ ria
Ġaqu ell
ĠT or
Ġqu in
Ġtrac tament
Ġespa is
oc s
ta ri
Ã² l
Ġinc or
Ġcatal ans
quit ec
m enta
Ġconsid era
Ġg l
ĠSer ve
Ġcapa citat
ĠEs c
Ġconc ep
Ġpara ules
es tiu
ing Ãº
Ġnecessi tats
ĠMar t
ten ir
d ora
Ã³n a
as i
Ġt u
ci al
Ġbar ri
Ġsor tir
aques tes
Ġque dar
Ã¼ es
Ġorig in
pr endre
Ġide a
Ġfe ia
p ro
acc Ã©s
D e
gu en
Ġpod ria
Ġprem i
Ġf l
ĠP S
Ġs ur
Ġan at
Ġcons ell
Ġcon te
1 8
ĠTarra gona
Ġcons ci
a tiva
Ġt ÃŃtol
Ġser ia
Ġe vi
ĠVal enci
ex per
ab ilitat
Ġfun ciona
an ar
Ġm ir
g er
Ġpeti ts
at en
ĠR am
ĠP rem
t o
Ġpu gui
Ġdif ÃŃ
Ġm ul
um e
l les
ĠQu an
v em
Ġan omen
os ta
Ġparti ts
i or
Ġmar ca
Ġa ug
Ġv ig
o cia
Ġcan Ã§
Ġpro u
2 0
Ġb Ãłs
in i
Ġb i
es pai
os c
lus iÃ³
ĠPer e
Ġs is
Ġter c
in aciÃ³
t ora
Ġre m
car reg
Ġpot s
Ġv ari
Ġter min
Ġtel e
Ġpar l
tan ya
Ġ #
Ġprofess or
Ġd ic
E C
p s
Ġs Ã¨rie
ov int
Ġd Ã³na
Ġmal al
tic ular
Ġsor tida
va da
Ġpens ar
Ġnov el
Ġmo di
ĠpolÃŃ tics
ĠLle ida
ĠeconÃ²m ica
jo us
Ġesde ven
Ġ5 0
Ġper fec
r ont
Ġha uria
Ġproduc ciÃ³
Ġconeix ement
Ġgu erra
in ici
plic aciÃ³
di al
ĠCom un
i em
Ġesp er
Ġo f
Ġinterna cional
Ġv ÃŃ
ĠCatal ana
cion ar
Ġimp os
tin g
gu er
Ġ :
Ass ociaciÃ³
Ġcaus a
Ġ19 8
id e
Ġin teg
enci al
ÃŃ tica
er c
Ġexplic ar
Ġpro v
Ġa gaf
aut or
Ġcap ital
Ġg rat
Ġrec ol
Ġcar a
Ġfill s
Ġreg ist
il ar
ĠO r
ol es
Ġte va
v os
entat ge
t em
Ġins c
Ġpres sup
Ġcomp eti
Ġsem bl
g el
ĠMad rid
Ġp ed
li tat
Ġt emes
Ġlleg ir
Ġvol tant
ĠS egu
Ġhab itu
Ġna cional
al cal
Ġoc as
Ġt re
ĠM ont
c ep
Ġimp res
Ġ2 3
Ġnecessi tat
Ġha vien
Ġs ap
Ġsup os
Ġ201 4
O r
Ġf ona
Ġp is
ÃŃ cies
Ġcon n
Ġcomp ta
a vi
Ġv inc
ĠC h
tin t
Ġel la
Ġpre u
ibliot eca
Ġmanten ir
Ġdecid ir
ĠP P
Ġpl at
Ġrec orre
Ġcre u
Ġv o
ĠpolÃŃ tiques
Ġmateri al
Ġf ru
Ġg erm
Ġt oc
I N
Ġimpor tants
Ġquan ti
Ġv ista
anc es
Ġactu al
olÃ²g ica
Ġcomp et
Ġrefer Ã¨ncia
Ġceleb rar
Ġex p
ro p
da p
Ġdi gi
Ġve h
Ġpropos tes
Ã³ r
Ġb at
Ġf ÃŃs
Ġr isc
Ġha gi
Ġel ements
truc tura
ĠD Ã©u
Ġ1 00
5 0
o fer
r ats
ĠR a
Ã© ixer
Ġrepres enta
Ġcl ub
ing Ã¼
alitz at
s ic
Ġben efici
Ġindi vid
âĢ¦ ]
Ġf ar
ĠperÃŃ ode
Ġcons tru
Ġdifer ent
ĠpÃºblic s
Ġrecon eix
Ġres er
Ġre par
alitat s
ta des
Â» .
Ġex pos
ent rada
Ġp al
ĠP res
Ġpo gut
Ġimp ort
e qÃ¼
Ġpl an
tal l
Ġc ert
ĠT erra
Ġcons ul
Ġgrat uÃ¯
Ġn ingÃº
ust ri
Ġciutad ans
o di
Ġ2 7
Ġad ministra
Ġproc ess
Ġs ob
mp oc
A M
tis tes
Ġcontac te
Ġent orn
Ġs im
Ġdi m
ospi tal
Ġin vestig
ĠG ar
Ġpu guin
Ġac ord
re ga
d er
olÃ²g ic
le gi
er ts
Ãº blica
Ġre bre
pe a
ess in
s si
ĠB en
Ġm em
ĠJa ume
o ti
ĠS up
Ġneg oci
Ġfun ciÃ³
ula ciÃ³
Ġpar ticular
ĠR ep
Ġmar xa
Ġpro va
ĠvÃŃ de
Ġj ur
en ari
Ġparticip ants
qu el
Ġh or
Ġl im
Ġlliber tat
ĠCa p
Ġd Ã¨
Ġh ora
Ġan terior
es tr
a ven
Ġacc ep
Ġloc als
si on
Ġob jectiu
ob le
Ġt rÃł
qu is
Ġinf antil
Ġus uaris
ĠH a
Ġres posta
ĠSoci al
ĠIn terna
Ġmar e
Ġ ord
Ġs um
ÃŃ fica
ĠDe partament
un ta
g Ã¨ncia
g o
Ġf ra
Ġrepres en
ĠP rim
us ta
Ã¨ t
Ġmill ora
la da
ĠD ia
u a
ov aciÃ³
Ġti t
ĠLle i
Ġa i
en da
Ġcons eqÃ¼
Ġp ost
Ġ >
Ġclass e
Ġfe ts
Ġa dap
Ġ[ âĢ¦]
Ġdefin i
Ins titut
gl Ã¨s
Ġmom ents
Ġf alta
ĠpolÃŃ tic
Ġ201 3
Ġse gui
ĠNa cional
ca p
ĠPu ig
Ġan ti
al tre
ar rib
Ġmovi ment
Ġ ul
Ġam ics
Ġpeti ta
any s
Ġvi atge
Ġemp resa
Ġ201 2
ĠCl ub
i ble
ri t
.. ..
1 2
Ġcada sc
g rÃ©s
Ã² p
qu et
Ġdis p
id ar
es per
Ġcont emp
ĠGener al
ĠM o
Ġs ovint
fer Ã¨ncia
Ġf el
Ġhom es
Ġser an
aten ciÃ³
ĠĠĠĠ ĠĠĠĠ
Ġreb ut
Ġex erci
tit z
met re
Ġcomun itat
Ġofer ir
Ġmen jar
Ãº l
ĠAnt oni
ĠF es
Ġver itat
Ġp il
ici p
Ġdi jous
om Ãł
Ġaf ir
Ġpar e
ric s
Esc ola
Ġllu ita
Ãł leg
ĠMus eu
c e
ĠP l
Ġjoc s
Ãł ss
Ġm ans
Ġpressup ost
Ġperi od
ĠR es
ĠMon ts
Ġutilitz ar
r ant
Ġes tudis
t ec
Ġca m
Ġtreballa dors
teri ors
Ġcon vocat
Ġcontin guts
tis ta
Ġ19 7
er Ã§
Ġc ient
Ġdefens a
Ġ2 8
c le
ĠdifÃŃ cil
Ġob s
al um
Ġmes ura
Ġpa is
a mp
Ġtin c
Ġequip s
Ġinicia tiva
gu em
Ġd ata
ag ost
Ġre al
ra des
Ġdon at
Ġenll Ãł
ĠC er
Es panya
Ġca b
Ġd reta
Ġsal a
ogra fi
Ġrec ep
Ã² bil
ti es
b ert
j at
Ġjo ve
Ġen davant
Ġg Ã¨n
Ã§ ada
Ġim atges
Ġval ors
ĠÃ Ģ
Ġmes ures
Ġrespons able
Ġcr isi
Ġsegu r
enti s
Ġint el
Ġimp uls
Ġdeman ar
Ġcu ina
Ġ2 6
ĠL e
ha via
ĠveÃ¯ ns
T ot
ĠA d
Ġtar d
A S
c ant
Ġsi guin
ĠC ultura
organitz aciÃ³
Ġevi tar
as t
te gra
C on
Ġpossi bilitat
Ã²n ica
Ġdi fic
Ġestr atÃ¨
Ġte atre
Ġpro por
1 5
Ġtrob em
Ġelec cions
Ġa de
Ġsup erior
ĠB l
Ġcli ents
ĠX X
Ġel abor
Ġtra m
f a
ci e
Ġdin ers
ĠDi pu
Ġcor rec
Ġmateix os
Ġta ula
ens a
ĠâĢ ¦
Ġdar rera
Ġdi b
Ġg esti
Des prÃ©s
Ġlec tura
Ġdeb at
ĠB o
ĠEn s
Ġco op
eix i
Ġcompar tir
in f
hi b
ĠMun icip
ĠT ur
Ġd ura
Ġqu ad
ĠS ab
Ġagra da
Ġcan di
Ġarrib a
Ġcar rers
Ġcon v
Ġv ir
Ġvisi tar
Ġbaix a
Ġimport Ãłncia
in cid
om Ã©s
da ment
ll uns
Ġmen a
z a
ĠG ra
e us
Ġex pl
om es
Ġtrob ada
Ġco ordin
ita ciÃ³
Ġcan vis
or da
ĠDi rec
Ġn av
Ġcor reu
Ġs essiÃ³
Ġade qu
Ġf on
ĠA b
cad Ã¨m
Ġe vid
Ġc rec
ĠP od
Ġdi lluns
va dor
or ig
Ġdesc on
Ġcon vi
Ġsen z
p en
is tir
es taciÃ³
Ġconc urs
Ġproduc te
en cia
re ix
Ġex tra
ĠLl u
Ġ er
Ġi r
Ġvol en
Ġlla vors
es pec
Ġrecorre gut
I S
ca ment
Ġobjec tius
ur als
Ġvolun tat
li ment
Ġmitj Ãł
ex c
ĠF el
all es
ed at
Ġrec la
ti on
tat ge
r or
vi ar
Ġsenti r
Ġa hir
Ġcomar ca
ĠV er
ĠnÃºm ero
Ġa viat
Ġamp li
Ġpa ci
Ġsigni fica
Ġent rar
Ġp i
ur ar
Ġalg Ãº
A ix
Ġri u
qu ia
ur an
Ġdific ul
ci na
Ġprot ecciÃ³
ex posiciÃ³
Ġcla ssi
jec te
ĠPar lament
ed eraciÃ³
ta forma
Ġincor por
Ġinf ants
Ġtas ca
tor n
Ġac tes
I T
Ġajud ar
Ġ4 0
Ġf oc
Ġaspec tes
ec res
ĠP at
Ġc ivil
Ġ19 3
titu d
Ġdi ver
Ġdib uix
E x
Ġpod ran
ic ar
tur als
Ġcanvi ar
ĠA m
Ġguany ar
ĠIn s
Ġcon vid
egu t
Ġcre a
Ġpat rimoni
Ġten d
Ġsegu it
Ġcla u
Ġ201 1
pren entatge
ÃŃ m
Ġfamili ar
Ġal hora
on at
bli ques
Ġc ost
um s
i al
Ġtreball s
ĠÃº nica
Ġb all
ortun itat
Ġz ones
Ġs Ã©
Ġex ig
al u
f on
Ġdar rers
Ġ2 9
ĠX V
os sos
Ġter cer
am or
ha ver
Ġpl anta
Ġll ista
ĠB ale
us iÃ³
Ġprincip i
Ã²n ia
Ġm iss
us ti
Ġper dre
Ã ĵ
ro c
fi ques
ri u
ic at
Ġac cions
ĠÃºltim s
1 4
Ġob ser
ĠsegÃ¼ ents
Ġdub te
is ti
gu Ã©
ic les
Ġes tim
p id
Ġedi fici
in at
ĠIn ter
Ġlabor al
em ble
us uari
Ã¨ l
ist ents
Ġvi u
E T
olog ies
i cions
Ġpos a
Ġan unci
Ġconc ert
1 7
Ġpr endre
Ġfin alment
r ent
ĠPrem i
lla Ã§
Ġan i
re di
z ar
ori al
ca pa
ga ment
Ġtall er
Ġs osten
A D
Ġta mpoc
ĠMi quel
E uro
ĠtÃ¨c nica
Ġ Ãºs
Ġarrib at
A d
c on
Ġm as
Ġnecess ari
d ats
ografi es
Ġperson atges
Ġcateg oria
ada ment
Ġxar xes
ĠM en
Ġrel ig
ĠAn d
Ġciutad ania
ri ure
enya ment
n ics
ist Ã²ria
Ġpoc s
Ġe qui
ĠT ra
Ġjug ar
Ġs ud
Ġcomp os
Ġvi at
ĠM al
enti tat
Ġmun tanya
Ġrel le
Ġactu alment
ĠInterna cional
lÃŃc ula
A ra
Ġbl og
Ġp ec
ĠCar les
Ġf al
Ġass ol
Ġtermin i
ĠP au
alitz ada
itat ge
Ġest ran
it en
Ġm is
ĠA ss
agra da
âĢ Ķ
Ġh as
Ġb al
ĠQu e
Ġcent ral
Ġmusic al
Ġmunicip als
ĠB a
aqu ÃŃ
Ġfut bol
Ġdirec tament
ĠG rÃł
Ġmal grat
p eu
pi es
Ġmat Ã¨ria
Ġc icle
Ġgl ob
si va
Ġdigi tal
Ġsel ec
Ġg e
Ġsa tis
Ġconf lic
Ġfin als
!! !
Ġcompany ia
Ġ201 0
ĠC ent
Ġjun tament
Ġind ustri
Ġre vol
d rÃł
Ġpu blica
qu em
Ġespany ola
Ġse par
Ġdescob rir
ĠFran Ã§a
ca des
Ġgu st
Ġob ert
ĠF in
Ġresp on
Â» ,
Ġmateri als
it or
Ġint ro
ĠE m
Ġcontin gut
Ġpos iciÃ³
Ġfona men
T a
ĠM or
Ġescri t
h ores
met res
Ãłn im
Ã¨c t
ĠDipu taciÃ³
Ġdisp oni
Ġcontinu ar
ĠprÃ² xim
qu il
Ãłl isi
Ġab sol
Ġfun da
ĠP en
ĠgÃ¨n ere
Ġconc ent
Ġpod ia
Ġap or
ĠUn iÃ³
Ġent endre
Ġaqu ella
t t
Ġcl Ãłss
lec ciÃ³
Ġhom e
Ã² ries
a cab
s ar
Â Ń
ĠEuro pa
e f
Ġpar c
C I
at es
Ġperson als
Ġnav eg
x t
ĠV ol
Ġescol es
it x
ogrÃł fic
Ġf ab
ĠM arc
Ġpublic at
Ġfunciona ment
ĠM all
essi ons
on g
Ġquanti tat
ens e
Ġf ran
Ġper ill
Ġll uny
E M
Ġ $
Ġrel acions
b o
ĠN adal
e v
u el
Ġpr en
edi fici
ret era
inter Ã¨s
ra ment
ita ri
Ġinstitu cions
Ġpar aula
lec tiu
Ġconegu t
in dic
Ġrespons abilitat
ĠD urant
Ġi ma
Ġp sic
E ducaciÃ³
Ġdes apar
Ġmem Ã²ria
an im
C O
Ġp eu
Ġfin alitat
Ġb ri
Ġtall ers
Ġpl ena
Ġexc ep
ĠP arc
ĠeconÃ²m ic
Ġconver tir
Ġre gu
dor ra
Ġceleb ra
Ġpre ocup
ĠqÃ¼ estiÃ³
emÃł tica
ĀĀ ĀĀ
Ġbus car
Ġpos terior
Ġj ut
Ġdesenvolup ar
Ġre t
ĠTe atre
Ġcastell Ãł
Ġg anes
c an
ar ticle
Ġtradi cional
ĠX I
ent orn
f il
ĠFranc esc
ĠG o
Ġbl anc
al gun
1 6
Ġm asc
Ġdim ecres
A vui
is mes
ĠMunicip al
Ġver siÃ³
Ġcom Ãº
I B
Ġin n
Ġnom b
Ġf ront
ĠD el
Ġconstru ir
Ġem b
Ġescri ure
Ġpre fer
ĠM ed
Ġestudi ants
Ã³ c
Ġofici al
or ar
ta va
ori es
v all
Ġal t
Ġfun cion
Ġsegu eix
ĠH o
Ġ gui
qu in
ĠS a
Ġdeix a
er tes
Ġtrob en
k e
Ġrecord ar
Ġin dic
Ġl o
ĠG rup
Ãł b
Ġprimer es
Ġesta ven
Ġes s
gi ques
Ġtotal ment
Ġde ri
es es
Ġ om
Ġan d
Ġform ar
Ġprem is
Ġsetm anes
ĠtÃ¨c niques
Ġdes tac
Ġgen era
es tÃł
Ġpr Ã¨
Ġn enes
Ġall Ãł
Ġrec ull
Ġb ici
E L
r ÃŃc
Ġju di
Ġtor na
Ġca min
m on
Ġsitu at
Ġactu acions
Ġleg is
i va
Ġra Ã³
exper iÃ¨ncia
tin gut
Ġav an
e jar
ament s
ĠF orm
Ġciu tats
O S
ĠP or
Ġpos at
ĠprÃłc tiques
Ġform es
Ġtrans port
Ġob tenir
A P
Ġcar retera
Ġm ec
alcal de
Ġ19 6
ĠEn tre
Ġviol Ã¨ncia
Ġprincip is
Ã² leg
ĠR ib
tr uÃ¯
Ġad re
ĠB aix
Ġamb ient
gin y
Ġcaracter ÃŃstiques
Ġqu ina
Ġin au
Ġcompany s
ĠRam on
Ġcons ol
ĠL la
Ġk m
Ġinteress ant
Ġres s
Ġapro fi
j ada
Ġb la
t on
Ġs ort
Ġprogra mes
/ /
ĠF ac
ĠJ es
Ġn uc
Ġsol u
eg a
Qu an
Ġreun iÃ³
e tats
Ġf om
Ġinau gu
un es
ir an
ĠqÃ¼ esti
ad ell
da c
an ca
Ġgu ard
l oc
Ġper m
ocia cions
Ġe ix
ĠM in
for Ã§
Ġcomprom ÃŃs
Per Ã²
Ġp ista
a bles
Ġac te
plic ar
u gi
ĠBale ars
Ġcin ema
Ġre du
Ġ Ð
Ġco incid
J a
n ia
Ġfes tes
Ġsel ecciÃ³
j or
p es
rib un
Ġter ren
Ġcurs os
ĠA ut
Ġm Ã²bil
ĠvÃŃde o
ran s
Ġdirec te
Ġpro teg
Ġcomp rar
ien tal
ĠEs tats
activitat s
Ġr uta
Ġp leg
Ġdist rib
en tal
Ġgai re
ĠelectrÃ²n ic
mar ts
Ġaqu elles
ona da
Ġpre t
t ria
Ġcos ta
ĠâĢ Ķ
Ġdesta car
ac h
En s
â Ĥ¬
Ġdeci siÃ³
v el
Ġno ta
Ġceleb raciÃ³
u blic
Ta mbÃ©
re us
umen tal
ĠCatal Ãł
D urant
Ġri t
vers ari
Ġcreix ement
id ent
ĠM Ã©s
Ġvis iÃ³
Ġacc edir
l en
Ġconf ir
ĠLlu ÃŃs
ĠX avi
Ġprem sa
Euro pa
ĠMall orca
Ġsen si
ĠP ot
Ġjug adors
Ġcol ors
Ġcont ribu
Ġdi marts
orig en
Ġv aren
Ġpar ts
Ġinc l
r ÃŃ
ĠCom issiÃ³
Ġmost rar
Ġcon tes
ĠE mp
1 3
Ġ200 9
es querra
Ġf ix
Ġqu il
Ãłn ica
tic les
Ġvi v
u f
Ġg ir
Ġb osc
Ġllar ga
reb all
Ġma gn
Ġex isteix
Ġcontinu aciÃ³
ĠP i
Ġre i
Ġn eu
Ġpu bli
Ġel Ã¨ct
Ġesp Ã¨
Ġex tre
Ġpob les
Ġva c
Ġqu ar
Ã¨ tic
: //
Ġr Ã¨
Ġs il
ĠC at
Ġent ren
Ġse x
dor es
ĠSal ut
is b
Ġpres entat
Ġdem ana
Ġcot xe
Ã¨ rica
ĠpÃº bliques
Ġcomen Ã§
Ġha gut
anÃ§a ment
Ġdocu ment
tan a
Ġmunicip is
U P
ĠP r
Ġdi ari
Ġtradi ciÃ³
Ġre iv
Ġ tir
k a
b i
Ġdiu en
Ġcul turals
Ġliter atura
Ġsi gut
ota ciÃ³
Ġide es
. -
Ġpartici pa
Ġfot os
emble a
s es
am unt
Ġmitj ana
Ġterc era
ex pres
ai re
ul tural
ĠT ots
Ġpromo ciÃ³
e da
ĠUn its
tu alment
Ġre alment
Ġ Â·
m or
Ġ6 0
J o
Ġa prendre
e qu
Ġescol ar
um entaciÃ³
Ġno ve
Ġ ub
ĠV il
Ġconvocat Ã²ria
Ġgra u
ot es
ĠT V
Ġac os
si ques
an isme
ul at
Ġacab at
ĠB er
l le
g im
Ġindepend Ã¨ncia
Ġorganitz at
Ġpro ves
an des
ĠÃ¨ xit
Ġcontinu a
Ġfigu ra
Ġten ien
Ġg ar
Ġpl u
Ãº n
Ġclass es
ĠCas a
Ġaj uda
r arÃł
g ent
Ġpec es
Ġima gin
Ġal terna
tor al
ĠPal au
Ġefec tes
x i
Ġexplic at
ĠSeg ons
que ts
Ġaconsegu it
Ġs us
Ġtit ular
ĠtÃ¨c nic
v ist
k i
Ġbl oc
Ġsin dic
ĠGu erra
era ment
Ġob rir
Ġv uit
ĠprÃ¨ via
in formaciÃ³
Ġinclo u
II I
oc al
ï ¿
Ġproc ed
Ġuni versi
Ġb ones
enci ar
Ġsist emes
Ġper man
ĠS Ã³n
O L
Ġar ticle
Ġde dica
Ã³r rer
m o
Ãº ltim
Ġe ta
ib ilitat
h or
Ġrealitz at
Ġrecup erar
ï¿ ½
A B
va des
Ãł vem
Ġm embre
Ġhum ans
i re
Ġm ira
Ġb e
ĠS ec
Ġconte xt
Ġesc rip
Ġtran quil
Ġ200 7
Ġobs tant
Ġcu ri
ĠpÃłg ines
actu al
lici tu
Ġpor tes
Ġdi pu
Ġv esp
ica ment
Ã¨ dia
Ġgu ia
ÃŃs tics
ĠP as
Ġul ls
Ġfas e
ĠServe i
ar r
ĠT he
Ġ3 1
ans a
od es
ble ix
re es
Ġconeix ements
or k
Ġvol s
Ġl ingÃ¼
ta cions
Ġcurs a
Ġver m
ci o
x ar
ĠM at
Ġdeix at
Ġsup osa
Ġtreball ant
z z
m it
Ġtre ure
ĠI I
Ġtras lla
ĠL u
Ġes tic
Ġsubs titu
i tants
Ġgaran tir
v ells
Ġapro f
in o
ist re
v ats
ĠP ed
Ġpu c
Ġes til
Ġe ines
es glÃ©sia
Ġpa gar
Ġt he
al es
Ġdispos iciÃ³
Ġfot ografies
Ãłn ia
ĠJos Ã©
Ġcomp or
Ġdifer Ã¨ncia
esc rip
R E
es ia
Ġprocess os
Ġai gua
Ġc Ã²m
Ġin fer
Ġexc lus
ĠB i
ĠI lles
ĠD av
Ġtrob at
Ġuni vers
f ÃŃ
ĠEuro pea
ĠCon tin
os p
Ġvost ra
Ġrecom an
b ilitats
ro t
gi es
Ġfot ografia
Ġal ta
Ġdes itj
Ġmanten iment
fici ent
Ġar reu
g ers
Ġcer ta
Ġen d
Ġ200 8
si m
ĠNo va
truc tures
Ġb anc
Ġapar eix
r g
ti que
ĠB or
Ġab s
O M
Ġa plica
Ġb omb
ÃŃ p
Ġorigin al
Ġt ens
Ġtecn ologia
Ġd amunt
ion at
ci t
Ġrepres entaciÃ³
Ġsatis f
D i
Ġad qui
em anya
es tructura
av ui
Ġpass ant
Ġin ver
ĠM er
hom e
Ġconc re
Ġde r
Ġurb an
Ġsig n
Ġem oci
Ġv aria
Ġ19 4
Ġfacili tar
Ġanim als
Ġinf lu
Ġnomb ros
Ġinter pre
ol ÃŃ
Ġcomp lex
Ġab and
Ġque dat
tal ls
er rat
itz at
Ã¨ poca
ĠFes tival
id ors
ĠSal a
ĠF a
Ġpropi etat
ĠJes Ãºs
ĠS et
gi da
arc al
ogrÃł fica
E mp
Ġfranc Ã¨s
Ġre quer
actu aciÃ³
v Ã¨ncia
Ġre vista
ĠF ederaciÃ³
Ġdesp la
Ġme us
ĠF ira
Ġdon en
fica cions
c he
Ġrep ro
Ð ¾
Ġf ort
vis tes
en Ã§
men tar
ĠF esta
Ġass eny
a prenentatge
udi o
ĠC ada
ĠC r
Ġm ic
or aciÃ³
ĠrÃł pi
Ġme itat
Ġreconeix ement
Ġdispos a
Ãłs tic
eri es
ter s
a plicaciÃ³
Ġr u
ĠG al
la b
ec onomia
ent en
e uros
u mp
on or
Ġll ic
ĠlÃŃ nies
Ġv el
Ġp on
Ġorganitz a
edi ciÃ³
ita cions
Ġpla ces
ĠÃ¨ poca
ĠN omÃ©s
ili b
I A
Ġconn ec
op a
Ġcon duc
Ġa ma
Ġcli ent
ri ques
an g
t el
Ġproc edi
Ġcer ti
te u
ci pl
in form
Ġvalenci Ãł
en f
ĠR i
2 5
ĠmÃłxim a
S eg
Ġacab a
Ġro d
ĠcanÃ§ ons
ĠT en
Ġacc Ã©s
Ãłm ica
Ġhabitu al
Ġb ra
Ġre torn
O C
Ġdesta ca
Ġf ont
Ġcas es
Ġven da
19 9
Ġreg al
Ġcomerci al
Ġfamili ars
ĠB ra
Ġpossi bles
si gn
ĠMa jor
Ġv Ãł
Ġrepresen tants
u des
Ġv ull
in iÃ³
Ġs ot
ĠM edi
Ġcom enta
Ġfe ta
Ġsitu acions
Ãº nic
er al
ĠR Ãł
I M
Ġcomp ra
c l
Ġv ers
Ġp rac
Ġde ia
Ġpublic ar
ĠMart ÃŃ
Ġa cadÃ¨m
esp era
en ar
Ġten iu
Ġx if
Ġj ard
Ġpa u
ĠD on
Ã² giques
Ġmod ern
ĠRe us
Ġtel Ã¨
ĠA vui
Ġeduca tiu
ĠC ivil
ig Ã¼es
Ġap orta
Ãł tica
Ġprogra maciÃ³
Ġso par
Ġf res
ĠRep Ãºblica
olÃ²g ics
teix en
emÃł tiques
Ġpre vist
Aix ÃŃ
Ġper me
Ġsol uciÃ³
U R
Ġdis pu
Ġf usta
m em
Ġcons tant
ven cions
ti des
ĠValenci ana
Ġv ÃŃc
ĠVall Ã¨s
om s
Ġb ell
Ġmili tar
Ġinici ar
ĠS e
c en
alum nat
mb its
Ġb ons
Ġp Ã¨r
ĠI s
Ġd ra
H i
voc ar
Ġtrans form
Ġd oble
Ġca d
ona ment
Ġsoci s
er na
obre gat
ĠEs p
r Ã²
Ġin tegra
Ġan glÃ¨s
itat ges
ĠN at
Ġpre c
Ġllen gu
Ġen g
Ãºs tria
Ġvic tÃ²ria
ĠP re
ĠCiu tad
ol esc
Ġvol ia
Ġped ra
Ġd orm
cis ament
ura ciÃ³
Ġform en
Ġp ell
ocup aciÃ³
ĠDav id
Ġsec ciÃ³
Ġcomp ro
Ġfem en
j ament
el ec
Ġob erta
Ã²n im
O E
is cal
ĠF ins
Ãºs ica
ĠrÃ¨ gim
is teri
Ġ +
Ġg reu
Ġapro xim
itz a
ĠM ari
Ġdes ig
Ġqu asi
Ġsab em
Ã¨ x
Ġveh icles
Ġrit me
Ġar tistes
ri Ãł
Ġconcep te
Ġpres Ã³
Ġesc ola
Ġx erra
el e
ĠhistÃ² ric
Ġpret Ã©n
Ġexc el
Ġmitj a
r in
Ġplat ja
Ġven ir
Ġ8 0
ĠF l
d ria
cion at
ur g
Ġnecess Ãłria
Ġv esti
Ġpregun ta
Ġque d
Ġtur isme
Ġan em
Ġg al
ex p
Ġrec orda
Ġempres ari
ĠLl obregat
ter is
Ġn en
ĠO l
ok ies
era c
us a
Ġcr ÃŃ
ad o
Ġc ant
Ġâ Ĥ¬
la s
ĠpÃ¨r du
ribun al
ÃŃssi m
Ġhab itants
Ġen erg
Ġent rada
Ġcontr ari
Ġmor ir
Ġass um
Ġop era
Ġpu jar
Ġmalal tia
actu alitat
Ġinform a
Ġfes tival
Ġtele visiÃ³
ĠH em
Ã¯ da
Ġnecessi ta
Ġcom erÃ§
Ġsor g
Ãł rea
Ġdefini tiva
Ġcor re
es tre
Ġpeti tes
Ġb any
' s
Ġeuro pe
ĠC ab
Ġtra ves
Ġqu ant
og le
Ġn atura
Ġne te
er tura
Ġf ul
Ġnat urals
Ã į
ĠPa ÃŃs
h es
ĠBar Ã§a
p ir
Ġs of
Ġqual i
U s
res es
Ġpermet re
Ġh eu
Ã² c
Ġpri or
gu eu
eix in
lus tra
. ,
Ġman ca
ĠSab adell
Ġref or
Ġll o
Ġcomen Ã§at
x iu
Ġha guÃ©s
ĠS ÃŃ
Ġprop is
si u
si ble
Ġter res
ica cions
ul ts
Ġh tt
Ġm Ã¨t
Ġhi p
c ats
Ġni vells
at ori
Ġ ÃŃn
ĠU s
Ġfor ces
g aciÃ³
Ġpar ella
av or
p ora
Ġdel eg
ad ministraciÃ³
pr Ã¨s
Ġexper iÃ¨ncies
ora ment
Ġtrans c
ist ent
Ġa tenciÃ³
ĠÃł mbits
Ġm ad
Ġ ordin
Ġpla taforma
Ġpass ada
Ġsol id
Ġtan car
Ġav anÃ§
ÃŃfic s
Ġs Ã³c
Ġim me
Ġpossi bilitats
ĠtÃ¨c nics
Ġg ol
Ã¨n d
Ġseu es
Ġan teriors
Ð °
Ġt oca
Ġinteress os
Ġnorm ativa
fÃŃ cie
V a
Ġtrac tar
l ement
ig a
Ġar ticles
Ġpre veu
ĠR os
Ġl id
du ra
Ġcon vers
tÃłn cia
Ġfre qÃ¼
Ġdon ant
Ġre dac
Ġins tru
n is
Ġen guany
Ã¨ ries
ĠAques ts
Ã¨ xit
Ġmo tius
Ġj usti
Ġcar rera
ven il
Ġar r
m its
ĠhistÃ² rica
Ġpais atge
ĠdemocrÃł cia
p o
Ġtin gui
Ġvost re
h otel
ec uciÃ³
Ġfun cions
en ca
ĠT reball
Ġde partament
ĠM ag
ĠCiu tat
Ġmir ar
g Ã¼es
Ġvol ta
Ġcomp tar
Ġinter venciÃ³
Ġdocu ments
ĠCon c
g les
Ġde tec
ĠP ir
Ġexper im
4 0
ĠF or
Ġcre at
ic h
E bre
gra f
ĠprÃ² pies
Ġinten tar
Ġfel ici
Ġar quitec
Ġlleg int
Ġs essions
Ġb a
Ġem o
ĠN e
Ġes ca
in terior
Ġper c
ĠfÃŃs ica
Ġconfi anÃ§a
Ġe ina
ĠMun dial
Ġfin anc
Ġprofess ors
Ġpregun tes
Ġperson atge
Ġocas iÃ³
Ġjur ÃŃ
Ġinter ior
en Ã§a
Ġcon form
Ġcons ulta
Ġex posiciÃ³
Ã² metres
ĠP el
tin er
Ġpermet en
) ;
Ġaut ors
Ġen vol
Ġcon ta
ener gia
Ġden unci
Ĩ Ĵ
Ġpo esia
Ġtas ques
Ġhum Ãł
ĠP ort
ĠJ orn
ĠJu an
Ġcorrespon ent
Ġregid or
ex erci
ul tat
Ġan tic
Ġindustri al
Ġobli gat
ĠR od
Ġcons truÃ¯
R e
vent ut
un cia
Ġpers pec
ĠServe is
Ġref ugi
ĠB iblioteca
Ġcoop era
Ġplant es
reta ri
Ġreflex iÃ³
or is
in y
Ġdoc umentaciÃ³
Ġconsul tar
Ġvis c
Ġmun dial
Ġmen or
Ġvol um
Ġdi v
Ġcatal anes
Ġap un
mat eix
Ġdedic at
z em
Ġcomp on
itu d
Ġparticip at
ĠPla Ã§a
Ġcar ta
ĠCon grÃ©s
ti p
Ġs ant
Ġten int
A m
ĠC ultural
Ġsegu int
ĠM Ãºsica
ĠconseqÃ¼ Ã¨ncia
Â Ĵ
ter es
ol Ã²giques
evol uciÃ³
Ġvost res
Ġdi Ãłleg
Ġdel ic
of ia
Ġp ena
Ġdispos i
Ġinterna cionals
f ons
Ġpro hib
Ġsup erar
tim es
Ġrespons ables
rer e
por ts
t ÃŃ
Ġg ens
Ġpre us
Ġt ret
Ġvol gut
men ys
Ġcons ta
Ġpa gament
j ant
Ġpro gres
Ġe vol
ĠCa mb
Ġper fil
Ġani versari
ĠC osta
Ġgas tr
k s
Ð µ
ĠB r
Ġcapa Ã§
Ġens eny
Ġtoc ar
Ġinten ciÃ³
t ells
Ġprogra m
Ġt ru
Ġag ents
Ġn Ã©ixer
Ġx i
A b
ur at
Ġneg re
E D
igu al
Ġfab ric
Ġom pl
tÃłn cies
Ġper tany
Ġpar ell
tis me
Ġâ ĨĴ
it e
Ġv int
P A
Ġc Ãłn
l ine
Ġs ac
ĠTerra ssa
Ġprotagon ista
Ġm el
arÃł s
Ġsenz ill
ĠÃº nic
Ġvi la
Ġel les
ac tes
espec tac
ĠPer quÃ¨
Ġc ura
Ãł tic
ĠMonts errat
Ġt esti
Ġllengu atge
Ġfonamen tal
ĠT an
im entaciÃ³
ĠPS C
Ġcol l
am eric
Ġmes tres
Ġpol icia
oll it
omen atge
Ġbar re
ĠIn f
alitz a
Ġel e
at x
o w
ĠXavi er
Ġmiss atge
ĠcanÃ§ Ã³
Ġcr isti
arcel on
ĠCons titu
Ġel im
ĠAques tes
Ġ7 0
ĠA g
ular s
f e
Ġtra jec
ĠMart ÃŃn
Ġf aran
or at
Ġrob a
Ġdi men
Ġsec tors
ĠD oc
Ġca vall
2 4
ĠO c
ĠD ec
Ġqu art
s in
Ġindepend entis
r Ã³
Ġf u
ta li
Ġhum ana
Ãºl tima
Ġre ci
Ġcomen taris
Ġclar a
h um
Ġrelacion ats
j ud
Ġdin ar
cin di
Ġescol tar
ĠAl bert
ĠE c
Ġenti tat
P ro
es os
Ġ19 5
Ġvol er
Ġperd ut
Ġdif usiÃ³
Ġb iblioteca
Ġagaf ar
che z
Ġrec ollir
ĠX ar
Ġsur t
t ri
Ġinvestig aciÃ³
Ġp eix
Ġfon ts
âĢĻ ,
Ġin cid
Ġ &
Ġin dica
e ja
ad ores
Ġv osaltres
Ġdificul tats
u gu
Ġpa ti
i tar
ĠRÃł dio
ĠComun itat
Ġconc ret
Ġdecid it
ed it
Ġinter Ã¨s
Ġp end
que ta
Ġe dit
ĠJ unta
ĠĠĠĠ ĠĠ
Ġa trac
C al
g ica
ud it
ĠCom p
ĠV an
de z
201 8
- -
esc ol
Ġvis ites
Ġde p
Ġt eix
b ia
Ġvisi tants
el abor
Ãº ria
mp lia
id or
ĠH e
Ġvac ances
ron tar
Ġf rac
ÃŃt ols
Ġsec und
ĠM ir
Ġdeci sions
ĠtelÃ¨ fon
ĠC i
Ġcamp s
EN T
Â º
m ig
on ats
Ġf la
a juntament
Ġesti gui
Ġcer ca
2 3
capa citat
Ġresol dre
Ġar gu
Ã¨nd um
Ġprodu ir
ĠR om
Ġesp era
o ok
Ġactu als
Ġextra ordin
Ġconc erts
end ari
u rien
Ġre duir
Ġglob al
d el
Ġnom s
Ġn arra
enci als
ã ģ
Ġdes per
ĠB e
Ġcr ÃŃtica
Ã± a
Ġsil enci
Ġpres ents
Ġafeg ir
ĠValenci Ãł
Ġe qu
idar itat
Ġdi versitat
arrib ada
h t
ĠN i
es til
Ġc iÃ¨ncia
Ġestabl ir
ĠmÃł qu
ass ociaciÃ³
Ġcompeti ciÃ³
Seg ons
ri ol
Ġte us
Ġcontemp or
os itat
Ġren di
Ġass oci
Ġv ot
O T
Ġv ent
udio vis
Ġesta bli
tu als
ren ed
gu essin
eg ant
ĠS erra
ord re
Ġconfi gu
Ġresta urant
Ġprim Ãłria
Ãº nica
ES O
Ġtrobar eu
m i
Ġreser va
Ġprop era
gu is
ac om
Ġgener aciÃ³
ord Ãł
Ġd o
fec te
6 0
Ġorganitz ar
ĠB on
Ġcomp tes
Ġb ol
Ġmob ilitat
ar e
Ġrealitz aciÃ³
v o
Ġeduca tiva
' ,
in ari
Ġf ron
ĠJ un
Ġdoc umental
gat zem
Ġe ducaciÃ³
c el
In ter
v as
ano va
ga cions
2 2
Ġrecup eraciÃ³
Ġsuper fÃŃcie
d al
Ġresol uciÃ³
Ġnot ÃŃcia
Ġac ciÃ³
eix o
os sa
Ġde pend
Ġbici cle
h em
ĠG e
aix Ã²
s ia
ĠF ont
Ġa juntament
Ġx oc
Ġdem Ãł
ĠGo ogle
Ġnot ÃŃcies
Ġfer ro
Ġllen gÃ¼es
Ġtecn ologies
Ġjorn ades
) :
Ã§ al
u ti
ĠP os
l ent
Ġen carreg
Ġf en
A g
Ġdist Ãłncia
re z
Ġque den
or g
fic ats
Ġv ide
Ġf itx
es ca
Ġca ure
v an
U S
Ġi s
Ġfin es
Ġop ciÃ³
ul ari
Ġvel oci
ada p
er os
fici al
Ġd alt
Ġcompet Ã¨ncies
Ġsens aciÃ³
t ro
lab ora
Ġterren y
Ġad op
Ã²n oma
g Ã³
Ġma g
ĠL i
Ġbas es
Ġll ui
ĠS ar
Ġpromo ure
Ġjust ÃŃcia
Ġm ida
Ġn aix
Ã²s it
ĠÃº til
ĠrÃł pid
Ġs Ã²
Ġcomple ta
Ġtext os
obre ix
Ġresul ta
ĠXI X
Ġpre ci
ĠM erc
Ġperman ent
os ofia
Ġc im
ia s
Ġvesp re
Ġun itat
iÃ³ s
ĠPar ÃŃs
p at
Ġcla us
pr om
at ur
Ġter mes
Ġqu ants
U N
Ġcur t
Ġam ic
Ġf ant
ĠAl gun
Ġ ol
Ġinici al
Ð ¸
Ġlle ug
Ġrep e
j udi
I L
Ġcon dem
Ġeduca tius
Ġpl ani
I V
lec tius
r b
j ador
ĠE S
Ġdistrib uciÃ³
Ġdisc urs
I Ãĵ
Ġre forma
R ec
au di
Ġass istir
c ons
m ac
Ġin no
Ġfran qu
Ãłn ic
e ques
Ġest ona
Ġder ro
Ġespectac le
ĠQu Ã¨
Ġal es
Ġre gular
ĠA quÃŃ
Ġc ita
Ġp et
Ġcar reg
Ġseny or
Ġv ots
Ġprov ÃŃn
Ġpo ca
ra s
Ġcri teris
ĠF ern
Ġinc re
Ġorganitz acions
Ġcom issiÃ³
c ul
it em
Ġmateix es
Ġmovi ments
is sions
ĠP e
Ġinter p
Ġfin anÃ§ament
Q U
ab s
Ġsimp le
Ġa tor
ica da
ran i
Ġprepar ar
ns it
Ar t
Ġocas ions
Ġconven i
aj uda
ĠB al
Ġvol eu
r ants
os ament
Ġdesc omp
Ġsegui ment
Ġdefens ar
Ġestar Ãł
ĠC la
gu era
Ġprop ers
Ġconver tit
es de
ĠR ob
c k
Ġcontrac te
Ġde talls
Ġ3 5
ĠÃł rees
tament s
ÃŃ g
Ġmi rada
Ġasseny al
v Ã©
Ġparti da
u ri
Ġan ava
ĠPro f
Ġseg les
Ġeta pa
Ġdestac at
r als
gra ma
ĠA juntament
ĠO b
on e
ĠC iÃ¨ncies
R A
Ġv ess
Ġpe Ã§a
ar quitec
Ġorganitz aciÃ³
o ur
Ġpre cisament
Ġpopular s
Ġconsell er
vestig aciÃ³
Ġdesc ans
Ġ9 0
Ġop ortunitat
Ġsolu cions
Ġco di
Ġcom mem
ix es
ĠMed iter
Ġcomar ques
Ġconsci Ã¨ncia
Ġnorm al
ĠF il
2 1
O b
el i
em any
Ġtrans par
er Ãł
8 0
I D
ob li
Ġconflic te
. âĢĿ
tad ors
Ġsitu ada
Ġf orn
us s
Ġimpres cindi
Ġprotagon istes
ĠEs pany
Ġperiod ista
ĠJ ust
rip cions
ĠTur isme
Ġtrajec tÃ²ria
Ġh er
Ġass ociacions
ari en
Ġes tiu
l tima
Ġ200 6
R C
Ġespeci als
Ġm ent
ĠMen orca
is tat
a y
Ġent en
Ġaprofi tar
tat ges
in d
Ġedifici s
ĠqÃ¼esti ons
g ada
Ġpa tir
Ġa tac
Ġha uran
alu aciÃ³
ĠpÃ¨rdu a
Ġm ass
ĠCastell Ã³
Ġind Ãºstria
Ġpropos a
Ġr at
Ġrefer Ã¨ndum
si tat
fici na
Ġv all
Ġi tali
Ġp itj
Ġpo di
Ġsol a
Ġc Ãł
ĠN ord
Ġen rere
Ġmant Ã©
eta ri
Ġrelacion ades
Ġen viar
Ġbus ca
ĠAl l
ĠP opular
tÃł lia
en at
Ġrecol lida
lar s
Ġco okies
Ġcar n
e qui
o x
m ana
Ġquil Ã²metres
Ġmod els
da g
Ġdarrer e
Ġw ww
Ġop cions
licitu d
Ġsan g
Ġesdeven iments
Ġm era
Ġint erac
Ġmil ers
Ġfre d
Ġa pren
u x
Ġcal or
C ons
Ġconegu da
b ar
t h
all ar
ens enyament
av era
Ġass ess
Es glÃ©sia
Ãłr dia
Ġplant ej
Ġvi uen
g ic
ins c
tÃł ria
ĠO n
Ì ģ
ĠF igu
it o
Ġdem anda
ĠP ob
ĠÂ »
ortun itats
Ġcam ins
Ġimp lic
Ġd ut
ĠNo u
Ġv ins
ta dor
Ġhab itatges
Ġmob il
Ġlli ura
ĠC ris
ĠÃł mplia
Ġide al
Ġcin qu
I P
esp eci
ĠF ar
ĠMa tar
ĠD om
alitz ats
Ġpres siÃ³
Ġa vis
ill erat
- ,
Ġtin guin
Ġvo tar
Ġcol la
ĠAnd reu
Ġt ut
Ġconn ex
tr at
Ġf arem
egu da
ven ir
er gia
am ÃŃ
Ġar ran
Ġprincip alment
Ġelec toral
H ospital
E m
Ġve us
oti di
hab ili
Ãłs ter
ĠL A
Ġexclus iva
Ġass istents
F a
ent ura
it y
r ÃŃem
Ġver ita
i res
Ġf lu
ĠP ass
ri ts
f in
ĠeconÃ²m ics
Ġbo ti
ĠPal ma
ĠJu li
ĠL ocal
Ġp ic
Ġfru it
ĠPot ser
Ġmig dia
en llaÃ§
an itat
Ġmar es
ĠP ers
ĠSal vador
Ġcons isteix
Ġveloci tat
Ġde tall
Ġbas tant
Ġman eres
Ġcompl ir
Ġprofessor at
Ġcirc ums
Ġp ac
ÃŃ fiques
Ġexpres s
Ã²n ic
ĠO li
Ġactu aciÃ³
Ġtradi cionals
esp ort
Ġb ru
ic l
Ġassegu rar
l el
Ġcomerci als
Ġb and
P el
Ġr on
ĠL leg
Ġaut Ã¨n
qu ad
Ġfil la
Ġex ecu
ĠFel iu
Ġref lec
w it
ĠGrÃł cies
hab itatge
En tre
Ġpleg at
Ġveg e
al i
Ġqu otidi
Â «
Ġal cal
mÃł tic
v ic
Ġnove tats
ĠhistÃ² ries
li quen
ĠS r
t ecciÃ³
ĠInter net
ĠMan resa
Ġpin tura
al g
ter n
Ġrelig i
Ġrep te
ar da
Ġac us
Ġesta bleix
ĠMan uel
Ġf eu
Ġacos tu
Ġpo ques
tany es
Ġden om
Ġgener ar
rg ell
Ġespany ols
prom ÃŃs
Ġestudi ar
Ġf id
Ġimp ar
. )
ĠDirec ciÃ³
Ġreg iÃ³
ĠSoci etat
Ġb oca
ĠF ab
Ġpe dag
Ġdis f
d on
Ã¡n chez
Ġexemp les
ĠgratuÃ¯ ta
ĠespÃ¨ cies
Ġfe ien
Ġtreball en
ol la
4 5
Ġpro ve
Ġlli ga
form es
exerci ci
Ġam or
Ġor gan
Ad ministraciÃ³
ĠB la
ĠB as
op os
Ġres um
Ġfa Ã§
Ġpod reu
Ġin gres
ĠPar tit
ĠS u
Ġpens ament
B arcelona
Ġha gin
Ġob tin
ĠD is
Ġrealitz a
dar ia
Ġresid us
Ġres tes
eb ook
Ġvari etat
hi vern
Ġafeg it
ex pl
M Ã©s
men tat
Ġqu ins
Ġneg a
ac onsegu
Ġl os
ic ciÃ³
Ġnorm es
Ġmen ors
fer Ã¨ncies
Ġs ug
ĠW eb
Ġre ac
ĠCatal ans
Ġcal endari
Ġveh icle
Ãłs tica
Ġindivid ual
ĠM e
Ġdirec ta
Ġconsid erar
ra b
Ġpre venciÃ³
ĠEn cara
Ġpres ti
Ġpol ici
Ã² d
ĠCom arcal
Ġf iscal
2 9
Ġnuc li
ĠT ribunal
ina m
m er
og a
Ġmes tre
Ġanomen at
ĠCer d
Ġcomp ren
Ġpro xim
Ġqu ines
ĠR af
op ortunitat
Ġpod rien
ost os
f Ã¨
c or
Ġel ement
2 8
Ġen lla
Ġb ot
ed Ã¨s
Ġ Ãłnim
Ġtra ducciÃ³
Ġm Ã¨
Ġurb Ãł
Ġevid ent
Ġcon ten
ĠconseqÃ¼ Ã¨ncies
ist Ã²
Ġ200 0
Ġd a
Ġfom entar
Ġcomp r
ĠXar xa
h n
pe z
F in
Ġre per
Ġir re
ĠContin ua
Ġnecess aris
Ġcon juntament
ĠFin alment
Ġcandi dat
Ġcons truc
onÃ²m ica
Ġdis tin
ĠfÃł b
ran a
er op
M ol
2 7
Ġadministra cions
Ġjun ts
Ġdura da
ww w
ĠprÃłctica ment
Ġrecom ana
ĠS Ã¡nchez
Ġte at
Ġmed ia
Ġb reu
P ar
ex istÃ¨ncia
Ġd ot
Ġnecess Ãłries
Ġve iem
Ġf ira
Ġafir ma
Ġpos ici
Ġrecon Ã¨ixer
Ġlle t
tin s
Ġllo guer
i o
Ġsimp lement
Ġperspec tiva
es tan
Ġin vesti
Ġb ut
ell Ã³
Ġpl ans
Ġvis tes
Ġan tiga
ĠlÃŃ der
Ġbenefici s
Ã¨ cia
O P
esc enari
Ġobjec te
Ġassol ir
Ġpaci ents
ĠPen edÃ¨s
am ar
er atura
O c
Ġpe us
Ġpar al
Ġre quis
Ġtorn at
ciona da
an Ãłlisi
Ġpre ten
ric ultura
can vi
expres siÃ³
ĠD em
Ġcot xes
Ġidenti tat
Ġmalal ties
ell er
Ġgener als
Ġorganitz ada
Ñ Ĥ
Ġe p
ĠC UP
l um
Ġg el
Ġmot or
all er
i e
Ġtrans formaciÃ³
in ada
res siÃ³
Ġn asc
Ġleg al
Ġjug ador
Ġpresent en
ĠÂ ¿
ĠAn dorra
espectac le
tar an
Ġacompany at
Ġdol or
Ġefec te
Ã¨r cit
Ġceleb rat
Ġre vis
ĠH um
2 6
Ġesde vin
Ġfa ig
Ġcr Ã¨
f era
Ġcon ferÃ¨ncia
ĠM itj
ĠN av
Ġsin gular
cid ent
ĠtrÃł nsit
Ġbo tiga
... ]
ofer ta
Ġdom ici
Ġmal a
ĠMatar Ã³
Ġal i
Ġinn ovaciÃ³
Ġtan ts
f es
Ġpo eta
tor is
Ġregist re
Ġrep tes
re d
emp reses
in al
ones tir
labor ar
Ġprepar at
cid ental
Ġmanif esta
Ġfor ta
ĠP R
Ġtreball at
Ġinsc ripciÃ³
Ġben estar
is a
Ġsi mb
ar tista
Ġcomp liment
Ġconsid er
di ques
Ġe dat
da d
Ġmar ques
Ġor i
Ġserv eix
Ġmus eu
Ġdom ini
Es tudis
Ġal menys
l er
Ġparl ant
Ġtri ar
ll at
Ġcri da
Ġcomple ix
Ġva ix
m issiÃ³
Ġconcent raciÃ³
an tic
ĠC reu
Ġjudi ci
ĀĀĀĀ ĀĀĀĀ
en cs
Ġcomun itats
Ġconser vaciÃ³
era da
n er
Ġdeix em
ros s
Ġporta veu
rÃł nia
r ell
e taris
Ġdis cipl
Ġpro vin
Ġtemp eratura
ic al
Ġcondi ciÃ³
Ġgesti onar
Ġ3 00
Ġi gu
Ġofer ta
ot jament
Ġrefer ent
gu ll
ĠU E
ĠvÃŃc times
gu des
ran ca
Ġdedica da
% .
ĠCo op
Ġ4 5
Ġint ens
Ġdirig it
Ġvost Ã¨
Ø §
wit ter
ĠA f
Ġan ual
Ġobjec tes
ĠÃº ltima
Ġpor tat
it Ãł
ĠLli ga
Ġassegu ra
Ġsuc ce
tic ar
rÃł s
Ġproxim itat
j os
m os
Ġsenz illa
elabor aciÃ³
lec tual
ci tats
Ġd ansa
ent es
Ġen ca
Ġju venil
Al t
fica da
Ġcar b
Ġvi es
on ia
l is
in eu
lÃŃc ules
Ġmusic als
ĠC oll
Ġpr on
Ġc Ãłm
Ġsosten ible
Ġdedic ar
H em
Ġceleb rarÃł
p ers
Ġord re
Ã²r um
ĠForm aciÃ³
r Ã©
Ġas sign
onÃ²m ic
Ġt ÃŃp
Ġre gi
Ġca mb
Ġc ens
Ġl og
ĠM u
Ġmet od
Ġrep ublic
adal ona
Ġport en
Ġhtt p
Ġajuntament s
Ġpl ats
algun s
Ġales hores
ĠR oca
Ġigual tat
Ð ½
Ġprocedi ment
g ment
o ciÃ³
et re
ĠT orre
pi ra
Ġdis min
ĠP o
ĠMar e
ĠCom erÃ§
j ol
ĠT rans
ric te
un i
Ġad olesc
Ġv id
ta s
ĠS om
ĠPS OE
e vi
Ġv et
Ãºl tip
5 00
Ġdi g
rup ciÃ³
ĠF ot
Ġcadasc un
Ġsec retari
Ġmanif estaciÃ³
P S
or ci
Ġcomple tament
Ġnete ja
T A
I R
Ġp ont
Ġdub tes
0 5
v era
Ġdesp eses
us siÃ³
Ġtar dor
ĠP ri
Ġter ror
Ġac um
Ġha urien
Ġlle is
ĠS ud
ĠAc tualment
Ġinf ra
Ġindepend ent
Ġprodu eix
Ġbaix ar
c Ã³
osp ita
g or
ÃŃssi ma
Ġcontin uÃ¯
Ġes tructura
ĠP le
ĠprovÃŃn cia
Ġpass en
Ġpa g
Ġterc ers
Ġ ;
Ġinicia tives
Ġ200 5
Ġman tin
Ġimme dia
Ġdemost rar
Ġf als
Ġg o
Ġgar ant
ĠCent ral
C a
ques ta
Ġen llaÃ§
Ġsegu rament
sc o
0 9
Ġapro var
Ġnorm a
la des
Ġmul ti
un di
Ġa udiovis
m ant
ĠVic ent
ul t
aqu ell
ĠmÃºs ics
n gel
Ġimpos sible
Ġequi pa
Ġplu ja
Ġvig ent
An dorra
via ment
Â ª
ĠDon cs
Ġre ducciÃ³
est ran
ĠC E
ac k
Ġcomp lic
Ã³ pez
u cion
Ġconver teix
Ġlabor als
it ors
Ġbell esa
Ġal iments
Ġpor tal
Ġinc los
Ġdi ri
Ġamb iental
ĠG er
Ġte ves
Ġdi vid
lia ciÃ³
Ġ Ã²r
ep res
tiv ar
m ad
Ġsol idaritat
Ġcompet Ã¨ncia
ĠR ub
Ġtind ran
Ġrel at
pos tes
Ġapro vat
ĠEs tat
d Ã³s
Ġ Ã²p
Ġaix ec
Ã² graf
ER C
Ġreiv indic
it Ã¨
Ġcont Ã©
in dica
ĠB ern
Ġuni versitat
Ġconvi vÃ¨ncia
ð Ł
Ġdes carreg
Ñ Ģ
om f
Ġt es
Ġempresari al
at Ã³
Ġcr Ã©ixer
Ġofer eixen
Ġpu jada
Ġpermet rÃł
ĠF on
Ñ ģ
Ġmaj ors
Ġpro tes
Ġproc la
ti ts
ter ia
Ġmanif est
esde ven
Ġcomenta ri
e val
Ġa plicar
ĠD ani
ĠM ossos
Ġarrib en
ĠT rob
G T
Ġposterior ment
Ġart ÃŃstica
Ġfel i
l and
Ġes forÃ§
all Ã²
Ġri ques
Ġac tiva
ques tra
ĠD r
ĠP ep
Ġc og
Ġmin istre
Ġno ies
u alment
Ġeuro peu
ĠÃºltim es
Ġd inam
Ġnatural esa
Ġc m
Ġv es
Ġesc al
Ġconta min
l lar
ost ra
m oni
Ġad ults
Ġpri vi
Ġter ri
Ġar tes
Ġno ti
Ġl Ã²g
Ġf eix
Ġ oli
Ġdiv ul
op ciÃ³
ut ri
Ġmin ut
en ament
ĠB adalona
Ġra ons
ul ats
es tructures
Ġrec urs
Ġutilitz aciÃ³
ĠLl en
ĠEs tÃł
3 6
Ġv as
itz ada
ĠC lar
Ġresta uraciÃ³
Ġre tir
m ina
ha vien
o re
i onar
ĠMin isteri
ĠEs pa
ĠT Ã©
es forÃ§
ess a
ĠS o
Ġa plicaciÃ³
Ġac ol
ĠE ra
p resa
jec tes
an tiga
ĠFer ran
Ġlli ures
y es
Ġal um
mor zar
Ġprov oca
at e
ĠL Ã³pez
Ġam ena
Ġbar ris
ot ÃŃcies
Ġam eric
it ges
b it
Ġdeclar aciÃ³
ĠC in
Ġinver siÃ³
que tes
0 7
Ġpri vat
Ġdemost ra
ad re
Ġmen jador
Ġca igu
an omen
Ġtan tes
ĠS ense
ĠD iss
ĠT om
Ġsuc c
Ġdoc tor
Ġlec tor
Ġal eg
ĠVil anova
Ġf ol
Ġe ts
Ġinstitu ciÃ³
Ġc Ã²
Ġg est
ĠComun icaciÃ³
Ġmodi ficaciÃ³
Ġrep eti
Ġmal ament
Ġvul n
Ġtan cat
li citat
Ġent rades
ĠA p
A V
Ġva ga
ob res
an ti
ist ori
Ġeuro pea
Ġfor en
ĠL on
ĠMal grat
tes a
201 7
Ġcomple t
Ġvul guin
ĠsÃŃ mb
Ġdeix ant
ĠFac ultat
P od
Ġsu ficient
Ġes tre
Ġ[ ...]
ca mp
ĠConsell eria
Ġcompro var
ĠGra u
vin guda
Ġtar ge
Ġcos tu
ĠT ri
Ġmasc ul
Ġm Ãºltip
ĠTer ritori
b rer
Ġpitj or
Ġdirec tora
Ġve ig
ĠT oni
Ġinform ar
Ġ @
Ġtir ar
Ġmen tal
Ġrec ent
ĠSup erior
Ġ5 00
Ġqu ÃŃm
ĠdÃ¨ cada
Ġpan talla
Ġb u
any es
ĠM il
Ġt ros
Ġpod rem
Ġpubli citat
Ġmar ge
ri ls
ĠSet mana
Ġd ob
0 4
Ġfil osofia
Ġimpl ica
r y
ĠP rat
Ġconser va
us os
0 6
Ġh omenatge
n ex
3 5
Ã¡n dez
Ġmo da
giny eria
ĠI mp
Ġparticip en
ĠRe ial
Ġla s
m un
ac o
C E
Ġsal uda
ĠRe i
Ġfl or
acc ep
ĠS im
ĠCa ixa
il s
Ġcoop eraciÃ³
Ġdis capacitat
ĠCi U
Ġhab itacions
Ġf ir
Ġaut omÃł
n ovaciÃ³
Ġciutad ana
p ass
E c
d ec
Ġin dis
Ġc icl
? ?
Ġexper ts
ĠC D
Ġes te
Ġvi atges
ic o
ĠS on
Ġpis cina
le ts
Ġes for
ĠrÃł dio
ĠMartÃŃn ez
ĠR osa
Ġpropi etaris
ĠJ ocs
Ġclassi ficaciÃ³
as ti
i vis
Ġint ent
isb e
ĠM et
Ġespor tiva
ta ble
ĠSegu retat
ĠMar ta
ĠGrÃł cia
Ġveu en
ĠeconÃ²m iques
in depend
T ots
Ġvul gui
Ġma tin
ĠA gu
Ġperfec tament
ost re
ci ls
Ġre talla
ĠM od
Ġsor pren
Ġimprescindi ble
du eix
Ġex terior
ĠI II
Ġcan al
ur ants
Ġfac tors
Ã² niques
lici tar
ĠPa Ã¯sos
p h
Ġobser var
ĠReg ne
Ġavan Ã§ar
Ġman ip
Ġo per
_ _
Ġpl antil
Ġpos ada
lo u
opos iciÃ³
Ġxerra da
ĠPres ident
Ġt rim
Ġesti guin
Ġbri ll
Ġpos em
or ts
Ġan tics
tu a
Ġofici als
ĠS eu
o va
Ġtan ta
C C
Ġv ell
Ġh otel
ĠAn na
in er
Ġestabli ments
an Ã§ar
ĠCar me
Ġpri vada
ĠVall s
ĠC re
Ġlleg it
Ġex ac
Ġdomici li
Ġpens at
Ġcre ure
Ġaspec te
Ã¨ u
Ġcop s
Ġf um
Ġcomun icar
Ġnaix ement
Ġinfer ior
Ġes tal
Ġllui tar
Ġm ur
Ġperm Ã¨s
Ġsor presa
Ġpass eig
7 8
ed eix
i ents
Ġaug mentar
Ġlliura ment
Ġsig nat
Ġh Ãłb
Ġprof unda
ĠEs per
ĠfÃŃs ic
ins tal
ĠNat ural
C ar
Ġtri omf
Ġcomp orta
Ġlim ita
Ġc ans
Ã Ī
Ġam unt
Ġ200 4
ĠAut Ã²noma
Ġpre vis
Ã¡ s
Ġtran si
Ġpres a
Ġvolun taris
ĠY ork
ĠI N
O n
a ma
aqu ells
g ats
ĠG arc
Ġcor rent
Ġrespon dre
Ãł tics
d om
Ġsent Ã¨ncia
Ġres istÃ¨ncia
ĠS el
Ġfl ors
ĠAl emanya
h ar
Ġpresti gi
ilib ri
Ġdispos ar
h ol
Ã ĥ
ĠvÃł rem
A ut
Ġinteress ants
Ġguany at
Ġconcep tes
Ġes tats
ĠX ina
Ġc rim
Ġgerm Ãł
Ġdes car
Ġapar eixen
Ġcreix ent
Ġterritori al
Ġa tra
Ġsab en
j ats
Fin alment
Ġaf avor
i di
a ti
ĠB ell
AC IÃĵ
Ġaug ment
li m
8 4
ĠdemocrÃł tica
Ġvisc ut
Ġloc alitat
le ta
ĠCom promÃŃs
Ġcal c
an tar
Ġent ra
in di
u es
Ġactu ar
Ġesdeven iment
ĠE di
mar ca
Ġde gut
ĠfaÃ§ ana
on z
enta da
ĠgratuÃ¯ t
eg o
ĠR ip
ĠV e
ug at
Ð¾ Ð
Ġprim avera
Ġdom in
ĠlÃŃ mits
Ġgerm ans
Ġmera vell
end er
v oca
Ãłr rega
Ġdiri gida
ĠU rb
Ġpar ar
Ġpro ba
Ġa igÃ¼es
Ġpla er
Ġcorrespon ents
% ,
ass istÃ¨ncia
A gÃ¨ncia
âĢ ĺ
ĠE ducaciÃ³
at er
Ġi di
Ġmed iter
ĠâĢ ¢
Ġconnex iÃ³
on dre
ĠPro grama
Ġha v
Ġ titu
rup aciÃ³
0 3
erop ort
o z
Ġb arcelon
Ġsor tit
Ġjard ÃŃ
Ġclar ament
itz acions
Ġn eix
Ġ *
li b
ĠM ic
ĠT Ã¨c
Ġha ur
Ġmar x
Ġform ada
ĠT ecn
ĠclÃłss ic
Ġnombros os
ob ser
Ġre cap
Ġpo emes
Ġal im
Ã¯ ts
Ġform ulari
d ers
Ġpeti ciÃ³
Ġr us
Ġv endre
ĠC u
ĠM ill
al Ã§ada
Ġreun ir
Ġf ed
Ġcap s
Ġaut Ã²n
versi ons
ĠCas al
lec tiva
Ġeurope us
f rica
Ãºn cia
Ġinteg ral
an al
Ġinter net
Ġdeman at
ĠQu i
on als
Ġreun ions
ĠcÃłn cer
Ġlec tors
as a
Ãł cia
ĠPr incip
E U
ĠbÃłs ics
ĠS ub
Ġnecess iten
t ric
Ġs ou
Ġfaci n
Ġvalor ar
Ġen vi
Ġdirig ir
Ġcient ÃŃfica
I F
Ġpla ta
6 5
ĠGu ill
Ġen orm
Ġb ur
Ġperfec te
Ġb r
c ol
gu ez
emp or
Ġesp ort
ĠE RC
Ġt op
Ã Ĵ
Ġsegui da
Ġs enc
ecu tiu
ĠT ar
ur b
Ġcateg ories
rÃ² quia
Ġi tiner
arrib ar
ĠCar los
Ġll it
apar tat
cep ciÃ³
Ġafec ta
Ġcar tell
ĠS eny
201 5
t l
Ġob ertes
oc k
Ġexerci r
Ġrecep ta
Ġte oria
u ig
em en
Ġexc ur
Ġdoc ent
de x
Ġentre vista
ĠrÃłpi da
Ġmar xar
e a
g al
Ãł lia
ĠB us
Ġtorn ada
Ġt orre
H a
Ġin j
is os
ĠÃºnica ment
Ġregid ora
Ġbicicle ta
Ġtend Ã¨ncia
en guany
Ġg ira
C AT
Ġdescob ri
ĠEs te
o o
eg ar
era cions
alitz ades
Ġf ug
ĠEn ric
ibliot eques
si l
ĠIn d
ĠfÃłb rica
Ġin g
Ġa posta
imp acte
Ġju ga
0 8
Ġimm ig
ent ren
Ġrecon egut
u alitat
ĠC opa
ĠR oma
cion alment
Ġpens o
la cant
Ġpob resa
U M
Ġmor ts
Ġxif ra
ĠD ol
Ġlegis laciÃ³
Ġresid Ã¨ncia
o od
ĠE L
d ol
ĠGarc ÃŃa
Ġtan ca
âĢĻ .
Ġel eg
Ġfin alitzar
ĠlÃŃ mit
Ġno is
ĠmÃ¨t ode
Ġac tors
ĠH istÃ²ria
Ass emblea
d ard
Ġha ure
ĠgrÃł fic
ĠMer cat
Ġlle tres
pi raciÃ³
w s
ist ema
Es pai
Ġxoc ola
Ġac redi
Ġespec ÃŃfica
Ġemo cions
Ġcomen cen
ĠPod em
Ġesc en
Ġcli ma
Ġpodi en
om un
Ġver d
Ġra dic
Ġpos ant
ber g
Ġfil m
Ġdifer Ã¨ncies
Ġsex ual
Ġar bres
ien tals
at ures
uÃ¯ t
Ġautor itats
Ġno ia
Ġposi tiu
Ġcompl ement
b al
ĠSoci als
ĠÃł mbit
Ġinc rem
ĠcÃłrrec s
Ġ200 3
av aluaciÃ³
ig n
el com
ĠB Ã©
Ġrepresen tant
k y
Ġconflic tes
ĠCons orci
ĠI tÃłlia
Ġde pen
Ġr ural
and o
Ġjudi cial
Ġdarrer es
ti rÃł
Ġinterpre taciÃ³
Ġcul pa
Ġr ell
Ġpos en
9 9
Ġfe tes
h as
ion al
Ġx ic
li ar
Ġesp erar
it Ãłries
Ġdisponi ble
titz aciÃ³
Ġcadasc una
habili taciÃ³
i la
ĠrÃłpi dament
all s
Ġ15 0
Ġmec an
O l
Ġv ora
Ġacompany ar
en g
Ġme ves
ĠB anc
Ġpob lacions
ard o
Ġdefin ir
li ber
v et
eu re
is tit
ord en
Ġdisponi bles
ĠGu Ãłrdia
Ġcan tant
Ġtesti moni
Ġsecund Ãłria
Ġenerg Ã¨tica
Ġl u
ĠLl or
Ġh id
ĠdÃ¨ cades
Ġutilitz ant
Ġcat ed
i k
Ġvalenci ans
Ġresta urants
ma gatzem
ĠA s
Ġte Ã²
ĠF C
u e
Ġon line
Ġa gu
Ġcontribu ir
Ã³r m
Ġrelle v
Ġa plic
Ġpro vocar
Ġac ollir
L A
le tes
Ġcontrac taciÃ³
p la
ĠPol ÃŃtica
va cions
Ġnombros es
Ġfra se
Ġcircums tÃłncies
oc ar
Ġproba blement
ĠP Ã©
h istÃ²ria
Ġdificul tat
ss ia
7 5
I mp
ĠI m
Ġop ortunitats
Ġpot enciar
ha gi
pos ar
us tr
i le
au rada
ĠVa ig
Ġconvi da
ia da
dem ont
ĠAntoni o
Ġcent en
Ġespectac ular
des sa
ĠelectrÃ²n ica
... )
Ġcrea tivitat
at ÃŃ
Ġterri toris
ĠvÃŃde os
ĠSan ti
Ġpressupost os
Ã¯ m
Ġvalor aciÃ³
ĠN Ãºria
Ġprom oci
ĠJo aqu
Ġcons ells
es pa
ĠFigu eres
Ġcons ens
ĠU N
Ġhab ilitats
ĠPol icia
Ġt ÃŃtols
Ġpil ota
Ġcadasc Ãº
vat ori
Ġutilitz at
Ġprodu Ã¯t
Ġtren car
tan s
Ġesper em
Ġpa ga
C ada
ĠFer rer
Ġcaus es
Ġregu la
Ġprove Ã¯
fer s
Ġpar lat
Ġoc t
ÃŃ tim
ĠAr t
' .
Ġen ergia
Qu e
Ġinstitu cional
ĠPat rimoni
Ġper judi
Ġparticular s
Ġmost ren
ĠI V
3 3
ot els
bl o
ex tre
S egu
Ġaproxim adament
ĠEuro peu
Ġsim ilar
Ġcal drÃł
ĠAl ta
ĠEs por
Ġutilitz a
!! !!
Ġbas at
Ġball ar
Ã² nies
ĠS t
g ma
Ġdesenvolup at
esper it
Ġaplica cions
Ġmarc at
ĠConstitu ciÃ³
Ġn er
Ġvis ual
Ġmer eix
Ġparl em
Ġplan eta
ti ment
Ġpregun tar
Ġg ru
S S
Ġe tique
ula da
res s
Ġhav ÃŃem
Ġescol ars
Ġemp rened
Ġproteg ir
Ġuniversi tats
o da
Ġdic ta
Ġcompl em
Ġun itats
ol ar
Ġex t
Ġrepres entar
Ġrequis its
ĠlingÃ¼ ÃŃstica
ĠG l
ĠPla taforma
ĠH an
Ġproper es
Ġrec entment
Ġcanvi at
Ġriques a
Ã²leg s
id al
ĠPro tecciÃ³
Ġmun tanyes
ha uria
Ġconv oca
Ġinstru ments
Ġcompor tament
Ġcoordin aciÃ³
envolup ament
li gÃ¨ncia
Ġdoc ents
Ġcons istori
Ã¨ tics
Ġdefin iciÃ³
Ġfigu res
Ġtin dre
r ors
Ġac tiu
Ġna cionals
Ġmedi eval
Ġpro te
rÃł cies
Ġs Ã²l
Ġro da
gu e
Ġcirc uit
lus ions
Ġprepar aciÃ³
Ġpun tu
ĠĠĠĠ Ġ
ten siÃ³
Ġrep or
ĠR ic
pr Ã¨n
U rgell
Ġobli dar
Ġin qui
Ġsub vencions
ĠSer gi
Ġl Ãº
ĠP Ãº
b e
â Ĩ
Ġpro var
Ġcap ÃŃtol
Ġass ass
m Ã©s
i ri
ĠÃ ģ
ĠS ants
ol o
Ġmo ciÃ³
ĠUni vers
ĠAl s
i bles
Ġcomen tar
Ġpas siÃ³
Ġrecla ma
al ista
l em
ĠP rom
Ġcer ves
Ġsitu a
e o
an ista
Ġta ules
Ã²l ica
Ġsum ar
jo y
201 6
Ġdorm ir
Ġpar ada
Ġplant ejar
ag o
Ġverita ble
til s
ĠTan mateix
inform e
acom pany
7 0
Ġint enta
Ġagra dat
tan ta
Ġvolun tari
Ġcapa Ã§os
Ġba talla
O s
Ġtr enta
ĠLon dres
Ġre als
Ġop iniÃ³
Ġcompos iciÃ³
Ġidenti ficar
cion alitat
ĠP ic
ĠcontinuÃ¯ tat
E G
quad ra
U ni
Ġampli ar
Ġmer cats
Ġcontrol ar
os i
ĠCr ist
Ġ6 4
Ġf ores
3 9
Ġedi cions
Ġreiv indica
Ġconegu ts
Ġsembl ant
Ġimm ob
I G
Ġpropos ar
Ġdi Ãłria
alg una
Ġagrada ble
ĠPÃ© rez
ĠV ia
Ġar que
ĠRaf a
Ġpar elles
ant erior
tes i
Ġrevol uciÃ³
Ġs inc
Ġfranc esa
Ġapor tar
ob ertura
Ġcontra s
ĠDi ari
Ġvalenci ana
ĠestratÃ¨ gies
ĠJo ve
Ġcom anda
e fecte
Ġcap davant
Ġesc ala
Ġr ere
Ġmod erna
Ġmun t
ĠS or
Ġjur at
reg ist
ĠcÃłr rega
Ġdeclar acions
Ġpol s
Ġdeix en
Ġesfor Ã§os
Ġespor tiu
Ġespor tives
. "
Ġ3 4
Ġgui tar
Ġal emany
Ġ %
Ġem bl
Ġb lo
ĠG estiÃ³
Ġme ta
ĠA qu
Ġqu elcom
Ġdes f
li des
Ġb an
Ġa tre
ĠT i
Ġespectac les
Ġan gles
Ġescri ta
Ġjun t
Ġacord s
o est
Ġb Ãł
in ions
Ġinterp reta
ã ĥ
' t
f f
Ġan alitzar
ĠmÃºltip les
Ġconsid erat
ĠSeg ona
ĠJust ÃŃcia
Ġsuc re
ten a
Ġsenti ments
Ġrequer eix
om e
ĠP Ãºblica
ĠT al
u mb
Ġsegu eixen
ĠFac ebook
in ats
Ġvi tal
Ġdes g
ĠC urs
Ġdi ent
ĠEsc ola
Ġhabitu als
emp le
ĠCon f
Ġri gor
ĠPuig demont
Ġd anys
Ġtempor al
ĠMol t
Ġvide o
Ġinc on
Ġ4 00
ĠIn formaciÃ³
Ġsum a
Ġocup a
ĠN orm
c os
Ġgovern s
ar ro
Ġpres er
Ġprojec ciÃ³
Ġposi tiva
Ġesta da
is sa
Ġconcre tament
ess os
Ġesc ollir
ĠG onz
ĠMar es
Ġverm ell
b r
E P
g ol
ĠCamp ionat
Ġpend ent
ĠF amÃŃ
ĠL o
Ġag rÃŃc
an glÃ¨s
ec h
Ġinform e
Ġf it
Ġa vi
ĠV en
egu des
Ġpers egu
Ġesta tal
ĠS c
Ġdesp esa
Ġaporta cions
Ġor g
Ġcl ic
ĠAlgun s
Ġescrip tor
Ġ201 9
ĠRec erca
ĠÃ©s ser
Ġd ates
Ġdimen sions
Ġpot encial
Ġperson alitat
ĠestratÃ¨ gia
Ġcient ÃŃfic
Ġdi d
re tes
Ġpr os
Ġrelle u
gu ard
fic ant
Ġvin ent
Ġcad ena
Ġabsol uta
ed or
Ġelabor at
Ġadqui rir
ĠM Ã³n
Ġdescarreg ar
ab el
redi ents
y er
Ġfru ita
te t
egu ts
Ġop tim
Ġimpuls ar
Ġsig a
Ġpar Ãł
il ia
Ġac ull
ĠP on
Ġtur ÃŃstica
ĠDec ret
Ġe fica
hes iÃ³
ros sa
Ġdisc rim
Ġfem in
Ġmic ro
Ġdon arÃł
Ġpresid enta
Ġg os
Ġhist oria
Ġpri va
k ing
Ġad di
in vestigaciÃ³
Ġxocola ta
m ats
r ons
0 2
ĠAr ts
te or
Ġparl en
Ġg rec
Ã² tica
Ġla ter
es qu
Ġemoci onal
Ġvir tu
Ġm onestir
ĠH er
Ġord en
Ġbarre ja
Ġrendi ment
M ar
Ġsab ia
ĠXV III
ĠPrim er
op iniÃ³
Ġt emÃłtica
ĠEl l
du es
ĠV ella
V ol
Ġdes it
Ġf isc
Ġbus cant
ÃŃn s
Ġdi aris
Ġmarc ar
Ġpens ant
Ġincl Ã²s
ĠEs ta
R es
ĠJorn ada
ab ast
Ġfid el
Ġplant eja
Ġ3 3
Ġpes ca
Ens enyament
Ġtur ÃŃstic
e y
rer es
oll ers
Ġca di
Ġtan cament
Ġesta d
Ġsom ni
ON S
gu s
Ã§ ades
l ica
Ġmon u
Ġt rib
Ġrespons ab
igu es
qu eu
Ġre ti
ti ss
Ġmodi ficar
ĠC ha
Ã¨x ic
du Ã¯t
Ġboti gues
i Ãł
Ġinc om
ĠG ab
ĠB el
Ġ7 5
ĠMar ina
ogrÃł fiques
Ġres postes
Ġpass os
Ġompl ir
adre Ã§a
Ġc ir
Ġcr is
ĠE N
ĠVila f
Ġaccep tar
og ia
Ġm issiÃ³
Ġ )
p ot
Ġjut ge
ar reu
I gual
Ġinflu Ã¨ncia
Ġal iment
Ġllic Ã¨ncia
ĠPed ro
Ġconsol ida
ec ess
ĠJo ventut
ĠC ugat
lo ure
Ġconven Ã§
Ġart ÃŃstic
I s
ĠO s
Ġtrans metre
ĠInf antil
ĠpodrÃł s
Ġmet ge
b es
U A
ui da
Ġsim il
aj ud
apro vaciÃ³
Ġcon ferÃ¨ncies
Ġm enti
Ġp op
n ar
qu id
19 8
eg ants
Ġa Ã¯
esc al
c em
ass egu
gu eren
Ġabsol u
Ãł ri
ĠD ret
ec s
Ġg ols
Ġconvers a
oc ol
Ġdes tÃŃ
Ġesc enari
ell Ãł
] [
201 4
Ġpens a
Ġt em
Ġen cap
ĠMerc Ã¨
ex ecuciÃ³
Ġselec cion
Ġtraslla dar
Ġguany ador
Ġbaix ada
el im
Ġnaveg aciÃ³
Ġfen omen
Ġt omb
Ġ3 6
Ġalterna tiva
end emÃł
Ġc Ã³rrer
Ġin de
ĠN otÃŃcies
m ol
Ġteix it
or tar
ĠLu is
Ġcat Ãłleg
ĠV ir
O G
ĠbÃ© ns
li d
Ġnorm alment
Ġdid Ãłc
insc ripciÃ³
ad ia
en di
ospita let
Ġcomun icat
Ã§a ment
Ġn utri
Ġsup eri
Ġregid ors
Ġv oc
Ġag rup
Ġcamin ar
Ã ī
on ant
Ġpo guÃ©s
Ġes querra
escrip tor
Ġn au
emÃł tic
ĠT ort
Ġfra g
ĠG as
Ġperi Ã²
ĠespÃ¨ cie
Ġgir on
Ġen car
ĠRa joy
Ġser vid
Ġar ts
Ġlle tra
d its
Ġtranspar Ã¨ncia
Ġ18 9
Ġliter Ãłria
Ġj ub
Ġexpres sar
ĠG R
Ġmor al
Ġexerci ci
ri da
Ġtrim estre
Ġpar et
ci als
Ġvic epres
U T
Ġsab eu
e i
Ġpo ema
ĠmÃłqu ina
Ġad ver
Ġpar ets
ĠFab ra
Ġmo ure
An t
Ġinfantil s
Ġn ena
Ġg reus
Ġdibuix os
Ġt rop
Ġas c
Ġr os
ĠN O
Ġcor por
ale tes
ĠprÃ¨via ment
ĠCom pany
atÃ¨ gia
Ġh onor
p ens
Ġrealitz en
Ġra s
Ġdin Ãłmica
omb ra
Ġd ro
ĠPro jecte
at erra
ĠC N
Ã²s tic
ĠRip oll
ĠS empre
Ġbas ada
Ġpl ana
Ġadequ at
Ġfemen ÃŃ
Ġai re
ĠT o
Ġplantil la
ĠR og
i ors
Ġta xa
Ġdesenvolup a
ĠRec ord
Ãłr rec
Ġf lex
ĠT ant
vi la
ĠS eb
ĠPrim Ãłria
Ġp istes
te d
ĠbÃł siques
ul ant
tiv aciÃ³
f ar
Ġa ten
Ġdesta quen
Ġinici at
Ġar ren
Ġan Ãłlisi
Ġpublica cions
Ġsor te
Ġpod rÃŃem
ĠV I
ã Ĥ
ĠcomenÃ§a ment
ot o
Ġav alu
Ġapar Ã¨ixer
Ġquar ta
l in
le z
g ades
Ġsol ament
Ġofer im
Ġca fÃ¨
Ġinteress ats
Ġsu au
Ġbri tÃł
Ġnot es
Ġren ov
Ġorigin als
Ġrec ons
Ġmiss atges
C N
om ena
Ġpaci ent
ĠU P
Ġra di
ĠTot es
d Ãł
Ġi gn
Ġrecord s
Ġcerti ficat
inc or
z o
Ġcor rupciÃ³
T en
m ada
id at
ĠEl ec
ĠI S
Ġdot ze
voc ats
Ġpro b
Ġg ro
n g
que ting
Ġre cin
Ġhab itatge
ĠV is
p te
Ġpro vis
Ġassegu rat
or ge
Ġexpos icions
titu ds
Ġdes igual
Ġcirc ulaciÃ³
ĠC orn
Ca tal
m al
S ÃŃ
ĠProf ession
Ġ6 5
ar ca
ĠT res
ĠUn it
aconsegu ir
d atura
Ãº ssia
Ġindivid uals
ĠUni versi
vi es
Ġm u
Ġsensi bil
Ġcar tes
Ġdipu tat
Ġm ens
Ġsembla va
r int
l let
ĠG en
ota cions
Ġvess ant
ĠD ra
Ġneg ra
Ġintegra ciÃ³
Ġrepe tir
ĠPu jol
enti ment
Ġru tes
en carreg
Ã² tic
Ġquar ts
ci sco
ĠG r
Ġdec ret
igu el
Ġex istents
Ġcont ÃŃn
ĠRob ert
Ġenseny ar
C ol
Ġcom odi
ĠestÃł n
ĠPir ineu
m el
Ġl it
Ġall uny
ĠRib era
Ġadap tar
Ġen ri
ĠE r
Ġfeli Ã§
Ġad jun
Ġciutad Ãł
Ġf r
ĠC irc
Ġen gan
Ġg er
ĠĠ Ġ
Ġcapa citats
3 4
A ten
D on
ĠmÃ²bil s
al imentaciÃ³
ĠGar cia
e bre
Aix Ã²
Ġsor tides
Ġass ociaciÃ³
li g
ĠP in
ĠmÃł gia
Ġs ÃŃn
Ġhor aris
Ġav all
esta bli
ÃŃn ica
Ġbla u
Ġenlla Ã§os
Ġclub s
Ġf anta
ĠmÃł r
Ġrisc os
ĠMol tes
Ġcob rir
Ġrec ti
S A
ĠAmb ient
x o
Ġanomen ada
aut o
anc e
du res
Ġven en
ĠcrÃŃ tic
Ġsol ar
Aques ts
Ġse xe
Ġpublica da
esdeven iment
Ġan irÃł
Ġser i
ĠC ard
ĠDes envolupament
Ġcos sos
emÃł tics
Ġbl ocs
Ġrec Ã³rrer
Ġnove tat
agra daria
Ġafec tats
Ġt ro
ĠP unt
Ġp acte
Ġpres en
Ġt h
od is
r ari
Ġvi va
Ġdin tre
Ġinclo ent
Ġrecord at
ĠÃł rea
ĠR el
ĠCar rer
ĠS h
Ġmun tatge
Ġpas si
us ias
Ġconsci ent
gra m
ĠAb ans
Ġhab itaciÃ³
r ents
Ġreflex ionar
Ġtrac te
Ġbosc os
Ġindependentis ta
Ġjo ventut
ĠN osaltres
ĠTer esa
ex terior
Ġperme ti
qu ing
Ġcob erta
ĠB at
ĠEspany ola
Ġplani ficaciÃ³
in icia
Ġlli brer
ĠB any
Ġsur ten
Ġf us
re ci
Ġrealitz ada
xi us
Ġdigi tals
Ġbrill ant
Ġsembl ar
Ġsal es
ĠmÃŃnim a
enci at
vi ra
Ġpar lament
ĠC os
unci ar
Ġgu er
Ġbl anca
Ġes tu
Ġper o
ĠS obre
ĠM ira
Ġrecol z
Ġl ema
arquitec tura
Ġre vel
D esc
ess or
ĠLlen gua
Ġvin gut
t Ã©
Ġaconsegu eix
sion ant
Ġren ovaciÃ³
ĠPod eu
ĠacadÃ¨m ic
Ġes truc
Ġexclusiva ment
Ġgenera cions
Ġmat rimoni
ĠC el
H ospitalet
Ã§ Ã²
Ġin ven
au gment
Ġprof undi
A p
Ġsocial ista
ent endre
g em
Ġes tructures
H e
Ġfonamen tals
Ġdeu te
tÃłn ia
is tia
ĠQu in
Ġanti gues
itz ats
Ġess ent
Ġsatisf acciÃ³
V al
Ġl uc
Ġpl atges
Ġvuln era
Ġinten sitat
Ġcompr endre
Ġv ides
Ġcan ta
] .
Ġcre ma
Ġcient ÃŃfics
Ġincorpor ar
c la
ĠVic enÃ§
mÃł tica
Ġp ess
ĠT el
Ġnasc ut
ĠPar ti
Ġprof essiÃ³
Ġf ull
Ġ3 2
Ã¨n ia
, ...
ĠM es
Ġdemost rat
j ades
Ġ Ø
esti ma
Ġre visiÃ³
alum ne
ĠfÃłcil ment
dre ts
Ġnegoci s
Ġbon ic
n al
Ġpres os
Ġesc ena
ĠXX I
ĠS ch
ĠDE L
Ġanunci at
Ġesc la
Ġxif res
ivis sa
Ġen mig
Ġ q
Ġvid re
Ġ200 2
Ġac titud
3 8
Ġadolesc ents
Ġcomb inaciÃ³
Ġinaugu raciÃ³
Qu Ã¨
Ġsub ministra
ĠestÃł s
ĠD esc
ĠclÃłss ica
rem i
ĠConc urs
T R
ĠM em
us e
af eg
Ġingres sos
Ġcirc ular
Ġexcep te
Ġdi gn
des a
ĠcÃłm era
fi quen
3 7
ĠJ ap
Ġtrob o
Ġf Ã³rm
Ġcomb ina
an taciÃ³
Ġcar re
Ġsenti ment
Ġviat gers
Ġmost rat
ĠVilaf ranca
Ġmill ores
Ġcenten ars
Ġno i
ver siÃ³
Ġsitu ar
o fici
Ġestabl ert
i rem
b um
Ġpre vi
Ġfacili tat
era dor
ĠCor ts
Ġpis os
Ġorig en
leg is
Ġinvestig adors
Ġcamp ionat
Ġcomun s
AN T
Ġestudi ant
ĠL lo
Ġcomun icacions
Ġm all
up aciÃ³
S om
Ġcomp tarÃł
ÃĢ rea
Ġtal ent
Ġs amar
ĠelÃ¨ct rica
L E
Ġvis u
Ġvig il
ĠMares me
Ġe dats
Ġrepres siÃ³
âĨ ĳ
Ġmod alitat
rÃŃ guez
r el
ĠFran cisco
ĠGran ollers
ĠI b
Ġes qu
fici ents
in en
Ġextre m
Ġbas a
Ġunivers al
Ġpri vades
Ì Ģ
ĠM entre
k er
ĠPrem is
Ġrealitz ades
Ec onomia
Ġad m
Ġob tingut
ĠcomenÃ§ arÃł
emp s
Ġdetermin ats
Ġacc essi
d ics
O B
c u
h ospital
Ġca ixa
Ġt rip
la m
Ġsosten ibilitat
ĠE duca
ĠN eg
tivitat s
or b
Ġpin tor
Ġlid er
Ġs ard
Ġex pec
S er
Ġful les
ĠT ele
Ġsug ger
Ġcontrac tes
ĠEsp eci
Ġdin Ãłm
ĠR amb
im ag
ĠM iguel
ex Ã¨rcit
Ġretalla des
or gan
Ġprofess ora
Ġfunda ciÃ³
Ġa ta
ur t
ĠLli bre
Ġsub sc
Ġpropi etari
ĠTer res
Ġanim al
ot ge
Ġll og
Ġ200 1
Ġconsid eren
Ġviat jar
ta tives
ĠgrÃł cia
Ġdisposi tius
Ġfac tura
Ġten siÃ³
ĠV am
Ġinsc ripcions
Ġf icciÃ³
Ġpropor cion
Ġdelic te
5 5
P os
ĠI gual
on en
Ġil les
Ġdis ting
Ġperiod istes
Ġesc ollit
ĠT witter
ĠT h
en o
Ġrepres enten
is h
cis me
ĠBl anc
Ġviv int
ura da
eri al
Ġrespec tivament
Ġc Ã¨l
Ġcomplic at
Ġcorrec te
Ġxi quets
Ġsoci etats
ĠAss ociaciÃ³
Ġn ar
Ġcandi datura
Ãº r
l ista
uc h
Ġleg als
Ġexisteix en
Ġrecin te
Ġinclo ure
Ġcomun ica
eti t
Ġing redients
ĠD rets
Ġ Q
Ġcont rib
Ġpar rÃ²quia
ĠJoaqu im
Ġer rors
ĠSeb asti
ĠnÃº vol
Ġdestin at
Ġcomple tar
ĠG el
ĠS osten
Ġadequ ada
av in
ir ar
Ġgru ix
ĠT orn
f ra
ac ol
tor ia
Ġdep Ã¨n
Ġseny al
A hir
ĠRod rÃŃguez
inter canvi
Ġgra du
Ġtarge ta
Ġmecan ismes
Ġpos s
Ġimpl icaciÃ³
Ġavan tatges
Ġcaigu da
terior ment
ol er
Ġinform at
7 7
Ġar tista
U C
Ġcompon ents
on Ã¨s
Ġop inions
Ġintro duir
l ant
ĠhistÃ² rics
l atura
Ġs als
amb ient
v il
Ġm os
Ġren da
Ġvisi tant
D el
Ġesdeven ir
Ġimpl em
CO O
ĠTor res
Ġcost os
ÃŃ mp
ÃŃg ens
Ġpropi etats
ĠM ob
Ġtra duc
ol ls
Ġpais atges
Ġron da
ÃŃ b
Ġvir tual
Ã ¶
Ã² lic
Ġcompany ies
ol uciÃ³
all Ãł
Ġar ti
Ġat endre
g ans
Ġgaran tia
Ġsindic ats
Ġpres taciÃ³
Ġm ac
e des
ĠAl tres
men tal
Ġp ur
vi ure
Ġdenunci ar
Ġsal var
Ġcre iem
S ant
Ġcamp anyes
Ġescri ts
ĠP D
Ġquant es
Ġbat x
Ġcur ta
z ena
Ġpass ej
ins titut
tica ment
l Ã¨ncia
Ġequi val
Ġagra ir
Ġhor ari
Ġdign itat
M al
Ġor gull
ĠEs t
ĠM ass
ĠFern Ã¡ndez
estran ger
ĠO p
Ġbaix es
Ġco her
i us
Ġpat ro
Ġincorpor aciÃ³
Ġpl ens
udit ori
Ġcan via
Ġma tar
Ã¯ na
ĠN ic
Ġfines tra
cion ari
ĠIn depend
ĠconstruÃ¯ t
Ġem erg
Ġlle ure
ĠPrim era
Ġindustri als
Ġa pos
Ġti p
Ġdecid eix
Ġa ules
Ġen cer
Ġvol tes
Ġmajor itÃłria
Ġpu ja
Ġsuperi ors
y o
imp ort
Ġdia gn
Ġtorn eig
Ġal tes
Ġfelici tat
ĠR iu
Ġredac ciÃ³
Ġad onar
ĠD os
Ġdif ondre
Ġdestin aciÃ³
le ga
G rÃłcies
aqu ella
Ġmarca dor
al umnes
Ġurb ana
Ġac ud
Ġdetermin ar
ĠD al
Ġpot enci
Ġdisposi tiu
Ġac oll
Ġmat Ã¨ries
Ġgra us
ol f
Ġrela x
ĠFes tes
Ġconsci ents
Ġ3 8
Ġalterna tives
Ġtransi ciÃ³
ili ar
Ġtur istes
Ġinstru ment
Ġsegu im
Es quadra
ex plica
O ficina
t era
esta bl
Ara gÃ³
labor adors
ĠclÃłss ics
Ġindependentis tes
ver na
pec te
Ġprof und
Ġanunci ar
Ġelim inar
en car
201 3
hum or
e tu
Ġdipu tats
Ġtemp le
Ġsigni ficat
Ġs Ãł
Ġimp acte
Ġus os
er ciÃ³
qu Ã©s
Ġdec oraciÃ³
le y
Ġabsolu tament
Ġperc entatge
Ġno c
Ġefec tiva
3 1
l ÃŃ
Ġdesc ens
Ġver gon
Ġsec ret
Ġat urar
ĠDia da
Ġaudiovis ual
eg at
Ġprac ticar
Ġrealitz arÃł
ĠDiss eny
di es
ine us
Ġmod er
Ġterren ys
av al
Ġhum anitat
id enti
Ġadre Ã§a
Ġf ÃŃ
Ġsor oll
quis iciÃ³
ordin ador
ort en
4 8
Ġvaix ell
Ġt rets
ĠÃł l
ĠhÃłb its
Ġcan als
d f
Ġsocial istes
Ġesc Ã¨n
Ġrecep tes
Ġsupos ar
ĠTort osa
Ġtrob ades
cadÃ¨m ia
U B
li ques
Ġcor pora
ĠCom itÃ¨
Ġh ospital
m ica
Ġarquitec t
Ã¯ a
ones a
Ã²s its
ĠV idal
a eroport
ĠC O
Ġsimil ars
Ġoc tubre
Ġeurope es
im a
D iss
Ġdi p
v itat
Ġsor ra
Ġrecep ciÃ³
Ġm ons
Ġmetod ologia
Ġtemp erat
ĠEmp ordÃł
Ġve ter
ĠÃ Ĵ
entis me
Ġpl Ãłstic
Ġen vers
ĠGuill em
Ġterra ssa
Ġdetermin at
Ġdi visiÃ³
A tenciÃ³
t ol
Ġacompany ats
Ġelabor ar
Ġre habilitaciÃ³
truc cions
ÃŃns ula
Ġri val
eti s
ĠCris tina
ĠD ig
Ġn aciÃ³
ĠMar ÃŃa
Ġes quer
Ġb ro
co hol
Ġpedag Ã²g
j u
Ġgastr onomia
entar is
ĠJorn ades
Ġconjun ta
Ġrevol ucion
ĠD eix
Ġdispos en
Ġrem un
ĠSol er
Ġg ossos
Ġtrans vers
Ġarrib em
us ter
Ġub icaciÃ³
Ġtri at
Ġband era
ent e
Aques tes
Ġdi pl
ici s
Ġpil ot
Ġofer tes
ĠveÃ¯ nes
Ġend ins
ĠT IC
ill es
r atge
Ã¨ tiques
Ġcontinu en
Ġfront era
Ġcri teri
Ġprofundi tat
P res
Ġcomp e
Ġtrob ava
ĠnÃºm eros
Ġg audi
U L
C at
Ġ os
Ġdiver tit
h ist
Ġfabric aciÃ³
algun es
Ġre vistes
Ġconvid ats
I ES
Ġsab ut
Ġb andes
Ġo pos
ĠJo hn
Ġestran y
Ġbar ra
Ġman dat
Ġpr Ã©s
Ġjun ta
Ġeduca tives
ran Ã§a
ĠJa vi
fic ades
Ġc lo
Ġa di
Ġpresentar Ãł
d os
Ġviv im
ora ma
Ġass ocia
hor ari
Ġens enya
reta ria
ĠG a
Ġnoc tur
ĠP lat
Ġpas ta
Ġfam Ã³s
av o
Ġmir ant
om ent
rop oli
AN C
6 6
ĠRog er
Ġesper ant
mes a
ĠcrÃ¨ dit
Ġin drets
Ġpot Ã¨ncia
Ġbanc s
ES T
imp uls
as ta
Ġdeclar ar
Ġdi al
Ġprogram ari
Ġbl an
Ãº lia
Ġpol Ã¨m
us tament
7 9
Ġcom er
apar iciÃ³
H istÃ²ria
Ġafeg eix
i eu
Ġaprofi tant
tr ol
Ġre acciÃ³
Ġacab en
l it
Ġcom iss
Ġn adal
Ġin versions
Ãłn cies
Ġdis par
an n
Ġv otaciÃ³
a pos
ĠS il
menta da
CI Ãĵ
Ġderro ta
Ġep is
Ġexac tament
Ġefica Ã§
l ats
Ġab ra
Ġtrans por
Ġrec or
Ġofici nes
201 2
Ġrelig iÃ³
i ar
ĠmÃłqu ines
ĠS embla
Ġl e
em erg
T V
Ġhip ot
Ġevol u
ĠP h
Ġequipa ments
ĠA M
Ġcorrec ta
ula des
Ġtradi cions
Ġped res
a tac
Ġn et
Ġ3 9
Ġmul titud
Al bert
ĠLlor enÃ§
ĠG aud
ĠNe w
Ã¯ n
Ġespeci alitzada
Ġsap s
Ġinclos os
gl aterra
A quÃŃ
Ġll uit
is enda
cip aciÃ³
Ġgarant eix
Ġliter ari
Ġposi cions
Ġve ient
ra el
ĠGar ri
eix ement
Ġtele vis
Ġnaveg ador
ĠC ont
enti tats
Ġde di
esta bleix
m m
itz en
Ġfacili ta
ul m
Ġf ib
Ġpar cial
ĠB atx
Ġt ec
ĠAl b
en tals
Ġperm ÃŃs
m us
Ġrom an
estr atÃ¨gia
fici Ã¨ncia
ĠM ac
Ġcomprom et
l d
Ġper tin
Ġsom riure
Ġn ad
201 0
Ġrefugi ats
Ġaj udes
Ġtreballa dores
Ġespec ÃŃfic
Ġc res
ĠXV I
Ġma quin
Ġdist ribu
ĠS am
s ers
Ġpres ump
Ġer ror
ex pos
Al b
ĠS L
Ġmatin ada
Ġac tiv
arc ar
Ġsolid Ãłria
os tal
Ġg all
acab a
Ġca u
Ġbatx illerat
Ġcan cel
onÃ²m iques
fec ciÃ³
Ġg am
3 2
ĠE UA
leg ar
Ġcons entiment
Ġneg res
Ġesde vÃ©
rim ir
Ġjo gu
Ġconc essiÃ³
and re
ĠbÃłs ic
Ġper que
Ġenf ron
Ġcont und
Ġat Ã¨s
Ġtractament s
Ġfac tor
ĠR Ãºssia
201 1
ĠCa mÃŃ
ĠSel va
or en
Ã¡ lez
C o
Ġpla s
da m
Ġsens acions
Ġo posiciÃ³
Ġrefer Ã¨ncies
ĠCamb ra
dic ciÃ³
udi Ã¨ncia
Ġm Ã²d
ĠL os
Ġlu xe
ĠIns titut
Ġposici onament
ĠD a
Ġfe ines
Ġintro ducciÃ³
Ġofer int
ĠPl an
ĠRafa el
Ġefec tu
esper anÃ§a
ĠM Ã¨xic
licitu ds
Ġform atge
Ġmen Ãº
tru ir
alcal dessa
E B
ĠM Ãłster
Ġvi ta
ĠM ai
Ġins pir
Ġver sions
Ġguany adors
Ġcompren siÃ³
Ġreb uig
Ġpot ent
ĠmÃ¨t odes
Ġquin ze
um a
ĠO ficial
Ġmis teri
Ġarr el
Ġja zz
ĠĠĠĠĠĠ Ġ
Ġform acions
Ġcer vell
Ġec onomia
ĠsÃŃmb ol
ĠE du
ĠS itges
Ġinici s
Ġfal tar
Ġpor tarÃł
Ġinno vador
Ġb uit
al eg
ĠelÃ¨ct ric
enf ron
Ġretir ar
ĠD ones
Ġtar on
ĠSol id
ogrÃłfic s
ĠV ill
Ġsenti ts
Ġ4 8
Ġtransform ar
ili ari
Ġdes emb
Ġseg ell
ti onal
ĠB es
ĠMir Ã³
Ãº p
Ġreb aix
Ġconstitu ciÃ³
P re
Ġcli mÃłtic
Ġus uari
Ġdistrib uÃ¯
Ãł u
ĠC rec
Ġc oc
Ġtemperat ures
establi ment
Ġpos se
ĠFamÃŃ lia
e an
Ã¨n cer
Ġcomp ens
Ġmall or
qu ina
qu ista
als evol
Ġpat eixen
Ġencap Ã§al
ĠDe f
ĠFel ip
ĠO riol
Ġo bre
erm ita
ĠB ur
Ġinter vencions
Ġcomer Ã§os
Inter net
P ot
Ġmanifesta cions
y n
C A
lu Ã¨ncia
es tal
ĠRi era
Ġap unta
O li
Ġtind rem
Ġg ris
Ġlla c
Ġta b
ĠD ades
utilitz a
di da
Ġincre ment
ĠS te
ĠMan el
s eg
Ġcan tar
Ġpun ta
Ġro ck
Ġsign ar
an ada
P rim
Ġden Ãºncia
Ġen regist
Ġform ats
Ġ ?
ĠP sic
on ades
Ġcas tells
ĠavanÃ§ at
Ġb iblioteques
Ġescen aris
Ġpa tit
Ġaut o
or ld
es tudis
Ġlegis latura
Ġrelacion at
ul la
Ġorgan ismes
ĠGonz Ã¡lez
ĠbÃłs ica
ĠC ub
Ġc ÃŃ
estr ena
expl otaciÃ³
Ġsol en
ing s
Ġeta pes
Ġan aven
ĠLa ura
Ġper du
Ġequ ilib
Ġ <
Ġag res
ĠbÃłs icament
in ten
Ġob erts
Ġespanyol es
Ġhaure m
ĠU AB
Ġapro par
a hir
Ã² x
4 9
Ġan al
Ġcal ia
Ġafavor ir
an unci
ÃŃn cep
t y
Ġal lar
Ġpre vista
in k
Ġten ÃŃem
Ġa C
Ġweb s
Ġc iÃ¨ncies
Ġdesc obreix
Ġ199 9
F ins
Ġcre ant
Ġpleg ats
Ã¯ des
Ġparti d
ĠEste ve
Ġme teor
Ġdia da
Ġg im
ĠIns titu
v Ãł
ar ts
g s
Ġpropos em
Ġfemen ina
T E
Ġque di
Ant oni
Ġp s
aut onomia
re p
Ġtota litat
pany ol
Ð »
na u
Ġbal anÃ§
Ġi b
Ġafir mar
Ġalcal de
any ola
Ġexp liquen
arc aciÃ³
Ã©s ser
Ġpropor ciona
Ġpro pa
ĠLla vors
Ġirre gular
Ġfin ca
Ġextraordin Ãłria
Ġtrob arÃłs
Ġcandi dats
Ġ3 7
ri el
ĠF Ã²rum
in ant
aran ta
edi ent
ob rir
Ġg egant
Es per
Ġveu rem
Ġproced ents
Ġgu anya
Ġenf ront
c Ã©s
mp t
Ġri ure
Ġinf Ãłncia
ĠJ an
dis cipl
Ġinfra estructures
Ġdisseny at
Ġli ber
it h
Ġdist ricte
Ġesta cions
R ES
Ġf aria
Ġaf rontar
ord ar
ĠF re
Ġcoopera tiva
ĠSeny or
Ã² f
Ġh ui
ĠSer Ãł
H ola
M A
6 8
Ġf ren
escrip tura
c re
Ġrepro ducciÃ³
ĠR oss
ac e
Ġquad re
ent res
Ġdona va
Ġa men
ÃŃ x
ĠCol oma
Ġpi ano
ac es
ĠP ens
z i
Ġve ÃŃ
ĠPa blo
Ġdetermin ades
Aten eu
tor als
ĠvÃŃc tima
ĠL iter
Ġall ot
ron at
Ġresid ents
Ġaj us
em at
Ġtend Ã¨ncies
Ġmost res
Ġdetec tar
ĠD ata
Ġrefer ents
Ġimagin aciÃ³
Ġpr ol
Ġfisc als
ĠBatx illerat
ĠS indic
Ġess encial
Ġsensi bilitat
Ġ ðŁ
Ġdedic aciÃ³
ori als
Ġparticip ant
In ici
Ġcol Ã²nies
G u
Ġaut ob
all ers
ĠB os
Ġb oni
il at
Ġc Ãłl
Or ganitz
Ġconsul tes
Ġab und
n ec
Ġdeman en
Ġprocedi ments
Ġde gus
Ġevol uciÃ³
ĠRamb la
Ġigu alment
g as
ĠS ols
Ġxerra des
J os
ess orament
Ġinform acions
ĠF o
Ġcre ada
Ġesp iri
A lacant
Ġcontamin aciÃ³
Ġre tar
Ġc ass
âĢ¦ )
Ġp ion
esp Ã¨
ul en
Ġdiver tida
ĠdemocrÃł tic
ĠestÃłn dard
Ġconsell era
ĠCol om
ĠPor tu
Ġprop Ã²sit
ĠIn ici
Ġmus eus
Ġdesc ripciÃ³
Ġa fici
Ġtrans missiÃ³
equ ilibri
Ġ ull
ĠjurÃŃ dica
Ġimp ostos
eg en
el ecciÃ³
ĠM ostra
ĠDani el
ha m
vell Ã³
Ġ =
ĠC ad
Ġespec tadors
Ġint ensa
Ġm ÃŃ
Ġconfigu raciÃ³
ĠG i
Ã§ ats
ĠJap Ã³
Ġsab or
Ġapar tat
ĠF e
ĠRo ig
Ġexpres siÃ³
Ġcar es
ĠÃ²r gans
Ġsup erat
Ġcent enar
ĠA pro
Ġprivi legi
p ons
Ġafec ten
ani taris
apar cament
Ġresul tar
d in
Ar xiu
c les
ĠD u
Ġvis itat
Ġpos teriors
Ġassoci ats
Ġajud en
ĠL L
Ġsembl en
Ġre qu
Ġpat eix
Ġde talla
esc ena
Ġdimen siÃ³
Ġ6 00
Ġquotidi ana
ĠCiutad ans
Ġaprof und
ĠMar tin
Ġinclo uen
Ġb it
Ġpass ava
Ġ5 5
Ġrela cionada
Ġdescob ert
Ġpa ges
as sign
ĠMediter rÃłnia
Ġfot Ã²graf
u cions
ĠP oble
Ġdoc umen
Ġcamb ra
Ġserv it
Ġmedi cina
Ġal ts
Ġconc reta
ĠM el
d ran
Ġconduc tor
Ġocup ar
Ġneg ociaciÃ³
S Ã³n
si us
ĠR oc
ĠSar riÃł
Ġro ca
Ġamb dÃ³s
ä ¸
i laciÃ³
Ġprom ou
Ġ Ã©
Ġgu ar
Ġa tura
t Ã²ries
Ġfom ent
Ġenorm e
Ġvisi ble
Ġconeix em
Ġrecord o
ob ri
Ġcomp tat
Ġver tic
Ġcurs es
Ġteat ral
Ġor ÃŃgens
En cara
Ġven des
Ġre form
Ġcontempor Ãłnia
Ġpend ents
ĠT ru
ĠP ons
Ġsupos at
Ġimagin ar
Ġen em
ll er
am es
Ġsal ari
Ġcer tes
mon is
ĠÃł rab
rÃŃc ul
Ġtren ca
ĠlÃŃ ders
ĠA L
Ġg aletes
Ġcompar tit
ĠE t
Ġ- -
k o
form e
Ã ļ
Ġreper tori
Ġes men
ĠAll Ãł
b ra
Ġpar ad
Ġac ÃŃ
Ġsal t
> <
Ġele vat
Ġcer car
g is
Ġdesp atx
ig s
Ġrec op
es quer
ĠS E
Ġcorrec tament
Ġs ostre
Ġtorn en
Ġen giny
Ġver da
Ġdon em
er als
Ãº ries
Ġren ova
Ġnova ment
ss es
ent ures
f al
it ori
Ã± o
Ġaj uts
Ġ193 6
Ġtorn em
r ist
Ġpri vats
Ġreb en
inter ess
re ment
Ġbon ica
ed ents
Ġh ar
Ġg la
Ġcon grÃ©s
Ġabsol ut
exc el
is p
ĠCoop era
Ġeix os
ant en
Ġpar ades
res ari
ori entaciÃ³
Ġblo que
ĠsÃŃ mpt
di rec
Ġvi an
4 4
incor por
id Ã¨ncia
Ġdicta dura
8 8
enc es
Ġtal lar
Ġcontac tar
ĠPir ineus
a plica
enta ri
Ġn um
Ġdestac ats
Ġor ien
ĠAf eg
Ġcul tures
Ġtrac tat
Ġsent o
ĠCh ar
Ġrel ats
ĠCo ordin
ĠPrincip at
Ġfitx er
ĠP ER
Ġconsum idors
Ġespecial istes
Ġcap ella
Ac tualment
Ġt reu
ust ria
rot xa
Ġm Ãº
Ġsob iran
Ġpob res
ĠOl ÃŃmp
Ġrefor Ã§ar
i gua
eu ro
Ġac lar
Ġfin alitats
Ġfines tres
Ġll istes
di m
erÃł pia
Ġsaluda ble
in et
Ġmat emÃłtiques
itor al
Ġn its
Ġes morzar
fic Ãłcia
Ġinno va
Ġdefini tivament
ĠBra va
Ġpubli ci
ĠOr ganitz
Ġmilitar s
Ġfant Ãłstic
ĠcrÃŃ tiques
Ġse ix
Ġpass arÃł
Ġsob ir
Ġm Ãłster
Ġinf ant
qu ir
Ġass a
aqu elles
Ġjug ant
Ġcob ertura
Ġsuper vi
Ġpan orama
Ġinf in
al isme
l Ãłn
Ġret rob
ĠD ep
Ġgener alment
Ġc eb
Ġregu laciÃ³
ĀĀĀĀĀĀĀĀ ĀĀĀĀĀĀĀĀ
Ġpl enament
Ġm Ã¨ri
ĠXV II
ĠS p
Ġdismin u
Ġdom Ã¨s
Ġal liber
Ġvig or
av an
ĠV ÃŃc
Ġpropor cionar
ĠI l
Ġb uf
Ġacompany ada
Ġcog n
Ġqu aranta
on y
Ġloc alitzaciÃ³
Ġanterior ment
Ã² metre
Ġsegu ra
Ġfos sin
7 2
Ġcorre dors
ĠR esta
A F
le ix
ĠL lar
Ġcer ts
Ġan uals
E tique
itz ant
Ð º
Ġg egants
5 9
Ġespec ÃŃfics
Ġespec ÃŃfiques
Ġespeci alitzat
Ġd its
Ġcinqu anta
ĠfÃŃ siques
Ã² b
Ġhor itz
Ġcon eixen
ĠC F
em enti
utilitz ar
Ġuniversi taris
ĠdifÃŃ cils
âĢĵ ,
ĠdÃ¨ fici
Ġpen jar
and ia
ci ment
ĠP ont
Don cs
Ġescrip tors
Ġrespec tar
ĠC iÃ¨ncia
m as
Ġpan tal
Ġhi vern
Ġa Ã§Ã²
ĠP orta
b y
e e
ĠMar atÃ³
ĠUn itat
Ġimpos ar
Ġitali Ãł
a gu
Ġh otels
1 00
Ġen via
ĠmÃºs ic
Ġcerves a
C V
Ġtrobar em
ĠU B
, [
m ic
Ġimpl antaciÃ³
Ġcre uen
gen tina
Ġconegu des
ĠF ut
Ġap as
Ġra mad
Ġt ron
An y
ĠF ons
Ġbaix os
Ġfru its
ro qui
ĠReg id
o us
Ġ ort
Ġcom una
ĠRo vira
ĠproveÃ¯ dors
Ġben vinguda
id s
ĠlÃ²g ica
g ant
Ġvege taciÃ³
Ġprepar a
Ġaband onar
ab and
ex t
Ġperfec ta
all otjament
c as
Ġmanif estar
Ġoc cidental
Ġfas cin
Ġb isbe
Ġco re
Ġop tar
V A
Ġval ora
Ġsub venciÃ³
O ri
ren ys
Ġconser var
Ġinform es
Ġdestin ats
ĠL abor
Ġintro du
Ġse qÃ¼
la u
Ġreb el
Ġhab ilitat
Ġpa pers
Ġs ender
Es p
ĠF ed
Ġsor ti
Ġsorg ir
lum inaciÃ³
Ġfranc esos
Catal unya
Ġt omÃł
Ġdisseny ar
f ab
Ġt ub
w are
Ġagra dar
em bl
Ġesc ul
li gent
ad equ
Ġt era
Ġfor ts
ĠQu im
Ġve ia
Ġsus p
ĠL ib
ĠReg lament
Ġd urÃł
tin es
Ġtorn arÃł
ĠB re
Ġlle vat
P ublic
Ġresponsab ilitats
Ġprogres siva
t ÃŃs
Ġec olÃ²gica
ĠD ist
Ġordin ador
avo reix
ĠCo di
Ġapor taciÃ³
Ġconstitu eix
In formaciÃ³
ÃŃs ica
Ġespor ts
od el
ĠMediter rani
adap taciÃ³
ĠJ er
as iÃ³
ri ta
Ġva gi
Ġconvid at
Ġhabitu alment
Es tudi
Ġluc re
ĠEs tem
ad r
ĠIn c
Ġprodu eixen
e fec
ÃĢ frica
Ġner vi
ha urÃł
apro fi
un g
Ġsegu idors
americ Ãł
Ġtrop es
Ġmar it
Ġpod ers
A G
Ġcr on
Ġcu a
qu Ã©
ass os
Ġc icles
Ġem magatzem
Ġg roc
Ġvesti t
ĠmÃłr queting
Ġcon du
ac s
Ġex ter
Ġsup era
Ġca i
Ġven tall
i at
Ġespor tius
Ġvolun tÃłria
Ġestar an
Ġ4 4
In f
v ella
ĠTele visiÃ³
Ġs af
am en
Ġcr u
ĠP ilar
b urg
Ġexpres sa
Ġfas es
Ġrealitz ant
Ġvir us
at g
ĠB ro
Ġta st
ĠÃ©s sers
Ġllum s
Ġa prÃ¨s
Emp ordÃł
tin o
Ġreg lament
7 6
ĠBern at
Ġgerm ana
Ġinform ativa
Ġinteress ades
Ġav entura
Ġpens em
Ġo us
Ġconfir mar
Ġar mes
ĠRe is
T S
Ġefec tiu
Ġex hib
Ġargu ments
Ġcuri ositat
Ġdiagn Ã²stic
a a
ĠP all
ĠT rac
T IC
ĠbÃłs quet
O D
esc riure
Ġnuc le
Ġtesti monis
Ġn as
Ġal ter
Ġass istÃ¨ncia
alitz ant
st ÃŃ
Ġsorte ig
ĠC ÃŃ
Ġporta va
Ġrecoman able
Ġm onar
ĠA N
Ġsus pen
Ġcompos itor
Ġl ong
Ġprom ot
ĠFl or
Ġvi us
Ġrepar aciÃ³
ex ili
Ġincor pora
loc ar
Ġac ons
Ġcr Ã²nica
esqu ena
Ġempres aris
Ġz ero
as tre
a gaf
ĠF em
Ġc h
Ġporta da
Ġat emp
Ãł pia
ĠIs abel
l ules
ca tal
Ab ans
ĠG erm
Ġcamp iÃ³
Ġmer cad
ĠB Ãłs
Ġta ri
of t
Ġmet Ãłl
Ġrom ana
Ġser ien
Ġmedia mb
e va
ĠBa ges
at or
Ġsan itÃłria
Ġpens ava
Ġconvers es
vi ment
Ġnecess item
Ãłnim a
Ġdes prÃ¨s
ĠfreqÃ¼ Ã¨ncia
Ġarrib ant
ig Ã³
Ġcur rÃŃcul
Ġmet ges
T he
Ġdefin eix
qu era
ac cions
an tat
ĠCan al
ĠAr rib
ĠFranc o
Ġopera cions
Ġredu Ã¯t
Ġpre cip
Ġaixec ar
ĠEn guany
eta pa
ĠUn s
ĠSanti ago
Ġmanten en
ĠH ar
f ort
Ġor al
ĠB ala
Ġbla ug
Ġassum ir
rÃŃc ula
ĠC COO
ĠtrÃł mits
essi va
Ġedit orial
Ġtransc end
ĠProfession al
Ġhum or
o ia
Ġfres c
Ġimmedia tament
ĠA C
Ġpor tu
avin guda
ĠC li
pr end
Ġdi pos
Ġrellev ants
AM PA
ingÃ¼ ÃŃstica
Ġsan itat
Ġinici alment
ĠJuli Ãł
l y
Ġllar gues
Ġcon ci
Ġdes ni
ot erÃłpia
oss es
Ġmagn ÃŃfica
Ãłs tics
Ġm als
Ġ15 5
ales hores
Ġtreball em
Ġsan itari
g na
ur ats
Ġrecomana cions
Ġsub rat
Ġimmedia ta
en i
Ġin vers
Ġfron teres
Ol ot
Ġm ural
Ġreflex ions
P a
Ġinf o
Ġro des
S al
p el
ĠprÃ©s tec
Ġfill es
qui da
Ġall ÃŃ
l Ã³
Ġx ines
le u
Ġ u
ĠA li
Ġaug menta
ĠTrob ada
ĠH otel
Ġlli urar
Ġexplica cions
Ġtrans met
Ġcarre teres
ĠelectrÃ²n ics
t riu
at oris
Ãº m
Ġvari etats
Ġimme di
ĠT aller
Ġtra ms
ena ix
an os
Ġcoincid int
Ġadministra tiva
par t
ap or
Ã¨ ric
ĠRe al
ĠT x
Ġrecla mar
op s
Ġform ant
ĠLleg eix
Es ports
ĠGr Ã¨cia
Ġconc lusions
Ġexcep cional
ĠCerd anyola
An na
efici Ã¨ncia
Ġmodi ficacions
Ġpas tiss
Estat ut
c ut
Ġmet ro
ĠU R
ĠV end
Ġg reix
ro vis
Ġeng any
? ,
Ġserv eixen
Ġest ric
ĠJ ard
Ġapun tar
ĠQu ina
Ġhtt ps
Ġ ran
Ġpat ri
Ġcostu m
Ã¯ ble
Ġpreocup aciÃ³
id esa
tr al
ĠPas qu
» ¿
Ġp it
Ġlleg enda
Ġvoluntari at
ass ol
Ġent rat
aurada ment
ĠSebasti Ãł
o quen
Ġv or
Ġp ir
Ġdeclar at
Ġan t
ĠA lex
Ġvi vien
Ġpropos at
Ġcol les
Es querra
Ġar ross
Ġdi eta
ĠGar rotxa
ĠA t
ĠF orn
Ġinteg rat
EL L
Ġexpec tatives
Ã¨r p
Ġpre ven
Ġ25 0
Ġinterpre tar
Ġdeman des
ĠD ic
Ġvol tants
Ġfrac Ãłs
Ġocup aciÃ³
Ġexemp lars
an omena
ĠSup er
Ġ rib
Ġpre visiÃ³
Ġf ur
ï »¿
Ġpro voc
Ġcompar teix
ĠPa ul
Ġcin emat
Ġcomb at
Ġind ret
ran y
ĠC OM
Ġinc omp
Ġman tingut
Es ta
Ġhaur ÃŃem
ĠPres entaciÃ³
ĠProm ociÃ³
Ġdifer enci
Ġfranqu isme
ĠCin ema
Ġav ant
Ġper cepciÃ³
ĠX III
Ø§ Ù
Ġigu als
Ġpro grÃ©s
Ã¨c ord
Al gun
Ġatac s
ĠReg istre
Ġjard ins
Ġsal v
ĠMol ts
ES CO
ĠmajoritÃłria ment
me z
Ġobli gacions
Ġpolici al
Ġcar tells
200 7
al iciÃ³
ors a
Ġdispu tar
ĠgrÃł fica
ĠJavi er
I X
ĠSup rem
ĠBany oles
Ġent usias
Ġcri dar
Ġsal Ã³
Ġperson alment
Ġvian ants
os o
ol is
asc ens
um na
Ġde tingut
ĠP et
Ġescri u
Ġmag ist
Ġmun tar
ern itat
ĠM oll
en ques
Ġpro vocat
mp a
pos a
8 5
Ġrepor tatge
Ġcomb atre
Ã²n ics
Ġreser ves
min es
Ġ199 8
Ġser ra
Ġa prenentatge
l li
ut x
Ġv arem
Ġpass ejar
Ġdivul gaciÃ³
Ġalum ne
Ġexpress ament
uni vers
Ġcent ra
Ġvoc aciÃ³
v ora
ĠÃº nics
ag ricultura
ĠjurÃŃ dic
Ã¨c d
k et
end is
Ġimpuls at
Ġsom nis
Ġcer im
Ġpresenta da
ĠB u
h u
? .
Ġes teu
Ġinqui etu
Ġreti rada
ĠB ot
d ir
Ġimpres siÃ³
Ġgam ma
ĠF oment
Ġac tius
menta ri
à ¸
Ġfun cionar
cion es
ĠH istÃ²
n dia
Ġcab ell
ĠH ol
eri ments
Ġgaran ties
ĠUn ides
Ġpin tures
Va ig
Ġver dures
Ġs ons
tÃł ries
Ġport em
6 9
ĠN it
im atges
g il
Ġfuncion aris
ĠP an
arr Ã²s
Al cal
t ella
in ers
ĠAl fons
ĠVÃŃc tor
- .
Ġdisc u
tor ns
Ã§ ant
al iments
Ġc ine
Ã² rica
ÃŃssi mes
Ġsorpren ent
Ġmagn ÃŃfic
uti litat
Ġ4 2
N omÃ©s
ĠO N
ĠD ar
ĠPol ÃŃ
ĠB omb
ĠCamb rils
aut ob
Ġs emb
ex plicar
Ġcal dria
an siÃ³
D E
a prendre
Ġcanvi ant
Ġbe ques
Ġcomp res
Ġlegis la
Ġma gatzem
independ entisme
Ġs oc
inc rement
Ġtr ist
ass emblea
Ġconc lusiÃ³
ul sa
ĠL eg
Ġco ure
uss el
Ġdi ria
Ġam ants
ill o
Ġinter n
Ġb ull
ig ht
Ġra cons
tor es
alitz acions
Ġesp l
uÃ¯ ssa
Ġenll oc
ac titud
Ġaccep ta
Ġcent rar
Ġfranqu ista
ĠG av
Ġdeix o
ef acciÃ³
Ġposs essiÃ³
A uditori
Ġad rec
Ġsolu cionar
Am Ã¨rica
Ġe ficient
Ġedi tat
Ġvol ien
Ġconnec tar
Ġtr uc
ĠTor rent
Ġesc ales
Ġmin im
ĠBar ber
M P
Ġguitar ra
in als
Ġestr elles
ĠC icle
Ġmanif es
Ġdespla Ã§ar
Û Į
iss es
ĠT im
Ġespor tistes
ĠXI V
Ġad her
Ġreci cl
. ).
acol lida
Ġ ric
Ġacoll irÃł
ina ugu
ĠTen im
Ġrom Ãłn
Ġde tin
Ġrom Ãł
Ġdepend Ã¨ncia
ven en
Ġex istent
Ġconsol idar
Ġutilitz en
Ġani rem
b on
equi pa
Ġuniversi tari
pec ciÃ³
H otel
ĠM anc
6 4
ÃŃn ic
Ġad jud
Ġobli ga
Ġtal la
Ġv ella
Ġparc el
Ġtra ma
acab ar
Ġar xius
ĠInd ustri
Ġcommem ora
ĠMar tor
ti ble
mar t
ĠS istema
tu alitat
Ġestran g
Ġassess orament
Ġdiscipl ina
ĠF ou
Ġexerci cis
ia des
enc e
ĠW i
de d
Ġcuri Ã³s
Ġd Ã²
Ġbra Ã§os
Ġg es
Ġneg ar
Ġfug ir
ĠLl ull
rac ciÃ³
ĠCol la
anim aciÃ³
ĠR oses
Ġqu ota
ĠT ro
Ġcul min
Ġnorm alitat
.... ....
ĠÃĢ ngel
ĠS ecciÃ³
Ġco hesiÃ³
âĢ¦ .
Ġca mes
ĠPer p
Ġdisponi bilitat
Ġfinanc era
ĠDirec tor
ut en
Ġap reci
an Ã¨s
Ġm oss
Ġg at
Ġrod ona
era des
Ġpat rÃ³
Ġdisf ru
Ġass ist
Ġsatis fer
ed o
tiv als
Ġelec torals
k m
mes os
Ġen amor
Ġdesc end
i tiu
C as
om et
m entaciÃ³
Ġmeu a
Ġmili Ã³
Ġt Ã¨x
Ġdesc riu
ĠL ic
Ġacos tar
Ġprot ec
Ġsac ri
er gies
ĠB ona
i ona
po ques
Ġac cident
Ġab ril
op eraciÃ³
ist emes
Ġm urs
Ġs Ã¨ries
ĠlÃŃ quid
Ġll atÃŃ
ropoli tana
m eria
Ġobligat Ã²ria
Ġesper it
Ġdirig eix
Ġincl osa
Ġh ero
Ġgu arda
ĠPar e
ĠAl g
Ġdirig ents
Â ²
Ġll in
ur siÃ³
tri citat
ĠcÃ²m ic
in aris
Ġmobil itzaciÃ³
ĠS en
w n
co i
Ġb ran
ĠcÃ² pia
Ġdes trucciÃ³
Ġes tima
Ġaf avoreix
Ġplata formes
ĠVer da
Ġen viat
ĠM ora
Ġ Ù
Ġi lla
Ġdes a
ĠR esp
Ġesta ble
Ġlider atge
Ġmat ric
Ġp ecu
Ġnota ble
ĠCons er
Ġdeleg aciÃ³
ofer ir
ĠBer l
llet ÃŃ
Ġpin tar
Ġpol i
Ġh os
Ġrelle vant
int ro
ĠB arcelon
ĠVend rell
Ġ !
in Ãłria
en ys
ĠDig ital
Oc upaciÃ³
Ġesc enes
ĠO ber
rÃł cia
Ġden uncia
ant ena
me di
es quÃŃ
Ġprotagon isme
d ant
ed ia
ion ats
Ġbur ges
M a
Ġin tu
lustra cions
Ġcons tÃłncia
cid ents
ĠA na
Ġqued arÃł
o tar
Ã ¤
Ġelec tr
Ġla menta
entre vista
200 9
h id
Ġn u
f re
h onor
Ġan Ã²nim
de f
Ġproduc tors
Ġclar es
Ġestabl erts
ciÃ³ s
ĠE dit
ass ar
Ġcomb usti
qui es
til la
res sol
anÃ§ at
Ġestil s
Ġcon duir
ĠT aula
Ġsol dats
Ġs ag
Ġlabor atori
Ġadministra tiu
si ves
Ġr Ã¨cord
g ics
Ġdiscrim inaciÃ³
Ob ser
Ġinj ust
iv era
Ġmass es
ha us
ĠDem ocrÃł
Ġman ual
Ġb ibli
Ġamp lia
Ġcop a
Ġpo etes
o ficina
8 9
ci Ãł
C ap
ĠCa m
ĠJo ves
Ġreligi osa
Ġin vol
Ġcor reg
alla da
ementi ri
Ġ199 2
w a
Ġcomplex itat
ĠN acions
et o
ĠCamp us
ell ers
p in
Ġprovis ional
ot eca
Ġsub jec
ĠGaud ÃŃ
Ġin vi
Ġ9 3
Ġcor da
IT AT
Ġextraordin ari
ĠD avant
tim itat
Ġmanif estat
ĠO ri
Ãłs tiques
C omen
T T
im m
Ġservid or
in do
M an
ĠP omp
Es tem
ixa mp
ĠX II
ac or
exc lusiÃ³
Ġamb ientals
Ġin Ã¨
Ġconstruc cions
Ġdeb ats
ĠEspany ol
Ġconver tint
ci ta
Ã³ mez
ĠPortu gal
Ġv os
ĠTor ra
ĠW ill
ol les
ili tar
Ġsoci o
ÃŃ lia
ĠfÃ³rm ula
ĠE d
Ġtes i
Ġmo tiva
L leg
A pro
ĠB ol
inf ant
Ġesp ero
ar es
Ġdol Ã§
Ġpa ella
Ġes glÃ©sia
Ġf reg
ĠT ol
Ġpres tacions
Ġinform Ãłtic
Ġcon gel
Ġdirec tes
lec cions
Ġinten tant
Ġus ar
Ġafir mat
Ġcamp anar
ĠagrÃŃc ola
ob s
Ġtraves s
ĠW orld
ĠBala guer
ĠD ona
aut ora
Ġregi ons
Ġprotes ta
Ġinc lusiÃ³
ĠMedi cina
Ġt ria
Ġconc er
Ġf o
Ġfunda dor
Ġimp edir
Ġsor prendre
arquitec te
Ġrell otge
Ġesta ciÃ³
Ġprior itat
Ġnom enat
Ġb ac
Mal grat
ĠS ard
amp liaciÃ³
Ġarr els
Ġprot ocol
Ġb y
Ġsetm an
7 4
ĠPÃº blic
S C
Ġcomp ati
Ġtan cada
Ġm m
Ġ199 5
Ġcontac tes
it eu
end o
Ġrecoman em
Ġemp le
Ġhum an
A ls
Ġtrans ferÃ¨ncia
S E
eny es
Ġpresid Ã¨ncia
Ã¨c nica
Ġvergon ya
Ġlli Ã§
ĠSal Ã³
Ġ199 7
Ġperiod isme
ĠPass eig
Ġsign atura
Ġass ump
er ant
Ġcom arcal
Ġsindic at
lib erament
Ã± ol
Ġacom ia
Ġreg la
Ġal Ã§ada
Ġri us
Ġun ir
Ġprepar ant
ĠF u
er em
alitz en
ĠGab riel
Ġcent rals
Ġtur ÃŃstics
ĠDol ors
iciÃ³ s
I U
n ing
Ġcaracter itza
Ġtru car
Ġindivid u
ĠLleg ir
Ġrec oll
Ġcostu ms
v ir
tat es
Ġins truccions
ĠCerd anya
Ġr ol
Ġindic at
Ġincid Ã¨ncia
Ġvol dria
Ġvicepres ident
li ds
itz ades
Ġfres ca
Ġfer ma
Ġt Ã¨r
arc at
Ġurb ans
ĠdÃ¨fici t
p Ã¨u
Ġven ia
av entura
Ġmin ist
j uÃ¯
Ġesdevin gut
Ġseny ora
Ġvo re
Ġretorn ar
entre ga
Ġexpos ar
Ġfun cional
ti ci
Ġgu iÃ³
Ġbus quen
H orta
Ġi c
Ġpar cs
ar xiu
re gues
Ġdiscipl ines
ell o
Ġra cÃ³
Ġhum anes
Ġre me
ĠRegid oria
ĠT r
ofer eix
Ġinter can
Ġun iÃ³
Uni versitat
on da
roqui al
Ġenvol ta
ĠB all
Ã²c t
la va
Ġan uncia
Ġprov Ã©
D avant
Ġespectac ulars
Ġdro gues
g ina
Ġquanti tats
l var
ĠRe f
Ġengan x
ĠMar g
Ġunivers itÃłria
Ġperme tin
Ġatrac tiu
Ġfos c
ĠA v
Ġconvid ar
Ġb ossa
Ġam iga
om Ã²bil
Ġsals a
ĠB ri
Ġcamp anes
as e
Ġgen ial
B N
Ġpresent em
Ġnat ur
Ġcontemp lar
e w
ona ments
ĠC ru
ti ve
ĠB art
Ġconcre tes
ĠF un
Ġcon vocar
ĠâĢ Ŀ
p ats
y ent
p ÃŃ
N I
labor at
Ġpas tÃŃs
per Ã²
ĠF ra
af ir
ĠM au
Ġta ul
Ġav al
ĠI r
ĠPro duc
i z
Ġmat rÃŃcula
Ġsec cions
termin aciÃ³
Ġpens en
Ġcer Ãłmica
Ġfa una
ex emple
americ ana
Ġca ire
AR C
ĠC ant
ĠC ON
ĠL as
ĠG il
Ġesp on
7 3
Ġmolt ÃŃssim
Ġpossi blement
Ġfra ses
Ġsamar reta
Ġcaracter ÃŃstica
ĠautÃ¨n tic
ĠcurrÃŃcul um
Ġb ron
E di
Ġcomen tat
Ġexcep ciÃ³
ĠCom Ãº
Ġsensibil itzaciÃ³
Ġd av
Ġquad rats
ĠRo ja
emerg Ã¨ncia
Ġseix anta
ĠĠĠĠĠĠĠĠ ĠĠĠĠĠĠĠĠ
Ġtaron ja
Ġb esti
Ġpre venir
9 0
c ents
eg em
ĠO fer
Ġa ven
Ġur g
Ġg an
Ġsolid ari
Ġsobir ania
ĠS in
ĠAm ics
Ġassenyal at
Ġmonu ment
er d
ran o
Ġinteress at
Ġgim n
re al
Ġlong itud
us c
199 9
Ġparti des
ĠAm Ã¨rica
ĠPob la
Ġ199 6
Tot es
Ġdelic tes
all era
Ġofer irÃł
Ġtra jecte
Ġreg als
Ġtr ens
at o
edit orial
ej ament
anim als
B A
Ġac tituds
Ġha vent
Ġpen al
tic at
Ġtracta va
Ġevid entment
L le
Ã¯ nes
Ã¨m ia
Ġvis ibilitat
Ġorganitz adors
w ork
AL L
ĠPer i
Ġpre vistes
Ġem bol
Ġenerg Ã¨tic
ĠMa ta
Ġsubstitu ir
lla da
Ġcerta men
ĠCat ed
ĠcrÃ¨ dits
ar gu
Ġs op
Ġenf oca
Ġfores tal
Ġrela tiva
Ġat ribu
Ġceb a
ra cions
ĠBr ussel
Â ¿
Ġparla va
Ġcontr ols
Ġf ia
ĠCiutad ella
Ġg r
Ġen ques
Ġfar ina
Ø ±
es tu
ĠLl oc
c era
ob jecte
ĠPat ronat
Ġdra ma
Ġpor c
Ġob ri
ĠFut bol
Ġtitular itat
Ġtra du
ON A
Ġfix ar
Ġarrib i
Ġll una
Ġart ÃŃstiques
Jo an
Ġcul tiu
tiner ari
i i
ĠDi visiÃ³
en des
u ar
Ġdesni vell
Ġcom issions
Ġafec tades
g nos
Ġgaud eix
Ġpu guem
Ġm ix
Ġmitj an
oc asiÃ³
us i
Ġr osa
ĠTa mpoc
Ġpen sions
Ġestu dia
as pecte
av ia
Ar ticle
ili ats
Ġpre dom
ad quisiciÃ³
200 8
Ġentre vistes
Ġman i
Ġdesper tar
ĠNo v
Ġcreu ar
ĠAlgun es
Ġg ros
d ell
Ġl ici
Ġex tensiÃ³
Ġsenti m
h ort
ĠF ol
Ġre formes
Ġ12 0
tra da
u ela
Ġdesenvolup en
ĠDirec tiva
Ġmal trac
u taciÃ³
An d
Ġpresenta cions
Ġnarra tiva
E F
Ġfam osa
em n
Ġta mb
ĠO rien
on is
Ġsim ul
ĠPos teriorment
rat es
inter pre
Ac ciÃ³
Ġincrem entar
Ġguard ar
Ġsec rets
ĠR em
Ġfar mac
Ġtres or
Ġtras llat
ĠDom Ã¨n
ni um
hor ab
Ġan dor
Ġcap ÃŃtols
Ġtreballa dor
Ġconform en
Ġsol itari
ĠHum ans
Ġpa vellÃ³
Ġdetermin ada
Ñ ĥ
Ġleg i
Ġja p
Ġactu a
Ġdefini tiu
Ġpatro cin
mÃł cia
Ġc eller
ĠPomp eu
ĠG Ã³mez
ĠL uc
Ġres tric
4 6
ĠEs tudi
Ġag ost
Ġcoopera tives
ĠA ir
Ġutilitz ats
A t
ob lida
Ġben e
Ġmas ia
Ġcoordin ador
ĠFern ando
Ġpla u
Ġre tr
Ġrealitz ats
Ġde guda
ĠsÃŃmpt omes
f eu
Ġvinc ulats
ant e
Ġperson alitzat
Ġrela tivament
. Â»
Ġ0 8
Ġp Ãł
ĠM c
Ġrec tor
ĠtrÃł mit
Ġt ribunal
Ġceleb rada
Ġp Ã¨l
ciona ment
isteix en
ĠAd riÃł
Ġcristi ans
ĠR ed
Ġconstant ment
ĠCas als
in tegra
Ġcivil s
Ġregist rar
isb al
! ,
Ġmanten int
oti p
gu r
Ġrecon eguda
ev illa
Ġ8 00
id enta
Al emanya
Ġmer c
, âĢ¦
m ona
ĠH ab
Ġcrea tiu
ĠEspa Ã±a
x os
Ġins ta
Ġform ular
Ġgener at
ĠG ui
Ġdescomp te
Ã¨s ties
Ġdirec tors
Ġju eus
Ġre d
Ġcont ents
Ġlliber tats
Ġneg ativa
an k
Ã¯ ment
A s
Ġmes tra
Ġrespec tu
Ġa ux
Ġre ial
Ġsubministra ment
em ma
gu ed
Ġque ix
Ġamb dues
Ã§ Ãł
Ġcontempor ani
Ġrepar timent
ca u
E r
Ġmo tivaciÃ³
Ġcomun ic
Ġver b
Ġcor rents
ĠC Ãł
vin gut
Ġinsc riure
Ġentre ga
Ġcre ativa
ita da
Ġdispos em
ĠS ag
Ġprobl emÃłtica
Ġindepend ents
Es t
Public at
Ġdepen ent
Ġs osp
Ġadrec es
Ġcal efacciÃ³
Ġn or
ĠJ ean
s ec
Ġac tivament
ha gin
ĠOli ver
Ġdi us
h el
Ġpeix os
Ġdesapar Ã¨ixer
Ġmaquin Ãłria
ĠCas tella
Ãłn ics
Ġtram itaciÃ³
lustra ciÃ³
Ġes bor
Ġcamin ant
7 1
juÃ¯ c
ĠparÃł metres
% )
ĠG re
ĠT re
Ġsor pres
Ġdesapar egut
esquer res
al cohol
Ġexpl ÃŃ
Ġ199 0
ĠB ru
Ġconven ient
ad Ãł
Ġc i
Ġdol Ã§a
ĠcÃ²m ode
Ġinten tat
f t
Ã¨l gica
ĠPall ars
Ġbicicle tes
esc ala
ul tats
Ġexig eix
in teg
Ar rib
Ġreg ne
ĠW h
esta bilitat
c Ãł
Ġbat eria
cion alitzaciÃ³
Ġexperim entar
Ġm it
ed ors
ĠBar ri
ĠPol it
âĢ ĭ
ĠMartor ell
Ġespeci alitzats
Ġmon itors
Ġsent en
ĠConstitu cional
4 2
P la
Es cal
Ġinaugu rar
ĠMonts e
' m
ar ma
l Ãł
Ġin vas
Ġc ub
Ġconsid eraciÃ³
Ġlleug erament
ĠT in
A E
Ġcin quÃ¨
Ġori entaciÃ³
Ġmascul ÃŃ
Ġestran gers
Ġad ministraciÃ³
Ġdescomp tat
Ġcas al
Ġes g
enc anta
201 9
Ġprepar ats
Ġab ast
f it
ta ven
Ãł tiques
ĠG andia
p era
ĠpolÃ¨m ica
ac os
ass essorament
Ġtor rent
Ġgal eria
Ġexplic ant
h tt
Ġpublic ats
Ġcomun i
Ġsec re
Ġreun eix
f Ã²nica
rÃł tic
ab ans
Ġidi omes
Ġgener en
ĠprÃ²xim s
ĠBerl ÃŃn
ag enda
Ġfa cil
v it
inc lo
Ġconstitu ir
Ġfavor able
Ġlec tures
Ġll istat
Ġindic ar
n eu
ĠY ou
Ġsin Ã²nim
ĠS em
les hores
Ġap la
iny Ãł
Ġdeleg at
Ġv ui
ĠG ent
Ġdoc Ã¨ncia
ribun als
Ġobs tac
Ġllibrer ia
tur ar
ĠVol em
ss os
evi tar
ĠEl la
ĠCris ti
as h
encia da
Ġp obre
Ġaleg ria
Ġt Ãºn
Ġcompar aciÃ³
ĠJu venil
ĠCamp s
Ġdenom inaciÃ³
ĠÃ¨ poques
5 8
Ġex erc
Ġfru ites
ra ta
Ġbar s
Ġprob able
u ga
p is
ag all
en cara
ĠCar men
que z
ex ig
ej at
ĠZ ona
ode terminaciÃ³
Jos ep
Ġp Ãłr
Ġguany adora
Ġafec tar
Ġa udi
Ġtre p
ui z
espa is
Ġindivid us
Ġemp a
ĠEs tr
Ġentorn s
Ġbra Ã§
Ġmod alitats
Ġllum in
Ġex por
extre m
ha guÃ©s
ne y
Ġestr ella
4 3
Ġmo u
p le
em anys
Ġpen ÃŃnsula
Ġestr enar
Ġdes af
Desc ripciÃ³
Ġllarg s
Ġre tre
Ġjug at
Ġexp li
b ara
vin guts
Ã²s of
Ġbol ets
Ġg i
Ġsex uals
Ġpass em
er va
Ġtan cats
! )
Ġt emÃłtiques
ĠBra sil
v als
ĠA mp
ĠC AT
Ġcinqu ena
Ġorg Ãłnica
Ġimplic ats
Ġacc el
Ġpaci Ã¨ncia
Ġreivindic ar
Ġreg les
Ġperfil s
Ġseny als
Ġan iran
Ġc obreix
Ġes cap
Ġcomen cem
Ġbal cÃ³
ĠV in
Ġs anitaris
Ġri era
ĠprÃłc tic
ĠEx c
Ġl ent
al tar
Ġv il
ut or
Ġvideo j
gan da
ur Ãłs
Ġdon aciÃ³
Ġsuspen siÃ³
ĠG im
cl op
Ġc essiÃ³
is tan
Ġcontra st
Ġinteress a
ĠNav arro
Ġvesti ts
P R
Ġca ixes
Ġfre da
ĠbritÃł nic
Ġinstitu ts
Ġacol li
ĠVi ves
Ġapro vada
Ġtempor ades
ĠLlo ret
B en
Ġdef en
Ġtraves sa
ĠquÃŃm ica
v ÃŃ
al tura
imp or
Ġmon eda
Ã² pia
Ġpl Ãłn
ĠnÃºvol s
rip t
ĠT ec
ĠC R
Igual ada
ri tat
Ãº rg
P D
ad er
En guany
gn asi
ĠCorn ellÃł
Ġb rom
Ġcompe tir
ĠS us
Ġat rib
ĠJ ac
Ġcompar teixen
Ġcons ecu
ĠCon ferÃ¨ncia
ĠH ospital
Ġy ou
Ġguia da
Ġre men
Ġins tant
Ġb el
Ġfut urs
Ġregist rat
H ab
Ġtind ria
Ġp ota
Ġsenc er
Ġas pir
Ag ricultura
Ġal imentaciÃ³
Ġregist res
Ġesp eren
Ġrelacion ar
Ġall otjament
accep taciÃ³
Ġub icat
ĠS and
ent rar
Ġde ien
ell at
Ġdestin ada
s ense
Ġgust os
A udiÃ¨ncia
Ġs ona
Ġregal ar
ĠH ern
guard ia
Ġafeg im
Ġadap tat
Ġangles a
Ġqueda va
Ġre is
ĠA D
D ins
Ġgo verna
M on
ĠÃºtil s
Ġ199 4
Ġquad res
Ġcent rat
Ġenca ix
sion ista
ĠD eu
m f
Ġc ro
entres tant
ti ons
Ġvin tena
Ġempresari als
Ġter t
ÃŃssi ms
er ats
Ġfol k
Es tÃł
tri us
Ġfitx ers
S T
ĠautÃ¨n tica
v int
Ġcl ÃŃnica
ĠR u
Per quÃ¨
Ġmalal ts
Ġf ixa
le tisme
Ġexplic aciÃ³
Ġtoc at
Ã³ ra
Ġajud at
' '
Ġec onom
in ades
ĠD O
Ġsob res
ĠCoop eraciÃ³
Ġd any
ĠacadÃ¨m ica
Ġin evi
Ġpromoci onar
Ġfun dar
Ġtecn olÃ²gica
Ġderi vats
Ġav entures
hab itaciÃ³
Ġdu u
Ġcorrespon en
ĠAgu stÃŃ
Ġv ells
ĠMonts eny
Ġcap i
ob a
Ġrevis ar
Ġbar b
Ġplu ges
ĠSet embre
Ġd ans
w e
Ġadre Ã§at
Ġintegra da
Ġrecord em
glÃ©s ies
Ġll anÃ§ar
! .
Ġpet r
Ġdestin ades
ĠS ta
Ġ199 3
AD A
r ug
is e
ĠPl ana
ĠperÃŃ odes
Ġsepar aciÃ³
er ola
Ġespecial ista
ĠD im
S ab
Ġdeb atre
leg al
Ġcadi ra
rom e
Ġconduc ta
Ġform al
ĠL ec
Ġvinc ulades
Ġde gra
un itat
Ġasseny ala
Ġper jud
eg eu
Ġurban ÃŃstica
Ġcai gut
Ġdu en
lÃłn dia
Ġdespla Ã§a
Ġafec tat
n ou
or ant
H o
Ġse p
9 5
Ġar m
Ġ4 6
Ġdi em
a pa
Ġfor at
Ġsobre viure
ĠA R
Ġon ze
Ã© r
Ġclassi ficat
ĠP A
Vol em
Ġval u
Ġrefer eix
Ġpost res
Ġsug g
al ies
Ġfant Ãłstica
Ġori enta
ĠU IB
Ã²l oga
Ġimpos si
ĠB ert
Ġma tis
ula cions
na val
En ric
Ġaddi cional
Ġsitu ats
Ġla c
C an
ĠSegu r
Ġcre m
Cons ulta
Ġcomp ten
Ġ4 3
indi vid
ĠBos ch
an e
Ġsubstitu ciÃ³
pi tal
Ġper n
ĠP ost
Ġca va
ĠK a
Ġcal ma
Ġindi rec
ĠPri orat
Ġav anÃ§a
Ġxic ot
Ġmis sa
ĠPers onal
en tament
Ġpens aments
4 7
ut h
Ġv Ã©n
Ġoc ells
Ġvers os
Ġdes de
Ãłg ina
un ts
Ġcon g
Ġinclos es
pres siÃ³
aj ut
y l
Ġv eri
Ġh ec
Ġidenti ficaciÃ³
Ġdispos at
Ġdesenvolup ant
Ġofici alment
Ġcondi cionat
Ġpo guessin
f ins
Ġre trat
ĠÃ¨ x
ĠG all
ti tats
aleg ria
Ġf ina
ĠV illa
4 1
Ġafici onats
Ġm ana
oti ps
Ġll ars
ĠÃ ļ
Ġse tanta
Ġav ÃŃs
Ġadap taciÃ³
ci alment
Ġent enc
Ġdesapar iciÃ³
gra u
ci ent
Ġconform itat
ĠV ell
Ġra ona
Ãł rem
Ġde ures
Ġjusti ficar
j e
ĠRep ublic
Qu i
Ġdoc um
Ġsig nes
Ġblaug rana
ĠD o
Ġr urals
ag rup
ĠcomenÃ§ ant
AR I
Ġdesc ri
ĠPar k
ĠC op
Ġmar cada
Ġcristi ana
Ġcated ral
Ġpil ars
OR T
Ġanomen ar
Ãłs tima
Ġpecu liar
ĠG in
Ġfil Ã²sof
Ġl itoral
Ãł tiva
ĠM ur
Ġvi ven
Ġassol it
j aments
Ġ å
Ġc ementiri
ĠRic ard
Ġdip Ã²sit
Ġceleb ren
in novaciÃ³
Ġdec ora
Ġc ist
li ta
Ġlleg at
Ġdo tar
Ġconvid em
Ġec olÃ²gic
ne z
D A
Ġacom panya
Ġfes tivals
Ġal emanya
Ġfin alitz
Ġcompl ert
ess Ã¨ncia
ac us
ĠT ota
Ġencarreg at
Ġexper t
ospi tals
Ġapar ells
Ġpos arÃł
Ġpla ca
Ġacab ada
Ġpres sa
o rem
Ġgesti ona
acc essi
Ġcap Ã§al
ĠtÃŃp ic
AC N
Al ta
Ġpreci siÃ³
Ġvaix ells
Ġdisc ussiÃ³
dic cions
ĠLic eu
IV A
A f
Ġem issions
__ __
Ġjogu ines
estal vi
Ġmus c
Ġfu tura
ĠMol ins
ĠBer ga
Ġl ine
ĠT R
Ġll anÃ§ament
Ġcontemp la
Ġaf ric
Etique tes
p all
Ġmediter rÃłnia
Ġrom ans
autor itat
Ġd ents
vol uciÃ³
Ġest Ã¨tica
Ġde ter
v ents
Ġ193 9
es tes
Ġcon ec
Ġcas ar
Ġblanc s
Ġorganitz ades
l anda
Ġass istit
Ġcent enari
Ġj ustament
Ġdestin acions
Ġsol es
Mol tes
erra da
Ġtitular s
Diss abte
Ġexpl orar
Ġpo Ã¨tica
Ġvigil Ãłncia
Ãºs tica
om pl
Ġconsum idor
m Ã¨s
Ġcavall s
di u
Ġvi via
Ġparticipar an
Ġfot ogrÃłfic
Ġciutad anes
Rec ord
ĠP oc
ĠS uÃ¯ssa
Ġar bre
ĠSal t
reb alla
ĠOc cidental
mol t
Ġinform Ãłtics
s at
ĠBl anca
in Ã¨s
Ġviv Ã¨ncies
ĠA le
Ġva gin
ĠOrien tal
ĠT Ãłrrega
Ġdia gnos
Ġcomerci ants
entis ta
t Ã©s
Ġavalu ar
espec tador
ĠCom erci
Ġvic tÃ²ries
mon ia
Ġr up
Ġcom Ã¨dia
Ġpal au
ma il
Ġjut jat
ac tor
ĠD ins
ĠcontÃŃn ua
ĠlingÃ¼ ÃŃstic
ĠAn glaterra
Ġcontin ent
ĠL ingÃ¼ÃŃstica
Ġconv Ã©
ad olesc
Ġ4 1
Ġconsolida ciÃ³
Ġpu jant
Ġvin ya
Ġref res
ĠMar agall
Ġd ada
ĠEsper em
Ġpon ent
ella s
Ġfor tal
Ġaconsegu int
Ġre ina
Ġin vis
Ġaudiovis uals
Ġh on
Ġcontrac tar
Ġasc end
Ġord res
S obre
ot e
Ġestim at
in era
Ġdesc riure
200 2
ĠprÃ²xim a
mos fera
ĠmÃ¨ dica
Es port
Ġtin guÃ©s
ĠF ÃŃsica
Ġreivindic aciÃ³
ĠEx per
Ġserv irÃł
Ġcontinu ada
Ġdesp le
Ġparticipa tiu
es ter
b aix
Ġcor ona
Ġindi gn
Emp resa
Ġc obra
Ġcons ecutiu
Ġne vera
Ġrecicl atge
ĠP ra
Ġins tr
ÃŃx ols
T an
ten en
Ġpor tant
Ġtera pÃ¨u
Ġ rics
Ġal emanys
Ġfin alitzat
autor itzaciÃ³
5 6
Ġr enta
Ġdesapar eix
ĠS evilla
Ġsal va
Ġconc rets
Ġs uÃ¯
ĠS ha
ĠD en
cion ats
op ista
Ġress Ã²
ĠTom Ãłs
ĠcÃłl cul
Ġconsider em
Ġse ca
Ġvesp rada
Ġemp r
Ġmin isteri
Ġanim ar
horab ona
ĠSan itat
ĠIndustri al
Ġcer cle
Ġles ions
Ġcont ent
Ġreper c
Ġfabric ants
ir at
entren ament
ĠMus ic
Ġequipa ment
titz ar
Ġren unciar
ho w
Ġen for
ve tat
Ġf esti
ĠB Ã¨lgica
Ġj usta
ĠperiÃ² dica
Ġrec ents
fec tes
Ġpriva citat
ĠCons ul
et Ãłria
ĠF la
Ġaprofund ir
Ġv ocal
Ġta xes
Ġtan mateix
Ã²m ens
Ġcapital isme
Ġess encials
esper ar
Ġadop tar
Ġport Ãł
gu itat
Ġinsc rits
Ġmar ÃŃ
Ġ199 1
orre gut
Ġenc anta
obli gaciÃ³
utilitz en
Ġmon itor
ĠC ort
ĠD am
ĠVan guardia
ĠBo i
ti g
Ġsa vi
ĠR uiz
ol e
Ġrob ots
ĠâĢ ĭ
Ġesta ria
ar de
Ġsub jecte
xa ca
Ġinn oc
Ã²c rates
Ġdi Ãł
T al
qu ins
Ġg ana
li p
Ġdeix eu
ĠFran k
8 6
is is
oli va
Ġex ca
Ġrecon eguts
ĠdinÃłm iques
iv al
Ġin capa
ĠS ara
Ġval ent
Ġbl at
ĠhistÃ² riques
Ġcob rar
Ġcompeti cions
eda g
ĠM ot
ins tru
Ġamena Ã§a
Ġterritori als
ĠLli ure
Ġguer res
Ġsub ven
A cadÃ¨mia
ir ona
ĠMus ical
Ġimpres sionant
Ġoper aciÃ³
lle u
ĠBarber Ãł
Ġconten en
Ġcomprom isos
Ġnar raciÃ³
ĠMa ig
r Ã³s
Ġurban itzaciÃ³
m nium
Ġcompeti tivitat
Ġra ti
ĠÃŃn tegra
Mol t
ĠN or
ĠJ orge
ĠF iscal
Ġpat ron
Ġf alla
ĠvÃ©n en
ã Ģ
C re
ĠEsc olar
Ġcre adors
Ġcaus ar
Ġmanip ulaciÃ³
Ġtransvers al
ĠIS BN
ment era
Ġpl enes
Ġcal Ã§
Ġap orten
Ġfinanc er
eb ut
ur n
Ġcondem na
Ġimp rovis
Ġco aliciÃ³
r osa
van gel
Ã¨ p
Ġrec tan
Ġimmob ili
I m
ro car
ĠH it
Ġrepar tir
ĠUniversi tari
Ġdon i
Ġco va
ta tiva
Ġquali ficaciÃ³
ar di
ĠOl ot
Ġdeman ant
Ġc edir
ĠGu ÃŃxols
Ġtit ulat
Ġb eure
ĠR en
Ġav aluaciÃ³
Ġfor tes
Ġfrag ments
Ġf isi
ass ass
ni cia
Ġes ter
entat ges
c uls
Ã¯ ns
es te
AR T
abs Ã¨ncia
on ista
is ca
ĠTÃ¨c nica
ĠcÃłm eres
Ġs os
ur gia
Ġreun it
esc ut
In terior
Ġgen i
Ġmob les
Ġfu tures
Ġ QU
Ġam ar
Ġcul te
Ġprof it
Ġf ita
Ġdi gui
enes tar
Ġa u
ĠLli ber
Ġorganitz en
w ood
ĠC ul
Ġimmedi at
ĠEs pai
Ag rupaciÃ³
Ġarti ficial
Ã² bia
gi pte
Ġcamin ada
ĠD uran
ci ts
ĠF al
ĠsÃŃmb ols
Ġb ressol
Ġan ul
Ġsubs tan
ĠBl anes
ac redi
ĠM is
anim itat
Ġrem odel
Ġcontinu arÃł
200 6
ĠpÃºblica ment
ĠP aco
Ġc ed
Ġc uida
Ġma pes
tin yent
ing o
Ġrecti ficaciÃ³
Ġlater als
bl anc
ten iment
Ġmin i
Ġru mb
Ġun eix
gued Ãł
us sa
apro f
Ġaccessi ble
Ġrec re
Ġdescob erta
IN G
e duca
trac ciÃ³
Ġcul l
ĠPolit Ã¨cnica
Ġderi va
Organitz aciÃ³
O V
Ġpos eu
ĠAd ministra
ĠT u
C amp
Ġconf id
Ġsembl ants
Ġar reg
Ġarrib arÃł
Prim er
ĠP av
Ġs int
Ġinteg rar
Ġdescon egut
mÃł tics
ĠDef ensa
M entre
Ġec os
Ġ {
ĠÃłl bum
Ġsu ficients
ida ment
Ġsimp a
ĠM erca
Ġmasc lista
ĠR uta
Ġconcep ciÃ³
Ġnuc lis
Ġexp uls
Ġsupervi vÃ¨ncia
ap p
ĠcomenÃ§a va
Ġan Ã¨cd
Ġlleug er
Ġvin yes
Ġplan tar
Ġre tra
Ġin fec
ass es
egu es
Ġexig ir
Ġforma tius
eix es
apor taciÃ³
he im
Ġvalor at
al ada
esta da
Ġpren en
Ġt Ãłc
Ġpresenta des
ĠUrb ana
ĠCated ral
Ġcomp ost
gres sos
organ isme
Ãį ndia
Ġconsidera da
Ġredu Ã¯da
Ġro t
ĠDoc tor
eg aciÃ³
ĠconstruÃ¯ da
ent Ã©n
ĠS A
rib le
Ġcelebra cions
Ġdes fi
Ġconfir mat
at ra
ĠGer ard
Ġpreser var
a us
ul siÃ³
Ġaprof ita
am Ã³s
end rÃł
Ġcorpor al
Ġur gent
ver tir
ĠPal af
Ġenten em
Ġmot ors
Ġa er
ĠconvenÃ§ ut
Ġ6 2
arr el
Ġmor ta
Ġestim ar
Ġac tor
Ġcar net
ĠM arcel
ĠSal ou
ĠRib a
tr Ãº
Ġlater al
Ġimmig rants
Ġcol umna
tu ar
fici als
Ġtin guem
ĠÃ į
Ġ4 9
Ġalcal des
ĠES O
ĠEspor tiu
Ġincorpor at
ow n
Ġcoincid ir
ĠG ol
al ia
Ġb eren
Ġsubs tÃłncies
Ġp alla
ĠRec ursos
Ġc ust
ĠTerritori al
Ġsal tar
Ġdemost ren
ĠC AP
Ġcom te
Ġna cionalitat
ĠMol let
C D
s h
lo qui
Ġent Ã¨s
ĠpÃłr quing
du car
ĠEsc ol
Ġespiri tual
Ġorgan isme
re ia
ĠR aval
ib il
s et
Ġemb ar
Ġaut onomia
i tiva
ĠT emps
Ġcarreg ar
hab itatges
Ġpu ra
Ġh ig
Ġem m
3 00
ĠMa y
Ġlim itat
Ġinc lus
ing ton
Ġinforma tiu
ĠLiter atura
ĠSa int
ĠF am
rit z
Ġan ant
Ġw ith
Ġdi ta
am ics
Ġinfra estructura
Ġcontund ent
ĠGel trÃº
T ant
Ġ( âĢľ
Ġco ca
Ġcommem oraciÃ³
Ġ omp
o ure
Ġcur ts
Ġdepartament s
Ġvirtu t
Ġprofunda ment
ac er
Ã© nez
arra f
Ġar tic
ĠOr g
Ġrelig iÃ³s
gon al
ĠPa pa
Ġs ost
lus tr
Ġfed eral
ric h
te in
Ġor iental
Ġel egant
om Ã¨t
o i
Ġaug mentat
* *
Ġrepublic ans
ri que
ĠAn im
Ġju guen
ĠCar ta
of f
aut odeterminaciÃ³
ĠÃ¨x its
Ġmen uts
Ġaut Ã²ct
6 2
ota da
Ġn egu
Ġconte x
Ġcomodi tat
An oia
Ġdirig ides
ica ments
Ġdel im
Ġt on
l ents
Ġcomple xa
Ġfoc us
rÃł ria
s car
H ome
ĠEdi cions
ta mbÃ©
Ã² tics
Ġpron unci
onÃ²m ics
Ġradic al
Ġforma tiu
Ġclo enda
Ġ198 0
ĠBomb ers
Ġagra daria
Ġinter iors
Ġneg ociacions
Ġutilitz ada
Ġexemp lar
ĠelÃ¨ct rics
fer ent
us uaris
Ġdes ert
Ġconsell ers
id o
Ġmob iliari
T ER
ĠE ul
Ã ¢
Ð ²
ĠestratÃ¨ gic
ĠtrÃł fic
Ġul tra
lla ment
s obre
alitz em
Ġrenov ar
titu ciÃ³
ĠX Ãłtiva
Ġprop ici
Ġanomen ats
A tl
Ġm Ãłn
Ġti ra
Ġgaud it
Ġprovin ents
ĠK ar
Ġro ques
Ġcomodi tats
Pot ser
Ġ: :
sion at
Ġrep Ãºblica
Ġinform Ãłtica
ĠJun ts
Ġconeix ia
ob tenciÃ³
Ġb or
al im
Ġb osses
ĠMan acor
Ġgui es
ĠMar roc
IC A
en viament
Ġrec ollit
reg aciÃ³
Ġitiner ari
m od
am istat
Ġvinc ulat
Ġrequer eixen
Ġhi per
Ġmec anisme
ĠC orre
Ġvinc les
ĠG Ã¼
Ġemprened ors
5 7
Ġmar gin
Ġautor itzaciÃ³
Us uari
en e
quer as
Ġassenyal ar
ĠClar a
Ġvol ums
F orm
ĠP enya
ĠUP C
ĠG ai
6 3
6 7
odi versitat
Ġno tar
Ġcarb oni
ec tes
Ġele vada
ĠMat eu
ĠB ut
Ġ4 7
Ġprec ari
Ġre ma
ris ti
Ã²l ics
Ġdur ar
rem ta
Ġproced ent
ĠMob ilitat
Ġestal vi
Ġperjudi ci
ĠVol un
Ġdeman em
Ġpara di
Ġvalenci anes
Ġvinc le
Ġbot Ã³
ass o
Ġdem arcaciÃ³
ĠPlat ja
g re
Ġitali ana
Ġo i
Ġam an
Ġpa tates
Ġindic adors
Ġsup orts
Ġext ens
Ġpass es
ĠU rgell
Ġad sc
ex ic
I tÃłlia
Ġ7 00
Ġcens ura
Ġins u
Ġcu inar
e te
ĠB enestar
ĠtomÃł quet
F er
Ġinterac ciÃ³
Ġpages os
ter o
Ġprogra mat
ĠM Ãł
tin ciÃ³
obser vaciÃ³
Ġcomun itÃłria
ĠV iu
Ġball s
Ġcompon ent
Es tiu
tal lar
ad os
ĠDel ta
lec tuals
lel ament
ci da
inf ants
Ġc ig
Ãłria ment
Ġur nes
ĠA P
Ġend ur
Ġcamp us
ĠG ro
Ġapar ell
Ġposi tivament
ĠBen et
er as
Ġnacional isme
ĠV ida
Ġaut Ã²noma
S empre
Ġverm ella
Ġestad ÃŃstiques
Ġtra Ã§at
Ġcap tar
ili p
Ġpetr oli
Ġa pa
te b
Ġcompany es
Ġdescobri ment
ĠU GT
Ġdirec tiva
Ġcondem nat
indo ws
ĠCent res
Ġexcur siÃ³
ĠCas as
Ġperd ent
D is
orden aciÃ³
S ense
Ġperspec tives
Ġpol las
d Ã³
ab tes
Ġcu idar
Ġsepar a
ener aciÃ³
ĠC C
apro xim
Ġreflec teix
Es tany
Ġimpor ta
Ġcer e
ĠSec und
ranc es
Ġrep Ãłs
Ġcomp licitat
Ġt rem
Ġdenunci at
Ġguany ant
Ġlluit es
ar bre
Ġtecn olÃ²gic
agra den
ĠfreqÃ¼ ent
ĠpÃ¨rdu es
Ã²p era
ur ÃŃ
Ġsem if
Ġrepresenta cions
n ess
Ġator ga
es panyol
Or questra
ng els
b Ã³
ĠCal ella
Ġsob te
Ġqu ir
Ġaliment Ãłria
ari o
ĠRe vista
Ġadi ent
5 3
Ġesca par
ĠA leshores
acompany ament
Ġseny ors
ina cions
ĠmÃ¨ dic
ĠM estre
ÃŃc ules
Ġag ro
D im
Ġm Ãłs
ĠNic ol
ĠCor al
Ġb egudes
Ġhec tÃł
qu eria
Ġensenya ments
Ġcom enci
Ġlim itacions
Ġblan ques
cion isme
Ġcondem n
Ġsindic al
P V
I E
Ġgra pat
ol or
Ġvui tanta
ĠT ran
Ñ ı
Ġofer t
ĠCal a
Oc tubre
Ġpr ÃŃncep
5 2
j i
Ġex istÃ¨ncia
Ġcap itÃł
Ġcor al
Ġpes ar
ide es
ac osta
ac ta
Ġcorre dor
ĠC ity
a fec
mb ia
tr ing
Ġ Ãłn
Ġcompar tida
Ã²r gan
Ġconven cional
h y
ĠgÃ¨n eres
or able
Ġun animitat
al iment
Ġin ex
ĠNo guera
ĠPeri od
Ġconstitu cional
ĠResp ons
Ġexp edi
ĠEuro pe
200 3
ĠtÃ¨x til
ĠfÃł cils
Ġleg alitat
Ġcerim Ã²nia
Ġimp er
Ãłn dol
u aciÃ³
Ġconstitu eixen
Ġ198 9
Ġcalc ula
Ġacab arÃł
w ard
Ġdes fer
Ġop ort
ap s
ĠS ra
ĠAn gel
ĠautÃ²n oms
d ing
Ġcontinu at
Ġgaud int
Ġde g
Ġdispos ats
Ġordin adors
Ġg ot
Ġconsidera ble
T M
Ġprofession alitat
Ġvege tals
Ġpl en
Ġex teriors
Ġgir ar
Ġsaluda bles
Ġcom itÃ¨
Ġfib ra
Ġmili tants
Ġpren ent
Ġpertany en
ĠAc tivitats
Ġdismin uciÃ³
ĠV iny
Ġama gar
Ġdiver siÃ³
Al z
ci clop
Ġgra var
ĠDal ÃŃ
A mp
Ġdig ne
Ġan nex
AC I
ĠParti cipaciÃ³
rom p
rug ell
qu eb
Ãł us
anomen at
Ġab ordar
6 1
ĠA z
ted ra
Ġreme i
Ġdeter mina
eb le
ĠCon tra
Ġp ica
Ġin tr
R ep
ĠCer vera
G ran
ĠQu er
m any
in fer
Ġsimb ol
Ġperson alitzada
ĠS ÃŃn
vi Ãł
M S
m era
Ġter rat
Ġdes enes
ĠPor tal
Ġt ribunals
ĠL in
Ġcarreg at
Ġdob les
Ġinter venir
Ġmot o
Ġno bles
t ries
U D
Ġrecord en
ĠLle tres
ĠEs querra
Ġri ca
Ġ Î
Ġtas tar
Ġprogres s
ĠAc ciÃ³
Ġmenti da
Ġtranspar ent
Ġrepe teix
CI A
i tinerari
a posta
Ġconc ursos
Ġincl Ãºs
ĠIn t
ant es
Ġman c
oler Ãłncia
ĠCoordin adora
Ġf all
ĠIn novaciÃ³
5 4
Ġcre ador
r Ã²s
Ġenf rontar
Ġb eca
assign atura
Ġav or
ri us
ĠP acte
uÃ¯ lla
Ġf usiÃ³
Ġcob ert
Ġvertic al
Ġfes tiu
uc s
el ements
Ġla va
Ġpl ural
Ġcon fer
Ġtor res
E ivissa
ĠGarri ga
Ãł pies
que ologia
Ġsor tint
om eu
Ġaprof itat
Ġrealitz aran
ĠRub ÃŃ
ĠMun tanya
Ġb anys
ĠCÃŃ vic
Ġcas c
ĠEs tic
eri di
ĠÃ²r gan
ĠQu alitat
b is
ĠRes id
h ero
h omenatge
ĠC rea
ĠR eb
Ġsal ud
Ġne ur
enci alment
ajud ar
ar tistes
Ġmen ja
Ġf Ã²rum
Ġden sitat
n y
ĠavanÃ§ ada
Ãłm ens
Ġferro vi
da des
ĠÃº niques
ĠPal amÃ³s
Ġepis odis
Ð ¼
Ġblog s
rec ciÃ³
Ġdesig n
ĠB il
Ġpor ter
Ġlliure ment
on ga
ren a
Ġsup erm
trac te
Ġassign atures
Ġtorn i
ĠDoc umentaciÃ³
A ran
Ġpin ta
Ġre tor
ĠQu alsevol
Ġh ere
gu alment
ad jud
ĠCon ca
Ġjur is
me dia
Ġtras torns
Ġfar Ã©
V ic
Ġobligat ori
Ġson or
Ġameric Ãł
Ġta p
Pod eu
Ġconfir ma
Ġprac tica
Ġl Ãł
ĠPro vin
Ġsepar ar
ĠS ob
Ġs es
Ġfelici tar
Ġadequ ades
Ġpuntu aciÃ³
Ġtrac tats
ul o
Ġra Ã¯m
Ġsorpres es
Ġint Ã¨rp
Ġselec cionar
Ġcomerci alitzaciÃ³
8 7
ac cident
ĠVal encia
b at
Ġref ug
Ob ra
Ġfores tals
Ġnega tiu
ci nes
Ġide als
Ġteix its
ĠM ig
equipa ment
l via
Ġx er
Ġrealitat s
in versiÃ³
Ġinter canvi
ari es
Ġpublic ades
Ġequ ilibri
encar rega
Ġmas siva
ĠFor mentera
ell ar
Ġlli gat
F i
Ġper f
Ġtar ra
ĠRam Ã³n
ĠJ uny
ĠMi reia
Ġinteg rants
Ġloc alitats
imp ost
oc at
Ġllog ar
Ġass emblea
Ġregid oria
Ġcog ni
ani versari
Ġcab ells
ĠSec retaria
ĠMari ano
ven i
Ġjudici als
Ġpag Ã¨s
Ġcomp anya
Ġhoritz on
Ġexcur sions
ĠM Ã²nica
ĠPers ones
Ġconten idors
la i
ĠIn form
Ġcamp ana
Ġpen et
ĠGl ob
Ġec olÃ²gics
ĠdÃ² lars
ĠM ul
Ġcompor tar
Ġapren ent
Ġpeti cions
Ã©s sim
ĠSosten ibilitat
m is
ĠD iu
ili ars
Ġdefens at
idi oma
ic ats
ĠmÃŃnim s
Ġg ala
egu i
gu arda
les a
Ġama ga
Ġmot x
ĠF red
Ġsegu irÃł
ag ossa
Ġe f
Ġfanta s
aix a
Ġcres cut
d ra
ĠCont empor
Ġestr en
ro g
Ġfit xa
lar aciÃ³
Ñ ĭ
Ġso vi
Ġimmig raciÃ³
on em
Ġlim itar
Ġvol ar
Ġmed icaments
ig en
Ġat letes
Ġp ins
Ġocup at
Ġcerti ficaciÃ³
ĠJ im
ĠF i
Ġcal ent
Ġ 01
des c
os ex
Ġdefin it
C R
ĠmÃł gic
Ġjun tes
Ġdeix ava
ro v
Ġfin anÃ§ar
ĠPÃº bliques
N osaltres
vil le
Ġdirec tius
ĠMont juÃ¯c
Ġllic Ã¨ncies
Ġrellev Ãłncia
u le
per quÃ¨
Ġin oblida
Ġrepublic Ãł
S or
Ġb orsa
Ġreser var
Ġcient ÃŃfiques
Obser vatori
ass et
an itzaciÃ³
Ġaplica ble
Ġavan tatge
Ġemple ats
Ġtreballa dora
A igua
âĢĶ ,
Ã± ez
h is
Ġinvol uc
Ġgu Ãłrdia
Ã¯ tat
5 1
Al c
umen ges
accessi bilitat
tim Ã¨dia
Ġna z
ĠÃŃn dex
A li
Ġa si
assa ig
V am
ĠS ER
Ġobli gaciÃ³
Ġdisf res
ĠLl ic
oc on
Ten im
g Ãłria
Ġ 00
u its
en tant
Ġam igues
Ġtermin is
ĠAn g
Ġson ora
im on
Ġm Ã¡s
ĠautomÃł ticament
8 2
Ġbarcelon ÃŃ
h Ãłb
ĠJ ut
ĠSec retari
C rec
ĠU d
c hi
om ar
ella da
Ġajud ant
ĠPro c
Ġdesigual tats
Ġmes urar
ja ja
Ġfunda da
men tant
ĠteÃ² rica
ĠForm a
A qu
ĠcrÃŃ tics
ta gram
ĠLa ia
Ġfron tal
Ġforma tiva
ĠgrÃłfic s
Ġdona da
Ġmedia ciÃ³
ĠÃ ī
Ġdesple gament
ĠMarg ari
Ġc Ã¨n
Ġrecup erat
Ġbr ut
ĠR evoluciÃ³
Ġob er
Ġcatal og
ĠIs rael
Ġprevis ions
Ġas pira
itx ell
Ġt ones
estudi ants
exc ursiÃ³
Ġt est
Ġestabli ment
9 2
ĠVi ol
ĠG arraf
Ġsatisf ac
Ġacud ir
Ġassoci at
Ġdiss enys
Ġmed alla
Ġdesitj a
ĠJa zz
Ġtrep itj
ĠCon ver
Ġ utilitat
Ġrecla maciÃ³
Ġdesitj os
ĠTecn ologia
w eb
ar mes
b Ã©
htt p
anomen ada
Ġal tament
Ġter Ãłpia
Ġexplica va
Ã²c rata
Ġca Ã§a
Ġrem arcar
ER S
Ġarrib ada
-- --
Ġge ogrÃłfica
Ġpolici es
Ġh ospitals
Ġad met
Ġpu guis
Ġnete jar
B I
eix a
ĠCal des
ĠVer ge
Ġperfec ciÃ³
P or
Ġagaf at
Ġreligi oses
Ġtin guÃ©
Ġ9 78
S e
Ġpat r
hist oria
ixamp le
Ġf ili
ĠWill ia
vid entment
Ġ198 4
ab ora
ĠG emma
Ġpassat gers
Ġdec or
Ġnegoci ar
Ġ197 8
Ġpropos en
8 3
Ġindepend entment
Ġpres c
Ġrecol lides
mp ing
ol ina
Ġconv Ã¨ncer
Ġfemin ista
Ġtur Ã³
Ġgovern ar
Ġforma tives
Ġrecom ano
Ġdesta cades
ĠMed ia
Ġvis uals
Ġbran ques
ĠC od
Ġ5 2
Ãł t
Ġmonu ments
b an
ĠEc onÃ²mica
Ãłl isis
Ġref re
Ġcompet ent
ĠB ig
Ġpass ats
Ġfab ri
gen da
o par
emp rened
Ġpa pa
Ġ18 0
ĠagrÃŃc oles
por tiu
ĠGu ia
cion ista
Ġpr inc
Ġadre Ã§ada
Ġfer ides
ĠAr tur
Ġpreocup a
ĠPD F
Ġpolici als
Ġr uÃ¯
ĠT our
Ġn Âº
Ġles iÃ³
ĠMem Ã²ria
Ġfarmac Ã¨u
an et
ĠN ob
Ġmal es
Ġelec ciÃ³
Ġc ors
Ġcastell ana
Ġcomb inar
Ġmec Ãłnica
Ġassa ig
Ġp int
ĠCons um
Ġfla men
ĠP ots
ac um
ĠVicent e
Ġh ol
atÃ¨ l
B ar
Ġpos ava
Ġacol lida
Ġasc ens
f ix
av is
Ġac cidents
a igÃ¼es
Ġde ure
p od
ĠL ou
Ġde tecciÃ³
Ġbomb ers
Ġapun tat
U E
tori al
c lar
ĠS agrada
Ġinquietu ds
def els
te xt
ĠnecessÃłria ment
Ġsenti a
Ã¡ r
tiv isme
ĠC ob
ĠT eix
veu re
Ġtra duir
Ġde via
ĠG Ã¨n
ĠIndepend Ã¨ncia
ĠCoopera tiva
ru it
ien e
Ġtempor als
ĠP esca
Ar quitec
Ġdibuix ar
Ġconf ess
Ġvo tants
Ġn in
tat u
tan er
Ġpar roquial
ĠL oc
ver es
ĠC AS
ĠOber ta
L l
Ġd Ã©
Ġpre judi
in ven
ĠÃłnim a
Ġpu jat
encarreg at
ĠW e
Ġbut xaca
? âĢĿ
op ortunitats
labor ador
ĠÃģ lvar
Ġes menta
tr ina
Ġprim a
Ġes tir
Ġloc alitzar
ĠPsic ologia
Ġrepres entat
Ġ ot
qu ill
Ġentren ador
Ġequival ent
Ġt Ã²p
Ġconven is
us es
ĠestÃł vem
ent ena
p reu
ĠP asc
Ġb ale
Ġeix e
Os ona
Ġcor riol
Ġbron ze
Ġafeg int
Ġan ualment
Ġdiss abtes
ĠSeg arra
Ġsupos o
Ġpa quet
ĠEdu ard
Ġdedic ats
Ġtab ac
ĠBer guedÃł
Ġprevist os
ĠT hom
Ġfi res
. ),
al liberament
Ġgran d
Ġidenti fica
Ex posiciÃ³
f ol
Ġinvesti gacions
Aut or
Ġenc Ãłrrec
ĠfÃŃs ics
Ġcicl istes
ĠEs tudis
B Ã©
ĠAqu ell
Ġtin ent
ĠhectÃł rees
ĠC L
Ġqualitat s
ing res
Ġcadi res
Ġpal es
Ġassegu ren
Ġidi oma
Ãºs tries
ap es
Ġs Ãº
Ġf Ã²s
ĠC erc
Ġimm ensa
Ġacord ar
Ġopera tiu
g ost
ĠM ich
a k
ĠautÃ²n omes
u gues
ĠR ock
lim entaciÃ³
ĠEspeci al
da da
Ġrepro du
om ot
Ġjut ges
t os
Ġposi tius
Ġsignifica tiu
ĠMu Ã±
Ġtitu laciÃ³
Ġger ent
lo w
Ġaband onat
ĠCiutad ana
ĠSecund Ãłria
us ia
ĠAl ba
ed ora
Ġdes n
Ġfan g
cin c
ta rem
ĠN atura
ĠMill or
T ra
omun icacions
ĠHit ler
Ġreb rÃł
Ġbomb arde
Ġdon aran
Ġcompleix en
Ġfuncion en
Ġfil os
Ġguard Ã³
un iÃ³
Ġinvestig ador
op ol
V D
Ġes glÃ©sies
Ġenques tes
Ġcos m
Ġestr ena
Ġconfir maciÃ³
ul li
Ġfid els
ĠCan adÃł
] ,
Ġrepro duc
ĠB asc
Ġcal enta
Ġmobil itzacions
Ġtra g
Ġredu eix
Ġcent r
ĠC Ãłn
Ġjug ada
Ġvo tat
ĠacadÃ¨m ics
Ġmediter rani
Ġres ca
Ġcap es
ro don
Ġac tives
al ter
Ġconser ven
ĠCal af
Ġsof t
Ġanunci s
ĠM essi
Ġdespla Ã§ament
Ġa us
ĠH el
Ġrefor Ã§
fon ia
ro ga
Ġcl Ãłus
gu erra
Ġutilitz ades
Ġpan or
Ġgastr onÃ²mica
ĠAl c
ĠcomenÃ§ Ãł
ĠJun queras
A ula
Ġespeci alitats
independ Ã¨ncia
Ġan eu
En ginyeria
Ġdut xa
establ ir
Ġarrib ava
Ġdi vis
di cions
Ġins erciÃ³
actu res
Ġcontrib uciÃ³
Ġtut or
le gacions
Ġp ilar
Ġ8 5
Ġcontinu em
ĠB and
Ġdia b
Ġpsic ologia
Ġimp ed
Ġproduc cions
ĠÃ© rem
i ria
Ġ9 00
e ia
og s
Ġc Ã²n
ĠD els
ĠtÃŃp ica
Ġplantej at
Ġbar reres
Ġcon fec
Ġsub jectes
Ġar c
id entitat
ĠS anc
sion istes
Ġplantej ament
gu ers
Ġesper anÃ§a
Ġcandidat ures
Ġabs ur
Ġcon quer
ĠUN ESCO
Ġper cep
Ġ197 9
Ġt ribu
ĠE tique
Ġcent rada
inter venciÃ³
um ir
Ġdocumen tals
Ġexc essiva
Ġobtin guts
Ġhip Ã²
ĠI gnasi
Ġpropa ganda
Ġsegur s
Ġdes truir
Ġlli gada
tr Ã³
imp ar
Ġf icar
ens eny
ul ls
Ġestric tament
Ġregi onal
Ġconduc tes
Ġgra vat
ĠCirc uit
d rome
Ġdedi quen
ĠC S
ĠX i
Ġdol ent
c ent
Ġe ficiÃ¨ncia
T ES
olÃŃ mp
americ ans
Ġembl emÃłtics
h istÃ²
ĠCastell ers
Ġdeix arÃł
Ġsis Ã¨
ĠD isc
ĠfreqÃ¼ ents
Ġmad u
ĠFil osofia
ang le
Ġ198 7
Ġrespec tius
Ġobli gar
Ġrectan gular
l Ã²s
estudi ant
Ġ198 8
andes a
ĠPalaf rugell
Ġfot ogrÃłfica
Ġdra mat
empor ada
Ãł cid
Ġ198 6
Ġindis c
ĠSols ona
Ġull eres
S up
Ġamp le
Ġvol d
tim s
V i
Ġcar am
Ġal erta
Ġamen aces
arc ÃŃs
Ġtex tura
Ġexecu tar
8 1
ĠEl ls
Ġub icada
ĠO pen
Ġcompar ar
ĠRos er
Ġacab ats
anim al
qu illa
Ġpass ad
s on
j ug
ĠS is
i tant
inter net
Ġcoincid eix
Ġdi umenges
ĠPolÃŃ tiques
Ġre pl
ĠE ug
Ġcar di
Ġclar s
Ġincre Ã¯ble
ent o
Ġent Ã©n
Ġhab ita
Ġm ari
Ġrecull en
Ġreb uda
ĠPol Ã²nia
od o
imp os
exp edient
ir al
Ġx inÃ¨s
Ġext ensa
Ġpen ya
Ġemoci onant
ĠSE O
b ona
Di vendres
ĠSÃŃ lvia
Ġtrac ten
igual tat
Ãłm ic
Ãī S
ĠM Ã¨
f o
Ġexpos at
Ġevid Ã¨ncia
labora cions
Ġreivindica cions
ap at
Ġan alitza
Ġtecn olÃ²gics
ĠON G
Ġen ergies
Ġtal s
A ll
Ġnucle ar
w ay
Ġ5 4
Ġves tir
Ġex tern
Ġn eta
Ġsignifica tiva
Ġcurt met
Ġ197 0
ĠmÃ²d ul
Ġbru tal
Ġdisfru tar
ĠMa Ã³
Ġcontes tar
ĠP IB
ĠVir g
ĠMer itxell
Ġagra den
Ġmir all
escol ar
ĠQu ÃŃm
n eg
ĠD NI
dis c
Ġaut onÃ²mic
Ġmet Ãł
ed ic
Ġretar d
ĠR ich
Ġmoder ns
Ġconc loure
ĠCol ls
Ġmediamb iental
Ġcirc um
eb ra
ĠA lacant
E ra
jec tius
Ġjo ia
Ġguia des
Ġre vi
pens able
Ġdes ena
n omÃ©s
Ġmens ual
ĠSar agossa
Ġagra di
Ġcol umnes
ĠBar ris
Ġdiss ol
ĠMan lleu
an is
ĠestratÃ¨ gica
AN A
Ġre ga
Ġpass ades
Ð ´
ĠC ir
ĠB au
Ġll anÃ§a
Ġfesti us
ĠP eti
id ant
Ġobli gats
Ġcated rÃłtic
ĠRib es
ĠD esta
Ġreligi osos
Val Ã¨ncia
ĠP etit
rib uciÃ³
Ġfona ments
Ġfinal istes
Ġbu its
Ġn ul
ĠR ivera
Ġsalv atge
Ġes tant
terna tiva
ig o
Ġpla ques
Ġmin erals
ĠtÃºn el
Ġdisc ursos
actu ar
Ġconver teixen
L li
ss ar
Ġque ixes
Ġex ten
Ġob se
Ġide ologia
Ġha guessin
Ġindi quen
esta va
Ġliter aris
Or den
ol at
Ġre v
Ġinc ons
ĠCard ona
Ġdeb Ã²
P ass
Ġcin ta
Ġestal viar
ĠÃģ ngel
Ġlleug era
Ġcons tants
ĠC V
ĠdidÃłc tica
Ġofici na
Ġparla mentari
Ġindica cions
organitz ar
Ġdipu tada
es tic
Ġind emn
J ordi
Ġimp ulsa
Ġm ite
Ġdinam itzaciÃ³
Ġdeguda ment
Ġfortal esa
ĠD ÃŃa
Ġprior itats
ĠD alt
Ġb alla
Ġart ÃŃstics
m ob
Ġgra vetat
Ġcogn oms
Ġaut oma
em marca
Ġfer m
Ġdescomp tes
ĠcapÃ§al era
Pres entaciÃ³
Ġmal alt
al em
Ġrat olÃŃ
ĠMa j
Ġs atÃ¨l
Ġexpres sions
Ġnad Ã³
Ġimp ac
esti m
Ġfuncion ari
ĠEspor tiva
Ġpu guen
ĠH ist
Ġapar cament
di ciÃ³
Ġsitu ades
or o
ĠMor eno
Ġes b
ĠM onestir
Ġdistin ciÃ³
Ġfir ma
rat ges
Ġass aj
Ġarquitec tura
Ġpo u
Ãºs c
P C
Ġconvocat Ã²ries
Ġdepend Ã¨ncies
Ġdes b
ĠCN T
Ġem et
t us
Ġcar ril
tell es
Ġ198 5
Ġpu ga
ĠCastell defels
Ġge ografia
Ġbi om
Ser ve
Ġmillor ant
ĠJo ana
p ol
Ġpais atg
Ġurban ÃŃstic
Ġn Ã©
ĠPar al
ti bles
Ġsimp les
Ġc ellers
ĠAr nau
ustr Ãłlia
ir ant
Ġsab ates
Ġam able
ĠEs port
ĠF uster
cion istes
Ġ197 7
T reball
Ġcon Ã©ixer
om ia
Ġcoher Ã¨ncia
Ġc Ãłs
Ġdig na
6 00
ĠW indows
Ġtarge tes
ĠÃŃntegra ment
Ġb il
Ġmascul ina
Ġtr in
4 00
M E
Ġpollas tre
Ã¨n ior
Ġja pon
pl ec
Ġtr entena
ĠelÃ¨ct riques
Ġvet llar
pi ques
Ġestudi at
Ġacostu ma
Ġva por
Ġm ots
Ġg ats
emp la
F C
% ),
Ġpropor ciÃ³
Ġfen Ã²mens
pid esa
ic k
Ġentren aments
on ari
ex tra
Ġsorg eix
ha el
all ot
Ãłri tas
Ġimplem entaciÃ³
S ol
Ġex terna
Ġpa tin
ai res
ĠNov embre
Ġedit orials
Ġ5 1
ĠmÃł gica
Ġpar teix
Ġimprescindi bles
Ġinvesti gar
men taris
s en
Imp eri
m l
Ġvaria ble
Ġdescans ar
Ġemp la
Ø§ Ø
Ġtarra gon
m eres
Ã²r dia
ĠC ro
Ġitiner aris
Ġf ites
Ġveu reu
Ġmus ulm
od ia
ĠB uen
h al
Ġfra gment
Ġcomprom Ã¨s
arc als
Ġaven Ã§os
ĠH or
Ġestran ya
im atge
Ġrom Ãłnic
men tals
ĠPasc ual
em ociÃ³
Ġsimp li
Ġfinanc eres
Ġcas ti
Ġapar entment
Ġinf la
Ġm enta
ĠPav ellÃ³
tan es
Ġver ds
es morzar
ĠSi mp
Ġperc eb
Ġr um
Ġcontex tu
pos em
ĠU r
u alitats
Ġh omen
Ġ198 2
Ġlleg eix
Ġtel a
Ġvinc ulada
at h
Ã¨s tia
Ġrebut jar
Ġ1 000
ĠJ ames
ĠÃł cid
Ġvege tal
ĠCa vall
ĠGu in
el d
Ġja ciment
el ement
Ġdes ac
Ġus u
ĠN om
ĠK m
ĠC ient
apro va
ĠE D
Ġrom Ãłnica
or questra
exp ansiÃ³
ĠB B
Ġcon vent
F E
Ġmant ega
M i
ĠSindic at
Ù Ī
ert o
... ).
Ġefec tius
Ġri d
Ġk il
Ġargu ment
Ġameric ana
Ġderi vades
Ġfa vora
Ġmercad eries
Ġfr us
ĠCar l
am i
ĠMod ern
Ġm ides
Ġterror isme
f ran
Ġprocla mar
Ġvess ants
Ġpen jat
Ġrit mes
ĠCas tells
Ġprac tic
Ġpat rons
Ġme tall
te x
Ġvul guis
Ġmun di
elim inaciÃ³
Ġra dia
Ġsor tirÃł
ĠBl oc
s al
in forma
ĠCub a
Ġd ors
Ġvaria bles
Ġencarreg ar
Con tin
ar ren
h en
Ġd otaciÃ³
Ġque ixa
z aciÃ³
Ġdestin ar
Ġcre en
if e
Ġtraslla dat
Ġ20 20
Ġmo tiv
Ġprefer Ã¨ncies
tal lat
Ġprohib it
Ġexclus iu
Ġconsum ir
ti ran
A ro
em magatzem
Ġseleccion ats
qu ers
Ġf ederaciÃ³
ĠA cab
Ġqued ant
am o
Ã§ o
Ġacab em
ĠOrg Ãłnica
ĠC reus
ill uns
Ġproduc tor
Ġb eguda
ha urien
Ġferro car
ex ecutiu
Ġinter ns
ĠMuÃ± oz
Ġenc an
ĠS tar
ĠG reg
ot ur
g ons
Ġencarreg ats
ĠVerda guer
rob a
Ġsimul tÃłnia
oc es
Ġem etre
Ġa gl
Ġreclama cions
Ã² dia
ig h
Ġconsol idat
ar ticles
200 4
ĠV ilar
Ġsist emÃłtica
Ġpau tes
Ġins tÃłncia
ĠrÃł bia
Ġvisu alitzar
âĤ¬ .
Ñģ ÑĤ
Ġdes tr
Ġsem inari
ub e
Ġdist Ãłncies
Ġcompl icada
ĠV eu
ĠU S
titz at
ĠTur quia
Ġperson alitats
ri ment
ĠOlÃŃmp ics
Ġdisc os
Ġrenova bles
hi p
Ġde tenciÃ³
ine da
Ġadequ ats
ĠeconÃ²mica ment
Ġcommem orar
Ġenc ant
Algun s
ĠH om
Ġaclar ir
especi al
Ġsensi ble
gma il
ĠS ur
Ġnom en
Ġest el
Ġs anta
Ġdesg rÃłcia
alcal dia
Ġindis pensable
ĠE va
Ġg in
Ġcre ences
Ġnecess ites
æ ľ
Ġ5 6
Ġfran ja
ĠC ass
ĠR et
Ġapar egut
Ġenvol tat
Ġlimita da
Ġ olÃŃmp
Ġtrans fer
Â ³
ic e
Ġsub ter
ho ol
Ġinforma tius
ones os
Ġdivers a
Ġgen Ã¨tica
ĠSeg re
c ra
im e
Ġsum at
eg ada
Ġdetin guts
ĠB et
Ġtrob es
ĠBre tanya
Ġesc oll
Ġorganitz ats
Ġac ollit
Ġsepar at
ur en
Ġpreten en
si es
ĠN arcÃŃs
Ġadqui reix
Ġdisting ir
ĠC all
Ġdes truÃ¯
Ġps eu
ĠveÃ¯ nat
Ġen com
ĠV el
ĠTot hom
Ġtros sos
Ġh el
Ġlim itaciÃ³
ĠVer d
ĠB CN
Ġata car
ĠS af
ĠSosten ible
Ġdic cionari
ĠB anda
Ġinfer iors
Ġrec rea
Ġf ic
Es tic
Ġenem ics
egu era
Ġver des
ĠRes oluciÃ³
Ġextre ms
Ġol or
Ġreac cions
ĠmÃ²d uls
por aciÃ³
op era
Ġdemana va
ĠPres sup
Ġvia bilitat
ĠPon ent
Ġpen es
Ġex haus
Ġsetm anal
avan tatge
Ġti telles
Ġelabor ats
autob Ãºs
Ġ0 9
Ġfa ma
ĠLli bres
ĠCor ona
Ġocup ats
ĠGener als
Ãłg rim
Ġberen ar
ad e
pl an
Ġobli gades
Ġprote gida
ĠÃĢ ngels
ĠdiÃłria ment
ĠS au
Ġinici als
Ġmost rant
Ġsac erd
entren ador
D ia
Ġgra tis
Ġvari ant
organitz a
ĠlÃ²g ic
qu istes
Ġdirig its
Ġtras torn
ĠpedagÃ²g ica
Al g
ĠHistÃ² ric
ĠM AR
Ġb isb
Ġd Ã©u
Ġesca u
ur Ã³
ĠB lu
ĠV II
Ġb ord
f ÃŃcies
G irona
em issiÃ³
Ġfer its
Ġpres tar
ĠE ivissa
ĠT reballa
Ġbi odiversitat
ĠBor ges
ĠIgual ada
' "
Ñ Į
Ġproc edir
ĠGu ardi
ĠEmp resari
li Ã³
ĠS ota
Ġmar ÃŃtim
Ġfinanc ers
ĠVila dec
Ã² cia
ga m
quÃ¨ s
Ã¼ l
j am
B on
ĠUn es
Ġcas ualitat
Ġrepro duir
vent ura
ĠT rÃł
Ġcri tica
Ġtras pass
exper iÃ¨ncies
ĠB isbal
Ġsoci alment
ĠEm ili
Ġh ones
argu ment
Ġex ag
Ġbaix ant
ĠMil Ãł
ĠSol idaritat
Ġp ra
Ġest endre
D D
Ġr oses
i er
ri Ã³
ĠS ens
ĠgratuÃ¯ tes
ĠA h
Ġrevol ta
Di umenge
i ves
Ġs umen
Ġtrob ant
ĠLl una
us ar
Ġd up
Ġ5 9
tra ciÃ³
ĠsÃŃn tesi
ĠBl an
Ġestre ta
Ġfam ilia
Ġmonar quia
Ġxi quetes
ĠescÃ¨n iques
Ġtraves sar
ĠConf ederaciÃ³
Ġinnova dora
Ġr Ãłn
Ġrela xar
arca cions
Ġinnovador es
Ġcomun itari
ll ats
ĠĠĠĠĠĠĠĠ Ġ
ĠRipoll Ã¨s
E t
ĠD ansa
ros oft
Ġpres es
Ġmod e
ĠCurs a
t op
Ġcorreg ir
Ġafec tada
Ġmal estar
Ġta pa
al d
Ġem iss
ĠveÃ¯ n
Ġment res
Ġacus at
ob tenir
Ġdesigual tat
h os
Ġ198 3
u tes
apar ell
Ġllui tant
ĠSolid Ãłria
Ġtel ec
ĠResta urant
Ġcad enes
T er
N ota
ga ida
Ġentre vis
ĠDist ricte
Ġconjun ts
Â ¡
Ġres cat
Ġdes mun
Ġar ris
n ers
Ġsacri fici
Ġburges ia
on er
Ġenvi ant
ĠCan vi
ev als
u ment
Ġpos o
Ġcoordin ar
espÃ¨ cies
ĠCom a
Ġmet ropolitana
Ġfe bles
impor tant
fin iciÃ³
tur at
Ġcri atures
Ġsingular s
re tament
ĠcÃŃ v
G E
Ġca ble
Ġsupos en
ta g
Ġassoci ades
ec k
Ġaf ron
Âº C
cis ta
Ġposar em
Ori ent
Ġc Ã¨
as tr
Ġf Ã©u
ĠtelÃ¨ fons
Ġconnex ions
ĠTru mp
Ġcas ament
par tit
Ġresid ent
ĠprÃ²xim es
Ġen va
int el
ĠmÃ¨ri t
Ġign or
ĠR ural
Ġpers ecuciÃ³
Ġcomplex os
Ġcre us
Ġcomun es
inc endi
Ġsub m
ĠP ag
ĠDi ego
Ġinstitu t
Ġjusti fica
Ġp ale
Ãºn cies
Ġad ult
tad ora
ĠIns ular
ĠBon et
Ġllibrer ies
u tar
Ġpre ciÃ³s
Ġbi ografia
ĠFon ts
integra ciÃ³
b ili
Ġab oca
ĠCompany s
Ġinstitu cionals
Ġta x
Ġcer eb
Ã² ric
nes tol
Ġ9 5
D els
imp l
Ġpresen tats
ĠLl uc
Ġcoordin adora
vel liment
ĠNob el
Ġassum eix
Ġcol Ã²nia
Ġaccep tat
Ġco ix
Ġf actures
Ġtrob arÃł
" :
E du
ĠdesplaÃ§a ments
ĠGe orge
Ġlid erat
Ġimpuls ada
b en
Ġ5 3
ĠpolÃŃtica ment
Ġcompl ements
Ġ197 5
Ġd uc
Ġadqui rit
Ġdeb ut
Ġesmen tats
l lo
Ġprovin cial
O riol
Ġrefer ir
Ġa ustr
Ġan tec
tari at
ex emp
Ġpon ts
ha uran
enti a
ĠB ou
Ġmol Ã¨sties
ÃŃ as
e ina
ĠE bre
p et
Ġre utilitz
Ġqu otes
nestol tes
Ġpar er
200 5
an or
Ġpens ada
Ġna us
Ġacord at
orig inal
op i
Ġam istat
Ã¯ r
ĠProvin cial
u k
Ġpar cialment
esta di
Ġk g
Ġta pes
Ġve ieu
Ġanti cip
Ġplani ficar
edi Ã¨ncia
Ġdedic ades
Ġv it
ad ar
Ġexig Ã¨ncies
Ġinc endi
Ġinaugu ral
Ġneu tr
ĠautomÃł tica
Ġcon questa
Ġpressup os
ĠM esa
H onor
d Ã¨ncia
Ġ6 8
ĠJu liol
tu be
Ġproced Ã¨ncia
ĠVe Ã¯ns
Ġpun tuals
Ġfal ten
ons o
Ġre marca
Ġhaure u
Ġsoft ware
Ġtur ÃŃstiques
ĠA y
Ġpor ts
% ).
Ġvisi bles
Ġras tre
men gol
ĠS ort
Ġvideoj ocs
S I
las h
Ġof en
Ġpos tal
Ġproteg it
ĠPro jectes
Ġc ess
ĠMar Ã§
Ġcompar tim
ĠExc ur
Ġner vis
Ġpresen tant
Ġespera va
Ġnom enament
Ġsup eraciÃ³
l ers
ĠA par
Ġprohib iciÃ³
b us
Ġn eb
ĠReg iÃ³
fi la
Ġlit res
Ġprecari etat
Ġvinc ulaciÃ³
Ġportu gu
Ġb anca
ĠCal if
T I
gon Ã¨s
ofer eixen
Ġin ac
Ġinform em
ĠP rats
ĠDomÃ¨n ech
Ġve urÃłs
Ġprocess Ã³
U rb
Ġdemost raciÃ³
Ġen gres
aix ec
ĠSocial ista
Ġatrac tius
w in
on tre
ti ficat
Ġdeix e
ori da
and ro
Ġsenzilla ment
rari es
Ġsin o
ĠAg rupaciÃ³
Ġex quis
Ġsig ne
Ġcas ol
Ġconc edir
Ġter Ã§
vi u
si qui
Ġjuvenil s
f et
Ġcris is
ida ciÃ³
Ġtradi cionalment
9 3
ĠPasqu a
Ġdu ent
Ġ197 6
Ġamp la
os ca
escol ars
ĠDÃŃa z
ĠQu atre
Al tres
ĠEul Ãłlia
ĠK B
ĠH am
ĠAn ti
Ġseg res
Ġcre mar
Ġacab ant
oc h
nes t
il ats
Ġmin or
y e
ar tic
ill s
Ġde uen
Ġvis iten
ĠprÃłc tics
Ġal er
Ġparticipa tiva
ĠCom par
ma g
Ġacab i
Ġordin Ãłria
Ġrecap taciÃ³
er ror
Ġen der
Ġdeix i
Ġexecu tiu
Ġpil ots
Ġespl Ã¨n
Ġmitj anes
Ġacc ent
Ġfanta sia
Ġpun tual
Ġexc Ã©s
ĠRel acions
ĠCatal anes
ON G
ĠM und
Ġrela tiu
Ġcat or
ĠsÃ² lida
ĠTÃ¨c nic
ĠC A
ĠAd ministraciÃ³
Ġdispu tat
Ġ1 30
Ġclaus tre
Ġsup ressiÃ³
Ġint ents
loc aciÃ³
Ġtoca va
D os
Ġpac ÃŃfica
Ġsur ti
Ġgesti ons
ĠJ on
Ã¼ r
Ġleg ÃŃtim
Ġsor tia
ĠConver gÃ¨ncia
ĠÃ¨ mf
il le
Ġpreci sa
Ac ord
ĠR as
Ġcar t
Ġ7 2
Ġg rega
Ġdos i
Ġpi anista
Ġl in
ĠPu blica
ĠCor b
ĠUR V
no va
Ġmen Ãºs
arc h
Ġre ad
ĠveÃ¯ na
c m
ĠN eus
Ġve urÃł
Ġna taciÃ³
ĠG remi
ed ent
Ġcri ts
Ġri vals
ĠHern Ã¡ndez
espÃ¨ cie
co ver
Ġtroba ven
Ġclassi ficar
AM ENT
Ġaproxim aciÃ³
M B
Ġllen Ã§ar
gres s
Ġ196 0
Ġescol tat
Ġcre acions
ĠAnd rÃ©s
Ġarquitec tes
Ġbar ranc
Ġacompany ant
qu an
Ġde pressiÃ³
Ġaut ora
Ġro c
emp at
Ġar ma
ĠMa x
ina va
ĠC Ãłritas
ĠMari o
Ġparticular ment
Ġpres encial
Ġra j
Ġexpress at
Ġb ranca
Ġinver tir
Ù Ĩ
T orn
ertes a
Ġbomb a
ĠPerp inyÃł
ĠRepublic ana
Ġresid encial
Ġma il
Ġgai res
Ġtr istes
end or
Ġ5 7
Ġa tes
Ġfil s
Ġtert Ãºlia
ĠC B
Ġfin alitza
Ġmet re
Ġgiron ines
Ġar bit
cab ulari
ent r
Ã©n ia
z on
ĠC res
Ġman usc
Ġprote Ã¯nes
Ġesquer re
Ãłu tic
ĠRes erva
ĠT rib
Ġjapon Ã¨s
Ġcass ola
ï ¼
Ġator gat
ĠEdit orial
Ã²r nia
Ġe ficÃłcia
is tats
ĠMont cada
Ġ( "
ĠM ons
Ġra cional
ĠespecÃŃfica ment
Ġactu alitzar
ĠVirg ili
C iu
itz Ã³
Ġcon ducciÃ³
arrib a
Ġll Ãłgrim
Ġra dio
olÃŃ tic
Ġdetalla da
Ġ8 4
es i
lla Ã§os
a plicar
em an
Ġfos ca
Ġrecolz ament
V is
ci taciÃ³
por ta
Ġcircums tÃłncia
Ġpaga ments
ĠL ÃŃ
Ġr end
erra des
Ġactu en
Ġen questa
ĠPremi Ãł
Ġestabl ertes
Ġ198 1
ĠA la
Ġrec ta
ĠGav Ãł
Ġ ..
Ġdi ges
ĠMat emÃłtiques
Ġindic ant
Ġdes ob
Ġra Ã§a
ĠSegu rament
Ã¨l ix
Ġcob ertes
Ġcos tats
Ġajud arÃł
f ora
Ġdes m
Ġgol f
Ġcal aix
Ġderi var
ĀĀĀĀĀĀĀĀĀĀĀĀĀĀĀĀ ĀĀĀĀĀĀĀĀĀĀĀĀĀĀĀĀ
k el
A renys
Ġesp osa
ID A
d an
ĠTer cera
? )
En titats
Ġfot ografi
Ġautor itzat
ĠCap ella
ĠR ES
ÃŃc ola
Ġesca mp
Ġfeli Ã§os
Ġsegui rem
ĠT inc
mes es
Ġadministra tives
Ġeleg it
Ġmural la
ci ni
Am ics
ĠL an
Ġdi versi
Ġpr ud
Ġvi Ãłria
ĠK e
Ġfeix isme
Ġ Ã²b
Ġ Ä
ĠA hir
Ġmul tina
Ġsenc era
es ports
ĠMol ina
Ġconvoca da
F A
ĠPas tor
estr Ã¨s
escol tar
ĠPic asso
Ġautor itat
Ġrid ÃŃc
Ġrecons trucciÃ³
ĠB elles
IC S
ĠB ach
ĠC P
and er
Ġinspir at
8 00
enci aciÃ³
Ġprepar ada
Ġconcre tar
D oc
ĠcomenÃ§ aran
es tany
ĠSan g
ĠConser vatori
Ġves tu
ĠT rin
ĠM Ãłr
ĠI di
eg al
Ġpresenta va
Ġmar atÃ³
en ginyeria
Ġalum nat
ĠFiscal ia
at ri
Ġapor tant
ta ta
il d
equip s
Ġa fer
Ġres tring
Ġtren cat
Ġgrec s
Ġapar tats
Ġdispos icions
Ġactu alitzaciÃ³
ĠdiÃł metre
ord era
H an
Ġre pos
ĠS ad
Ġcirc uits
ingres sos
Ġex Ãłmens
ĠEs ports
Ġd rac
m ens
ĠBale ar
Ġmes cla
In vestigaciÃ³
Ġdona cions
Ġcontribu eix
Ġevol ucion
ĠQu art
omp liment
era ble
or ra
ĠMa ciÃł
Ġbrom a
Ġa ter
Ġcr uÃ¯lla
si er
ĠDiss abte
Ġsembl at
Ġdescon eix
ĠBa y
Ġsot metre
Ġdomin ant
Ġester e
os iÃ³
Ġmer eixen
Ġfonamental ment
Ġmulti discipl
Ġdarrera ment
cep te
Ġocup en
Ġcomanda ment
Ġb ec
Ġcompor taments
ro gen
u li
Ġpar ado
Ġobli dat
Ġimm er
Ġconfigu rar
Ġma ta
res pons
Ġcant onada
Ġclar edat
ĠB iblioteques
ĠtÃŃp ics
en tats
Ġreb ran
Ġl ot
Ġpos tura
Ġter rible
ĠIn tel
Ġcorrec ciÃ³
li ga
ĠA tl
Ġmatis os
Ġass emble
Ġacc ed
e ines
si etat
Ġpan car
Ġcerti ficats
ci r
Ġll Ãłstima
Ġselec cionat
ar m
apat ero
Ġent rant
tan i
A cab
elec tricitat
ĠF Ãł
Ġobser va
Ġmal auradament
Ġpermet ran
Ġenri qu
Ġmin oria
Ġleg alment
Ġcul p
Ġrecap tar
Ġabs orb
Ġag ent
ĠlliÃ§ Ã³
Ġper if
ĠS itu
Ġdipl omÃł
ra eli
Ġta u
Ġcondi cion
Ġs emes
vers os
Ġsis ena
IL L
Ġapro p
Ġvaria da
p ensa
Ġadministra tius
Ġanar quista
omun itat
man n
Ġesta des
Ġfac ultat
ĠMod el
Ġc orn
Ġb ella
Ġmodern itat
Ġcon reu
Ġn acions
ĠAra gÃ³
ĠÃ¨mf asi
Ġ9 9
Ġpar eix
Ġelim inat
ĠRoss ellÃ³
ĠEmp resa
ĠCa pa
ej ada
ĠMitj Ãł
Ġes mentat
op tim
eti queta
Ġfilos Ã²
ĠP il
Ġprom esa
ĠAl cal
Ãłs siques
Ġmagn itud
dic o
ve us
Ġperill Ã³s
jec ciÃ³
u ament
us sions
ĠPuig cer
Ġquali ficat
Ġcere als
Ġdel ici
Ġpro vat
oll y
Ġinteress ada
Ġdetermin aciÃ³
Ġjo ies
Ġproteg its
extre ma
ĠAn dre
ä º
ĠD eb
k h
Ġre ta
Y A
e vid
Ġjug adores
Ġfi la
Ġp oma
fic e
d oc
ĠS ent
r us
Ġhe ter
ti en
Ġab as
ient o
ĠA ten
Ġepis odi
Ġcon re
ĠgratuÃ¯ ts
Ġsucce ir
Ġparlament Ãłria
ÃŃ ac
Ġfor ats
ĠR E
Ġpor teria
Ġbla va
Ġinvi taciÃ³
Ġes tes
ĠH ome
Ġurb anes
Ġperme tia
ĠDec laraciÃ³
Ġcomp rat
Ġvi b
Ġescri vint
Ġbar reg
Ġagra Ã¯t
Ġcompos icions
Ġexter ns
Ġrecord ant
Ġar xiu
Ġtrib ut
Ġbas c
ĠT OT
S embla
Ġpresid it
dac ciÃ³
ER A
edifici s
ĠAr quitec
ĠrÃłn quing
ri tes
ĠM Âª
Ġglob us
Ġin du
ĠS enat
Ġprec edents
ĠM entrestant
Ġrob atori
Ġpresentar an
Ġdom inar
f ord
r Ã²p
Ġreb uts
+ ]
ĠP ub
Ġre it
Ġlli mona
Ġtrag Ã¨dia
ĠD VD
ov all
Ġmodern ista
Ġen vas
ĠR ab
ĠDia gonal
Ġfam osos
ĠA ugu
ĠCar naval
Ġcoher ent
Ġ( ...)
ass ump
ĠSu Ã¨cia
Ġe ixa
Ġso us
ĠIn teg
Ġesta mp
Ãłr mac
Ġemp ren
P h
na m
Ġmedi evals
Ġprejudi cis
Ġro ton
Ġempr endre
ĠI CV
Ġcer tament
Ġpre cis
ĠPre venciÃ³
Ġimm ers
Ġg a
ies portiu
Ġex pon
Ġca fe
ĠS Ã³c
Ġsal aris
egu retat
ti ficaciÃ³
Ġint enten
Ġsitu en
Ġord enar
Ġfl ora
Ġmo re
Ġpe bre
ĠparÃł graf
Ġrep ass
Ġfos cor
Ġcot Ã³
alum ini
Ġinn ecess
Ġprogram ades
Ã¨ iem
ul tors
tu m
ĠAut or
Ġconduc tors
tu d
Â °
Ġvig ents
ĠI de
ĠBl og
Ġmen tals
Ġbaix at
Ar ts
am ena
Ġtin gueu
Ġsol ars
Ġassump tes
ĠÃ¨ tica
Ġaf ortun
Ġexc usa
Ġnaveg ar
actu acions
Ġexperim entat
! âĢĿ
ĠA udiovis
Ġhum itat
S c
fi qui
ĠEsper o
Ġsem i
ĠT it
Ġpantal les
Ġins pec
ĠB eren
en questa
qu isme
emp erador
Ġc ites
Ġv enti
Ġsi guen
Ġsecre tÃłria
C or
Ġha ja
Ġconsta tar
Ġestrang era
om an
Ġre cip
Ġob ten
Ġgas os
om at
Ġescri tes
ĠâĤ¬ .
Ġemo ciÃ³
Ġcla v
Ġp ors
Ġassass inat
ĠQuÃŃm ica
Ġvulnera bles
P l
ĠBart omeu
f arra
Ġfl ota
Ġsom ri
ĠInterna tional
ob jectes
Ġcor rup
Ġav anÃ§ant
Ġjut jats
Ġcos tar
Ġedi tar
Ġgra vaciÃ³
de ta
rar ia
Ġsindic als
inici ar
t le
Ġacompany ament
ĠBor rÃłs
O p
Ġser em
Ġpass Ãł
Ġ6 6
Ġsec retaria
en siÃ³
ĠUnivers itÃłria
Ġdestin a
Ġflex ibilitat
en em
e ficÃłcia
Ġsugg eriments
Ġapreci ar
ĠSem inari
Ġ( +
" )
ĠF M
Ġaplic ant
Ġec les
Ġarquitect Ã²nic
ĠS ac
O fer
Ġe vent
Ġnacional ista
on ent
ĠM ana
Ġinfant esa
ĠCon trol
Ġinde fin
P al
Ġv era
Ãºs tic
m ir
ra va
ĠCompany ia
Ġnega tius
ĠÃ Ī
ĠP C
ĠB adia
Ġapar taments
Ġrecom anar
ĠBla ck
ĠS uc
ti Ã³
el li
Ġviat ja
Ġb rin
Ġpr osa
Ġdirec tiu
Ġde tenir
an istes
ĠSÃŃ ria
Ġcomplex es
OG C
ĠmÃ¨ri ts
Ġv Ã¨ncer
Ġperjudi cis
Ġp edi
r ista
Ġprojec tar
ĠmÃłxim s
Ġconstru int
Ġ ost
Ġtrans forma
ĠRi o
in vesti
inf ra
l or
ĠT ren
Ġaplic at
ĠAn y
n orm
Ġpro venen
Ġhom og
Ġli quida
ĠEs tan
Ġresid Ã¨ncies
Ġtra duÃ¯t
Ġpedag ogia
nicia tiva
ĠF ront
Ġaconsegu eixen
Ġinc en
ET A
Ġpesca dors
ĠbritÃł nica
Ġress egu
A gu
Ġintu Ã¯
Ġcorpor aciÃ³
m ons
Ġsub mar
Ġtransc urs
Ġallar gar
Ã ģ
ĠF P
Ġinc endis
Ġte ories
ĠC eller
tor at
Ġtemp esta
ĠRec on
Ġconcent rar
Ġcom o
Ġsec s
Ġtrip le
ida d
Ġacc essos
ĠA tenciÃ³
Ġbas ades
si onar
Ġagaf a
P ers
Ġass equi
Ġtoc ant
Ġes qui
ĠC AR
Ġsavi esa
Ġlleg endes
Ġdivid ir
Ġesc or
ĠH en
d arÃł
v im
Ġpati ment
Ġll its
u ega
ĠN et
ĠVi ena
Ġfin alitzaciÃ³
Ġex am
ta bles
Ġcr Ã²niques
Ġboni ques
Ġliter Ãłries
Ġand al
Ġex ecuciÃ³
ĠManc omunitat
ĠCha mp
Ġacab ava
Ãłr bit
ĠR egu
ĠDi vendres
Ġexter nes
C H
Ġpa gat
ĠMic rosoft
ĠCu ina
ost Ã¨
ag Ã¨ncia
trÃ²n ica
Hab itatge
en viar
Ġestim ada
ĠBaix a
F em
Ġful ls
y al
Ġpreveu re
Ġc up
ĠAl hora
Ġren unci
or y
Ġexper iment
Ġdona ven
Ġ196 8
ĠSec tor
Igual tat
ĠT elec
v ard
Ġcri ticar
Ġb es
E X
x of
hom es
9 7
9 8
Ġconf ron
Ġposi tives
Ġjub ilaciÃ³
im es
Ġdis capa
Ġass ab
Ġsatisf et
e k
ĠI P
x en
Ġdisminu ir
ĠmÃłxim es
Ġestat uts
ĠLec tura
Ġport o
Ġm exic
Ġ5 8
Ġdes esper
ÃĪ N
Ġpin z
ĠConc ert
Ġher bes
on alment
ĠMo re
ĠE li
esc ultura
Ġdem Ã©s
ej ant
ix en
am ic
est Ã¨tica
Ġapos tar
IN A
lig ents
Ġefec tivament
Ġinaugu rat
ĠN ingÃº
Ġtra Ã¯
Ġb uc
Ġcurs ar
Ġcuri osa
ess ors
T rob
Al gaida
Ġâ Ŀ
Ġevi tant
ĠFot ogrÃłfica
Ġdi vi
Ġtall at
ĠC ot
ĠEn ginyeria
Ġmusulm ans
p an
Ġimm ens
Ġes mor
Ġ7 8
Ġhoritzon tal
u tat
nex iÃ³
itor is
Ġt Ã²x
ĠE quip
que i
Ġcri t
ran is
Ġcanvi en
Ġ193 1
Ġnoctur n
ent ÃŃ
Ġcre ia
ad opciÃ³
H isenda
Ġsor prÃ¨n
D I
ten cions
ac le
Ġdesta cada
Ġcim s
ĠA ri
Ġren o
Ġartes ans
Ġesta tals
da s
ver t
ĠÂ ¡
Ġdiscu tir
Ġdifer encia
aut opista
ĠContin u
Ġdispu ta
Ġcompr Ã¨n
ĠO f
labor en
ĠMau ri
V I
enta des
Ã± ola
Ġpon Ã¨ncia
S Ã³c
Ġcompar tint
ĠEs cal
âĢĿ )
ĠCar bon
Ġabra Ã§ada
an ov
E A
ĠTer cer
X X
ciclop Ã¨dia
ĠP oll
Ġcant Ã³
Ġg Ã²tic
all en
L i
ÃŃ lica
di cional
Ġexperim ental
Ġa prend
os fera
Ġextre ma
ĠAl t
Ġsocio ec
l ot
val uaciÃ³
ĠlingÃ¼ ÃŃstics
Qu ina
Ġcaracter ÃŃstic
Ġexig ent
Ġtras p
d eu
ce bre
on et
Ġatura des
Ġnost Ãłl
z en
Ġperdu da
Ġproduc tivitat
ĠPres idÃ¨ncia
ĠCon veni
ĠMic hael
Ġt ocs
Ġro de
ĠJos e
on ers
em o
lo ca
Ġmen j
Ġsuper vis
ar eu
O CI
de vila
Ġbar ro
E ixample
g arÃł
Ġcol on
Ġseny alitzaciÃ³
Ġmeravell Ã³s
ĠestÃłndard s
ĠLliber tat
Ã¼ ent
ĠPar t
ĠPed ra
Ġde fecte
Ġp ad
Ġ194 0
Ãłn tic
Ġconvi ure
Ġmat x
ĠCastell ar
ex tensiÃ³
D ec
Ã² mbia
Ġparadi gma
Ġband eres
ĠC liment
Ġmili tant
ar o
Ġesti guÃ©s
ĠCAT AL
im ne
Es pl
OR M
emp resari
Ġar omÃł
Ġven ien
Ġatrac tiva
ĠquÃŃm ics
br inar
ĠDi umenge
ocrÃł cia
ti quen
Is rael
Ġpa tint
ar tes
ĠZ apatero
Ġtraduc cions
da ta
Ãłn d
ĠJard ÃŃ
Ġtor tu
Ġp als
p rim
Ġprogra mar
Ġcomb inat
ĠS elec
ĠEn rique
ir ats
Ġconc lou
da ciÃ³
Ġll ur
ĠPob let
tes is
ĠL GT
Ġator gar
Ġv ents
ĠÃ¨ t
ĠCan et
Ġt ort
orta ble
Ġre iter
Ġprogressiva ment
Ġc odis
esdeven iments
Ġsus cep
ins erciÃ³
Ġcoc ciÃ³
ĠG od
Ġnor anta
Ġes ment
ĠcÃ²m oda
ĠAlbert o
ĠJ oc
Ġmasc l
f un
ĠS um
Ġdoctor at
ĠT ib
f red
Ġfix at
Ġcomplem entar
Ġf ugi
C entre
ot ges
Ġmot os
Ġun it
ot ja
ĠMun t
Ġcerca vila
tre et
Ġful la
Ġsenzill es
Ġflu x
li e
AL S
Ġb reus
ĠE gipte
Ġn os
Ġr enaix
li Ãł
en giny
ĠBa talla
ĠC any
Ġcap g
Ġgran ja
Ġagaf ant
Ġru tina
Ã ĩ
ĠMont g
L L
S a
Ġg espa
). -
Ġmen ciÃ³
adjud icaciÃ³
Ġen lles
Ġconsci enciar
ĠpolÃŃ gon
ĠprovÃŃn cies
Ġap unt
Ġass et
Ġpatrimoni al
k ar
exc usa
Ġbas ats
aut ors
Ġmad ril
ĠViladec ans
Ġf lo
Ġapro vaciÃ³
te ga
ĠCol au
ĠGas tr
Â ©
Ġmanc ances
Ġnorm als
Ġrequ eri
ĠT ab
Ġpob lat
ran es
Ġenf ons
Ġsant uari
Ġcol oni
rac cions
Ġ: )
ĠBÃłs quet
oci al
Ġcomp tem
me d
Ġexpl otaciÃ³
Ġproduc tiu
ĠLle Ã³
ĠCerc le
Ã¨s ia
Ġcomiss ari
Ġinoblida ble
Ġpic t
Ġp ulm
Ġamp liaciÃ³
Ġpar lo
Ġimp edeix
Ġnaveg ant
ĠAl onso
Ġest ones
Ġenca min
Ġpassej ada
Ġcorpora tiva
Qu ant
Ġob vi
Ġtal ls
on o
Ġdans es
ĠFin al
Ġremodel aciÃ³
Ġr ostre
ĠD an
Ġmol ÃŃ
ex hib
vers es
ĠI gles
ĠB TT
Ġdot zena
Ġquil os
Ġminist ra
ĠCl ÃŃnic
ĠÐ ¿
aconsegu eix
Ãł p
ug ar
Ġdisp ers
her Ã¨ncia
Ġmem Ã²ries
Ġalterna tiu
Ġexpos a
ostal eria
Ġdecid eixen
ĠMont blanc
Ġadap tada
ul tes
Ġform atges
inter essa
ĠMol ÃŃ
OR S
Ġtret ze
Ġbut lle
il y
Ġcol lita
A j
å ¤
si ona
emb arÃłs
ÃŃa ca
in ess
Ġcom and
Ġgo ig
ex tinciÃ³
Ġconser vat
Ġmodi fica
Ġdeclar a
ĠX ile
ent em
amp le
esca u
ÃŃb ul
Ġinteress ar
Ġtecn olÃ²giques
... ,
Ġrom andre
Ġrequis it
Ġalliber ar
Ġdim issiÃ³
Ġincon ven
I EC
ĠU tilitz
Ġ193 7
anti guitat
Ġdescob rint
Ġcor reus
Ġmun tany
Ġobli gada
Ġ ï
at mosfera
Ġimplic ar
Ġabund ant
ĠPe ter
Ġsimb Ã²lic
ĠL ES
queb isbe
Ġsan cions
escrip tora
Ġatemp tats
Ġtransc orre
Ġno ble
Ġactu at
til les
Ġant rop
y d
Ġpon ents
ĠS T
Ġbo ira
ĠlÃº dica
ĠMar xa
Ġprojec cions
Ġcons tar
Ġvol ant
Ġcos tes
Ġmillor at
h op
Ġlle ida
enÃ§ Ãł
k es
ĠS ovint
ĠA ur
Ġadolesc ent
y ons
til l
Ġimpos at
p x
actu alitzaciÃ³
ĠFel ici
Ġtip ologia
Ġgerm anes
Ġgl Ã²ria
Ġinteg ritat
ĠAn tic
Ġvol ÃŃem
Ġbi o
es for
Ġdisc ul
Ġdeleg ats
Ġvulnera bilitat
Ġen dar
Ġins pi
Ġimm un
Ġcatal anisme
Ġin Ãº
ĠB osc
ĠNav arra
ĠPro gra
Ġtreballa va
Ġconfi ar
Ġqued in
Ġinten cions
ĠUnivers al
c eb
Ġtorna va
Ġimp re
S itu
Ã² ces
Ġsab ent
Ġrela tives
ens ar
minist rar
Ġg amb
Ġ197 4
r Ã¨
ĠR enaix
ada s
enci alitat
Al coi
Ġitali ans
ĠQu ir
Ġsinc er
ĠIb Ã¨rica
Ġem ig
z er
ĠD ina
Ġesta rem
Ãºr gia
Ġs onar
å ½
ĠcontÃŃn uament
Ġcon tenir
C S
Ġvo cabulari
ĠChar les
ab et
ov ent
ĠjurÃŃ diques
ĠTi pus
Ġagres sions
ad ministra
2 000
ĠU OC
ran ya
Ġesp at
rid ge
or na
ma jor
Ġmis Ã¨ria
ĠG aran
ej e
Ġpromo cions
ep s
Ġendins ar
ĠI gualment
ĠConc retament
ra u
Ġg om
Ġre ca
Ġinter nes
ob lit
ĠC hi
Ġjo vent
d ona
ĠG PS
Ġpo Ã¨tic
Ġimp eri
Ġcapi tals
ĠP reu
ĠfÃłb riques
ĠB arra
Ġpros per
ĠL ab
Ġelabor aciÃ³
Ġfac ebook
heim er
Ġpin tat
Ġdesc Ãłrrega
Ġconf usiÃ³
vocat Ã²ria
Ġf Ãłrmac
Ġquin zena
Ġbar rera
ĠFel i
ĠCon eix
ĠP O
Tan mateix
ON U
Ġemp rar
No va
R O
ir en
ĠM y
Or dre
ĠDipu tats
Ġcor des
Ġprodu int
Ġnacional istes
Ġrus sa
Ġra pidesa
com pany
Ġso fer
ĠEsc oles
Ġsi guem
historia dor
r Ã¨s
an na
Ġcons istent
Ġam ant
ĠMo viment
g le
ĠBr un
Ġprov oquen
Ġcombusti ble
Ġen gl
Ġgaud eixen
Ġp df
Ġcat Ã²lica
Ġbut lletÃŃ
Ġdol Ã§os
Ġm ull
Ġpod ÃŃem
Ġor questra
De CAT
i ana
dal ena
Ã¨ tua
Ġlla vis
âĢľ .
Ġsot met
Ġanomen ades
Ġes go
Ġex istia
Ġpis cines
G C
f an
imp eri
ĠG ata
Ġpsic olÃ²gica
Ġfascin ant
Ġarquitec te
Ġvig Ã¨ncia
inf antil
Ġad vocat
Ġfavora bles
Ġbenefici ar
Ġos cil
Ġem Ã¨s
leg at
Ġservid ors
ĠB ass
Ġan Ãłlisis
Es taciÃ³
Ġemp ortar
ĠdemocrÃł tics
Ġcent ÃŃ
ĠI d
Ġpreci osa
Ġacostu mats
Ġcapital ista
escal ada
Ġprinc esa
Ġra u
agaf ar
al Ã§a
Ġe va
Ġrespec tives
Ã¨t era
un des
est os
aprofi tar
9 4
Ã± as
Ġperd Ã³
Ġmul timÃ¨dia
Ġconf ort
Ġb uro
itz ador
Ġutilitz em
Ġformular is
c n
l ub
ĠA j
omet ria
arr y
i A
Ġfer en
Ġsol em
Ġc Ãºp
Ġtitu lada
Ġsusp endre
ĠLe on
l Ã¨r
Ġsup ortar
Ġconsider ats
p iga
Ġpart ÃŃcules
est Ã©n
Ġv Ãłries
Ġadre Ã§ar
Ġfin ques
n om
Ġren Ãºncia
ĠautÃ²n om
Ġpost guerra
Ġs ana
ĠN ecess
Ġaj ut
AS S
R eg
us alem
ĠH all
ĠCÃł tedra
en gan
im o
ĠPla y
Ġsosten ibles
ĠlingÃ¼ ÃŃstiques
Ã¯ s
Ġind Ãºstries
ĠSergi o
Ġb ola
Ġpen it
Ġconnec ta
Ġconver siÃ³
ĠSc hool
Ġbale ar
Ġper den
IC I
o ut
esc la
Ġtari fes
al ar
9 6
ro id
ĠTen en
versi tats
ĠRe ad
acc ent
ĠMich el
ĠVolun tariat
aut Ã¨n
Ġi a
Ġ æ
ĠG ala
expos icions
ĠD ues
vi da
Ġde voluciÃ³
Ġha guÃ©
Ġescol ta
ĠP ia
Ġplant egen
Ġret roc
E dit
. :
Ġten nis
Ġpar at
ĠPre cisament
re cia
Ġt um
AN S
espera da
Ġmass ÃŃs
Ġdes astre
Ġvaria cions
Ġfabric ant
Ġv est
ĠM osc
end ins
Ãł niques
si g
adap tar
Ġdesaf ia
par a
organitz en
Ãł bil
ĠLle vant
Ġlimita des
Ġferrocar ril
Ġpun x
ĠRe ina
ĠRo da
à ¤
Ġdu ia
Ġpern il
B aix
Ġfren ar
inten tar
Ġsof Ãł
Ġpl ur
Ġro ure
Ġfot oc
Ġ12 5
A lex
Ġsex ualitat
Ġcel ebre
Ġaug mentant
Ġcam ions
Ġedit or
Ġcon dueix
ĠGran ada
ilat eral
Ġob rint
ella ment
Ġapro va
Ġmoder nes
Ġinevi table
Ġprefer it
Ġis raeli
Ġrepresen tats
ot era
ĠGarri gues
Ġma quill
avi Ã³
al ba
E quip
g os
ac triu
ibliot ec
Ġdivid it
ĠM oss
Ġhum il
r ol
Ġsard anes
ĠIn di
ord s
Ġres istir
ĠF emen
Ġcad Ãł
ĠDom ingo
ai da
Ġt ÃŃ
ir Ã©
Ġpre val
cid entals
Ġescol tant
a h
c eta
ĠCl ot
Ġtraslla da
Ġa ula
Ġen de
Ġmadu resa
ĠMitj ana
Ġna ta
Ġconstitu Ã¯t
Ġcristi Ãł
ĠAmb iental
ĠfaÃ§ anes
Ġc ort
ĠMargari da
Ġh ort
av ent
ĠperiÃ²dica ment
Ø ¯
M o
ĠÃł gil
Ġas tr
is es
Ġparticipar Ãł
Ġsubs tÃłncia
Ġvicepres identa
E d
Ġaut oc
erm an
Ġdu el
ag n
Ġag enda
Ġsuper fÃŃcies
esc oles
b s
Ġaccep taciÃ³
Ġmus ul
Ġfeix ista
es por
Ġtorn arem
Ġfit xes
Ġcon tenciÃ³
ĠprÃ² leg
Ġsor prÃ¨s
lici ta
Ġvin drÃł
ic ular
up a
Ġcir urgia
Ġcivil itzaciÃ³
Ġcicl ista
ĠP ineda
au g
Ġx ef
er cat
in vestig
Ġfals a
Ġinter loc
A v
Ġfidel itat
Ġadjun t
Ġcontr ola
ĠPo esia
tu re
7 00
Ġvi tals
oc ols
ĠteÃ² ric
Ġterc eres
ri ana
se ts
Ġactu alitzada
Ġi o
Ġcar trÃ³
ĠV erm
tic o
Ġ19 30
of Ã²bia
land Ã¨s
Ġt ovall
Ġtorn ant
Ġassocia da
ĠP aula
Ġcl Ãłssiques
Com promÃŃs
Ġcompeti tiu
Ġarren car
Ġobstac les
L e
Ġraona ble
p ita
Ar gentina
Ġs pa
s egu
Ġdi Ãłries
im s
Ġ3 50
Ġven ut
Ġform alitzar
at ria
ci di
ĠAr xiu
Ġ ossos
ĠâĿ ĵ
f alt
Ġv aris
assass inat
ex ecu
Ġxines a
Ġamb ients
Ġespeci alitat
Ġreperc ussiÃ³
Ġagaf em
Ġpitj ors
at Ã²ria
Ġin timitat
Ġcr uel
Ġfes tivitat
Ġrevolucion ari
Ġden Ãºncies
a Ã¯
ca dor
el o
Ġconser vador
la dor
tÃłn ics
Ġvari ar
ĠT allers
ud ir
Ġguard ons
Ġpl Ãł
Ġassign atura
Ġc itar
z quez
Ġdon Ãł
Ġex ist
Ġ ut
Ġnad ons
Ġdi guÃ©
Ġpl orar
Ġver tad
Ġpa guen
Ġcator ze
ĠA mat
Ġequip ada
Ù ĩ
UN T
Lleg ir
Ġcan tants
T e
si ls
- )
Ġl enta
Ġaddi cionals
hor itzÃ³
G rup
Ġn Ãł
ĠI X
C h
bl ir
Ġtermin al
lus trat
Ġama gat
amena Ã§a
ĠReg ional
expres ident
Ãºr cia
d era
Ġseri osament
Ġefectu ar
Ġcal gui
Ġsu fra
f at
Ġteat rals
s eca
Ġestruc tural
ass ocia
Ġcomp osta
Ġfab rica
ĠV ull
Ġliber al
! ).
Ġv ela
Ġcarb Ã³
Ġ194 5
Ġp ist
Ġar cs
par able
Ġver ge
Ġb er
ĠR ot
Ġ14 0
ĠdÃ© us
ad vocat
Ġrup tura
Ġadm ira
M C
Ġop tat
Ġembar ass
Ġresponsab il
ri ll
Ġgimn Ãłs
ora bles
z an
la g
Ġex istir
ing rÃ©s
Ġcontrib uÃ¯t
Ġfort una
ĠEc onomia
Ġpresid ents
ĠMarc h
Ġsucce eix
Ġp Ã¨
ori taris
du a
Ġcl andes
isti rÃł
s ta
Ġdefens en
Ġb og
des cat
Ġredac tar
Ġdo tat
itu ds
ĠS es
Ġbon ics
Ġdirig ent
Ġal b
ĠS ig
Ġc ha
Ġ17 14
Ġfactura ciÃ³
ra q
Ġmetod ologies
Ġal ien
Ġlli urat
amp li
Ġsignat ures
individ u
ĠL is
op ia
ĠGÃ¼ ell
Ġseu re
Ġma ma
ĠcÃ²m ics
Ġca ta
Ġsosp it
ĠRa dio
Ġadre Ã§ades
ĠColls erola
ar res
Ġeduca dors
Ġcarrer es
Ġ6 3
ĠK y
Ġapor tat
L o
Ġmon umental
ĠP edag
ĠH u
Ġcri dat
Ġincapa Ã§
Ġ !!!
Ã¯ en
ral ada
c all
Ġcogn om
Ġh isp
ĠI ma
D emÃł
emprened oria
Ġprom et
Ġaplica da
Ġpres ta
ash ington
al tat
tiv o
dic ar
Ġflex ible
Ġnorma tives
Ġob ertura
edi da
Ġdepen en
ĠJer usalem
ĠCru z
Ġob rers
Ġcal Ã§at
Ġ197 3
brer ia
ĠRep res
Ġdetec tat
Ġsobiran ista
Ġc itat
ĠU l
Ġresol t
ĠcÃ²m odes
G R
Ġfra u
Ġdisseny ada
Ġo x
Ġsorg it
ĠBarcelon Ã¨s
ro ja
Ãł nies
Ġdu res
Ġenfoca ment
p al
Ġjap onesa
Ġtrob i
ĠMar ÃŃtim
Ġassaj os
n ov
Ġdegus tar
Ġde fici
Ġac triu
Ġpla y
ĠCab rera
ĠRaf el
ĠIr landa
ĠRich ard
int ent
Ġre eix
Ġ19 50
Ġdis tan
Ġameric ans
es bor
la ga
Ġporta ven
Ã± os
ĠAss emblea
ĠsÃ² lid
j arÃł
m ena
assol ir
ĠB alles
Ġcomprom etre
Ġmira dor
ĠS pa
Ġparlar em
Ġac la
Ġconsid eri
Ġentren ament
Ġnervi Ã³s
I l
len ou
9 1
Ġconc edit
Ġdifer enciar
ĠMonts ant
Ġfacil iten
Ġpregun tat
P L
Ġetc Ã¨tera
ĠÃłmplia ment
Ġpreocup acions
Ġan tel
Ġlle vant
Ãłm iques
Ġven Ã§
Ġp neu
ĠJ ord
ĠfÃ³rm ules
Ġat mos
Ġcap tura
Ġterra sses
Ġidenti ficat
Ġproporcion en
IS T
ĠperiÃ² dic
Ġarr Ã²s
r Ã¡
Ù ħ
ĠR ac
Ġass is
Ġser iÃ³s
Ġres piraciÃ³
Ġrenov at
h on
Ġprotes tes
Ġbanc Ãłria
p ides
Ġp eb
ag s
Ġespeci alitzades
Ġfin ances
Ġextre ure
Ġsorpren ents
ab il
Cas tell
Ġquad rat
Ġdesper ta
Ġprovoc ant
adolesc Ã¨ncia
Es tr
Ġdispar ar
Ġret ro
ĠFil ologia
Ġ6 7
ĠcÃ² pies
Ġper ru
Mol ts
Ġcur tes
ĠcÃłr regues
Ġnoti ficaciÃ³
Ġacomia dar
in os
Ġom bres
Ġper cebre
V E
Ġsubm erg
in ista
rig ada
s ÃŃ
asset jament
lle ts
er re
Ġfin anÃ§
ĠA B
Ġp ira
ran d
Ġvirtu ts
ĠA renys
ĠBes Ã²s
Ġsaf ata
Ġdir Ã©
Ġfabri car
Ġbri tÃłnics
vi al
ĠMes tres
Ġperman Ã¨ncia
Ġabs Ã¨ncia
M ont
Ġimplem entar
ĠsÃł piga
am et
ĠE p
ĠcÃ² mp
Ġm eridi
Ġpen siÃ³
Ġess Ã¨ncia
ĠFot ografia
Ġc edit
M ad
Ġcas tany
ĠJ Ãºlia
Ġoport Ãº
ĠBeren guer
Ġca Ã§
ÃŃ o
Ġmig rat
ĠdifÃŃcil ment
Ġetique tes
ren e
ĠSol Ã©
Ġgas tar
Ġconstru eix
ĠCD C
Ġi ron
Ġins er
Ġnorm alitzaciÃ³
Ġparla mentaris
Ġretrob ar
g iÃ³s
k ov
de a
ex amen
Ġ193 8
fer es
r all
Es panyol
ĠAn em
D ata
rer o
Ġsor tim
aj us
h h
Ġcam iÃ³
ĠP rÃłc
Ġmi rem
Ġresta ura
ĠTe at
T res
Ġprobl emÃłtiques
Ġrespec tant
Ġfil ms
ĠPor ts
Ġadop tat
ĠC ur
Ġas sim
ĠGlob al
Ġdes vet
Ġ19 20
ĠCol Ã²mbia
Ġpreser vaciÃ³
tin guda
Ġdibuix ant
vers a
Ġsuper visiÃ³
Ġtut ors
Ġex iliats
Ġent er
Ġentre gar
Ġgener ant
Ġima gina
on d
ĠV III
Ġalim entaris
er ina
p ur
si vitat
ĠseqÃ¼ Ã¨ncia
ĠT S
Ġde cad
mÃł tiques
Ġrepublic ana
Ġtraduc tor
ul tor
dis s
Ġenfor tir
Ġrealitz em
aut og
Ġcoincid eixen
Ġmar ina
Ġec olog
Ġclassi ficats
agrup ament
ĠD eci
Ġcalc ular
Ġp Ã²s
Ġassist encial
g rup
Ġva ja
Ac tivitats
Ġrecoman aciÃ³
Ã²l it
l og
Ġt olerÃłncia
Ġaix Ã³
ĠAnd al
Ġpsic olÃ²gic
Ġacc ess
D O
Ġo u
Ġinnova dors
T ota
Ġpass aran
Ġv ota
Ġlla Ã§os
I lla
Ġll urs
ĠCa min
Ġcan alla
Ġtristes a
ĠÃĢ lex
Ġv ina
ĠC uri
Ġmera vella
Ġv elles
Ġf ans
Ġb ud
Ġll anÃ§
Ġc ord
l ari
Ġmira des
Ġcomplement Ãłries
Com p
on ge
Ġcon tar
Ġnaz is
ĠEdi ciÃ³
Ġver teb
Ġsamar retes
ĠN ostra
ĠhistÃ²rica ment
ĠintÃ¨rp rets
ĠP L
op e
Ġar rep
ĠMon ta
ĠFred eric
ĠThom as
ĠcÃ¨ le
n t
ĠForm at
Ġroton da
Ġacompany en
Ġex Ã¨rcit
especi alitat
Ġagra Ã¯ment
let xa
j Ãł
ival ent
ĠJim Ã©nez
Ġbesti ar
ĠEtique tat
pec tac
Ġestad ÃŃstica
acc el
Ġven c
pos icions
instru ment
ĠEsta tal
Ġsupos adament
Ġvestu ari
l ing
Ġb rossa
la dors
Ġx ip
Ġra ig
Ġfili al
ĠY o
ĠES P
Ġpantal ons
ĠH ip
Ġpertin ents
ĠÃłrab s
ĠE us
umen at
exper ts
Ã¨ re
Ġavis ar
Ġmal e
ti o
ĠBi el
Ġca os
fer ents
or ella
Ġdur an
Ġrepar tits
ĠÃŃn tima
Ġass istent
Ġsatisf ets
Ġdes pres
leg als
ĠCon dicions
esc o
ĠCE IP
Ġbru ta
Ġagu antar
ĠB orn
Ġmar quen
ĠPa is
Ġest os
ter dam
Ã¨ rics
Ġconfid encialitat
Ġac tivar
Urb anisme
Ġ9 2
Ġvall s
Ġter m
Alcal de
ĠH ong
ĠTri as
inc rem
no w
Ġrecol zar
Ġapren entatges
ĠGuardi ola
Ġnom bres
Ġcri anÃ§a
aprofi tament
s is
Ġtrob aran
Ġdesitj ar
Ġinterpreta cions
ĠdinÃłm ic
Ġnecessi tava
Ġvin gui
uti ble
Ġrecorre guts
ĠA ma
Ġop ortun
Ġpreocup ar
Ġa met
E dat
di ta
id el
Ġdesenvolup ada
Ġcar d
Ġis l
ta tiu
Ġme tal
ĠI si
Ġpot ents
ÃŃ eu
Ġpl anes
b ack
at zar
Ġes mentar
Ġmens uals
Ġincid Ã¨ncies
ros sos
Ġenvol ten
Ġinterp retat
Ġpol ic
ĠOb ser
ĠVen Ã¨cia
re f
tad ÃŃstica
ĠcÃł mping
Ġqued aran
Ġvolun tÃłries
pres s
IC V
ĠCon eixement
inc loure
Ġinter vin
Ġap lega
ĠDeix a
Ġcul tius
ĠQu ant
Ãłl bum
ĠNeg re
rop ol
ĠDep or
Ġe ducar
Ġbar at
Ġacostu men
Ġca ma
ob i
Ġpre inscripciÃ³
Ġcab uda
y ar
Ġve i
Ġprot ocols
Ġquil Ã²metre
ĠC oc
ke ting
Ġper pe
Ġaf iciÃ³
In novaciÃ³
ĠP DeCAT
Ġparlar Ãł
On tinyent
Ġpartid aris
Ġav in
ĠCl Ãłss
ingÃ¼ e
Ġincorpor ant
Ġrec ur
Ġsegu ia
Ġdistribu ir
Ġprom eses
Ġsucc essi
Ġrev ela
g eria
ĠÃł pats
An glaterra
ĠB arcel
ĠPro pi
ĠpedagÃ²g ic
R espec
k in
Ġins piraciÃ³
Ġactu alitzat
en ll
em i
Ġdon in
Ġ0 7
ba o
Ġvari ants
ci Ã¨ncia
l ics
Pod em
Ġcom etre
Ġsemif inals
ÃŃ ria
Ġpun y
Ġtram itar
ant Ãł
M I
ĠMunicip als
Ġdivid eix
Ġamp olles
Ġconv icciÃ³
Ġextrem adament
Ġrom anes
Ġform igÃ³
Ġp ala
ig ra
Ù Ħ
Ġmat emÃłtica
de o
Ġinvas iÃ³
Ġen ve
ĠPar rÃ²quia
Ġmarc ats
go ixa
Ġelabor ada
ĠTorn eig
ĠanÃ¨cd otes
fe Ã³
âĢĿ :
end ran
Ġmallor quÃŃ
ĠV entura
Ġecles i
Ġpar atge
Ġpens eu
Ãł via
Ġlli ur
Ġmotx illa
eg ories
Ġoptim itzar
interpre taciÃ³
Ġcre di
ĠsinÃ²nim s
M as
Ġpres tat
ĠEx tra
Ġconeix er
Ġneu ro
Ġdip Ã²sits
ĠB an
Ġcom iat
audi Ã¨ncia
ĠE X
mi raciÃ³
ĠCre aciÃ³
mp es
ll en
Ġfar mÃłcia
Ġdegus taciÃ³
Ġi oga
ĠG ib
ca ments
Ġesc ultura
Ġavi ons
Ġperm isos
C er
Ġcal en
Ġhid rÃł
Ġor na
aut omÃ²bil
Ġemerg ents
Ġpres idi
av ÃŃs
Ġpermet ent
Ġfer it
Ġnecessi tar
Ġprivi leg
Ġcelebre m
ĠgratuÃ¯ tament
ex plicaciÃ³
ĠCor poraciÃ³
Ġsignifica tius
Ġcomprom esa
Ġpassar ia
Ġresul tant
Ġro ig
sc ripciÃ³
Ġges tor
ĠR AC
Ġestabl erta
Ġmar ro
ci li
Ġaf any
Ġ197 2
ĠTra s
ĠVila ssar
Ġcer cant
bil itzar
Ġpres sions
z Ã³n
ul tar
roba blement
Ġcoopera tiu
Ġgastr onÃ²mic
isc op
Ġadequ adament
ĠExcur sionista
Ġdefin eixen
Ġtron c
Ġlle var
Ġmi queta
ĠGu er
I descat
Ġun its
ĠDes embre
ĠConsell er
Ġm ites
ÃĢ sia
Ġg rossa
). [
Ġdinam itzar
Ġl entament
Ġc any
Ġparad ÃŃs
as es
Ġestran ger
Ġali ats
Ġescul tures
ĠS Ãłn
adequ aciÃ³
Ġo di
Es pa
Ġmodi ficat
e Ã§
pi ri
Diss eny
Ġf alles
Ġpre gÃłria
Ġcer cles
voc aciÃ³
ĠMo z
Ġinvestig adora
Ġsecund ari
Ġordin ari
Ġde teri
Ãº ni
Ġsan ciÃ³
ĠplÃłn ols
Ġmo uen
j ac
es pl
Ġdiver tides
it Ã©
Ġpess etes
Ġvest ÃŃbul
P P
Ð¾Ð ²
Ġio gur
ĠPob lenou
Ġpromot ors
ĠPrincip al
ig i
Ġta c
apro pa
Ġorien tar
di gi
urb anisme
Ġavi Ã³
Î ±
Ġapar egu
z u
Ġbac allÃł
Ġdirec trius
Ġreci tal
ĠV ent
Ġassess or
Ġsemes tre
ĠMarc o
Ġgel at
av ana
ĠEx posiciÃ³
Ġlog ÃŃstica
ĠBalles ter
h eu
ĠA ires
Ġpromo gut
Ġfuncion alitat
Ġestrang eres
Ġgrand Ãłria
ÃŃn dex
Ġartes anal
Ġh Ãłbil
.. ...
am ora
Ġs ants
Ġpil es
ĠW ashington
im mig
Ġcur ric
Ġesmenta des
Ġal ine
ĠR Ã¨
Ġimp rimir
Ġsig na
Ġestr enat
ĠNa taciÃ³
ar n
Ġlla mp
oli fer
ĠprÃ¨ vies
Ġobse qui
ec os
ĠN u
P ens
Ġac urada
Ġavant pass
Ġpressupost Ãłria
Ġrespon en
Ġman uals
Ġqual ita
M us
Ġpod ent
Ġide olÃ²gica
ĠðŁ ĺ
on istes
Ð½ Ð¸
ĠL og
Ġmedi Ãłtica
Ġc il
Ġcontextu alitzar
Ġ Ã²
Ġre tallar
Ġo est
iss in
Ã© c
ub i
Ġpl Ãłstica
si ciÃ³
Ġres pira
Ġtren cament
Ġadap tats
ĠCent er
Ø ª
Ġfur gon
Ġap el
Ġobli dem
ion als
Ġfals es
Ġgest ors
Ġcri ticat
Ġsof reg
I O
quip Ã¨dia
Ġcar ros
Ġjusti ficaciÃ³
ĠL en
y Ã³
Ġgu ix
Ġes car
Ġcon gressos
Ġlluny Ãł
Ġ196 9
Ġten sions
Ġe v
ĠPasqu al
Ġconsidera va
Ñ ĩ
in ars
Ġlid erar
Qu in
AR A
emp res
Ġf Ã²r
Ġ6 1
ĠGran d
Ġdestac ant
Ġperc ussiÃ³
ĠM asc
Ġtele f
Ġtrac tant
Ġespa cial
R a
Ġfeix istes
ĠSup ort
PS OE
Ġentusias me
Ġimmobili Ãłria
ĠfÃŃs icament
ĠS w
Ġconf ondre
Ġteu a
Ġescoll its
Ġoc orre
in as
ĠN ar
sion ants
ĠFot o
v egeu
Ġpl enari
Ġbarcelon ina
el eg
ug o
Ġsemb li
r s
Ġconf ia
Ġmerc antil
ĠM anten
ĠB L
ĠPat ri
Ġid Ã¨n
inc lou
Ġva ca
Ġprodu Ã¯da
Ġab ord
com un
Ġprec ÃŃs
Ġcans at
lec tives
ĠTor ellÃ³
Ġhistoria dors
Ġv ar
Ġfunda dors
Ġperill s
N i
Ġnatur alment
P Ãłgina
Ġmer da
Ġin ci
ĠA gÃ¨ncia
ĠPen ÃŃnsula
Ġentren ar
ĠAr m
ĠCarrer as
ĠCalif Ã²rnia
Ġsab ors
ĠD J
ol ins
ot t
Ġsetman als
ĠH as
si Ãł
Ġofici s
pro f
Ġin capacitat
onal d
Ġagl u
Ġcu res
Ġmur alles
Ġllin dar
ana va
c ter
Ã¨ri ques
ĠCan als
n ab
Ġmar ges
Ġr ar
ĠAn al
ĠCar nestoltes
Ġfil es
Ġguard onat
Ġsecund aris
ĠTra il
exp ediciÃ³
Ġatura da
Ġmat erna
Ġl ic
Ġquali ficar
Ġresul ten
Ġamp olla
ĠVic tÃ²ria
uit e
ĠHum anitat
Ġens enyament
lici tats
Ġplan ejament
ĠP is
Ġne ol
CO M
UR A
AD N
ĠFil m
ĠÃ²p tica
Ġrequ eriments
Ġdesc rip
Ġescrip tora
Ġal tern
ama ga
Ġp siqui
Ġm ossos
ĠF ill
Ġad vocats
lici tant
Ġenc orat
Ġrod atge
Ġca f
los os
ri ga
ĠIgles ias
ĠD rac
Ġverm elles
ĠInd Ãºstria
in eria
ĠT op
Ġsigni ficar
Ġcab al
Es te
Ġfun dat
Ġpreten ia
Ġprivi legis
Ġequilib rada
ĠMosc ou
on ze
Ġass ec
Ġemp len
ĠSal va
os itats
ĠIn vestigaciÃ³
Ġbarb aco
ri f
Ġfiscal ia
p as
Ã £
Ġmon edes
Ġdom ina
Ġconsell eria
ĠMag dalena
Ġt ril
ĠcÃŃ vic
ĠE videntment
Ġcompar a
Ġrecorda va
ins titu
cion aris
ci desa
ĠIn forma
Ġm ulta
Ġcontras enya
C urs
ĠSer rat
Ġcomplem enta
Ġind ÃŃg
ĠautomÃł tic
ĠSÃłn chez
di lla
Ġb eb
oc ra
Ġqueda ven
ĠmÃŃnim es
ĠC AM
Ġfona ment
el es
in qÃ¼
omb raries
Ġglob alitzaciÃ³
eng any
ĠF Ã¨lix
ĠV iv
Ġcredi bilitat
ĠM A
rÃ² quies
Escal a
Ġcomple tat
Ġtin ta
ud ia
Ġvul gueu
Ġdec orar
Ġcicl isme
Ã¯ bles
ĠsÃŃn drome
M en
Ġdesp ro
ĠDic cionari
en orm
Ġpresump te
u ments
Ġcon fecciÃ³
Ġe h
at emp
Ġfres cos
jun t
Ġaten ent
Ġpseu d
Ġf omen
ter ra
Ġmac ro
ĠGreg ori
ad eria
ur y
ĠAr gentina
Ac tu
Ġreac cionar
ĠNorm alitzaciÃ³
ĠLli breria
Ġdescon eguda
Ġju eu
Ġreser vat
ĠIns tagram
". [
Ġp adr
af rontar
v ÃŃn
Ġincor rec
Ġins istir
Ġverm ut
Ġprivilegi at
Ġantel aciÃ³
Ġob tÃ©
ĠP ap
atre v
ĠMunicip is
Ġtomb a
hab ilitat
Ġminim itzar
ĠpÃł tria
Ġpot encials
teri es
Ġpron unciar
or Ã§a
Ġburo c
Ġpos ats
ĠJ udit
Ġn ed
acter is
ĠmÃº siques
ĠBar ca
ĠCons id
Ġveg i
âĢ İ
ĠIS O
Ġcap it
Ġverm ells
Ġlog otip
qu ines
tad o
Ġpot es
Ġ193 4
ja va
Ġcompati ble
Ġbar ret
ano par
Ġcorres pons
Ġ3 60
Ġnasc uda
Ġsensibil itzar
ĠfÃ²s sils
obli gat
Ġmundi als
en z
s ki
Ġpr olifer
Ġbarre jar
ĠsÃ² cies
Ġmenys pre
Ġsa ga
r Ã¨m
Ġconven cionals
Ġsa gra
Ġdel ib
c ans
A fers
ĠP N
bl ia
olly wood
Ġacc Ã¨s
Ġliter alment
Ġret rans
Ġdes enca
ĠDina marca
Ġvaria ciÃ³
Ġextra escolars
Ġedit ors
Ġinstr umental
Ġpon Ã¨ncies
enf rontar
ĠVis ita
it Ã²ria
ĠNor uega
ĠBaix os
aqu el
uta cions
Ġbomb es
e ver
ĠmÃŃ tic
ĠInc lou
ass umir
af iciÃ³
Ġsensi bles
Ġa jun
at ers
Ġat urats
Ġemoci onals
Ġori entada
z ina
ĠM n
b el
Ġcar ro
ĠGal ÃŃcia
Ġprohib ir
Ġhaur Ãłs
Ġdes pren
200 1
Ġd urs
ad ults
Ġdes via
Ġmenti des
ĠllÃłgrim es
em iss
ĠCo rea
aj uts
A vinguda
Ġm osa
ĠH avia
Ġw i
ĠS ex
Ġjug arÃł
ĠUnivers ity
ĠFo ix
urn ÃŃ
Ġperson alitzats
Ġassocia tiu
ic ot
ĠEl ena
ĠA ran
pre taciÃ³
Ġvide oc
c los
Ġx en
ĠA limentaciÃ³
Ġdi la
In d
Ġgovern ants
or gull
Ġdirec cions
ĠTen ia
que ig
Ġcop iar
i tius
Ġin unda
Ġassemble es
ÑĢ Ð°
G B
Ġestim ular
ĠTecn ologies
Ġplantil les
Ġf ocs
ĠW est
Ġgal eries
Ġacus ats
Ġalim entar
Ġp p
Ġr ug
til lo
Ġinsc rit
seg ons
Ġangles os
Ġrec er
is sos
Ġexpos ats
Ġsob ren
Ġpu gueu
Esc ol
Ġsab ien
Ġmor f
Ġescol lida
Ġrestric cions
obser va
ĠOs car
Ġcoordin at
Ġn Ã²r
Ġmil er
Ġtin guis
Ġinvis ible
ĠconvenÃ§ uts
Ġcontext os
b anc
en velliment
Ġin vent
Ġpatron al
Ġgener ositat
Ġtracta des
Ġbit llets
g all
loc at
ĠSobre tot
ĠP aris
ĠÃłnim s
å½ ©
Ġacum ulat
ti z
ĠEduca tiva
o y
an ga
Ġeng egar
Ġenc ert
ĠmÃ¨ dics
te ts
ĠcarÃłcter s
Ġ !!
Un iÃ³
Ġcab dal
Emp Ãºries
ĠC and
ir s
ac ho
Ġimplic ades
ĠR us
Ġre afir
ur gÃ¨ncia
Ġ196 7
Ġat ents
Ġcompet ents
ec tor
Ġconc ed
Ġvir tuals
Ġvet llada
Ġhomen at
Ãłr qu
Ġapun ten
j andro
Ġva u
Ġarrib Ãł
Ġcri atura
Ġmedi ana
Ġmat ernitat
alg Ãº
Ġsa pi
f el
Ã² tiques
bi ol
Ġcompos itors
Ġdos is
å ħ
Ġapro pi
Ġmedi Ãłtic
Ġenorm es
ĠGre en
esc riu
exper imentaciÃ³
ĠSegu ra
elim inar
Ġt ol
ĠS istemes
Ġcar tera
V all
ĠE ren
ĠSha k
Ġrela tius
ĠR ig
Di jous
ĠMus eus
Ġalt eracions
ĠMitj ans
Ġpa quets
Ġcirc ula
S ub
Ġcon ca
ES S
Ġas fal
Ġinven tar
Ġgest os
ĠAfeg iu
ort h
uc k
ĠInform Ãłtica
Ġre posar
ĠT C
Ġverita bles
Ġacolli dor
esp e
Ġdiscapa citats
Ġcons ig
Ø§Ù Ħ
ÃŃc ula
Ġdeci dim
Ġobser vat
Ġsof is
G S
g Ãł
ĠP era
avi er
C asa
Ġver bal
Ġperfec tes
ĠPep e
Ġvisu alitzaciÃ³
g et
all at
Ġradi of
ĠN au
asc ut
N ecess
ĠSol Ãł
ĠEmpresari al
ĠS ans
fi tant
Ġsocial isme
Ġdub tar
Ġ193 3
ost res
Ġcrim inal
Ġan Ãłvem
ÃŃ l
ĠA ustrÃłlia
ĠNo ves
ĠdemocrÃł tiques
Ġd retes
es mentat
eg r
Ġob rera
Ġrom and
Ġper di
Ġgesti onat
Ġin e
Ġcaus at
Â ®
Ġb ou
Ġsot mesos
Ġc ib
Ġimpos iciÃ³
ra m
esc rit
Ġdesa per
iÃ³ dico
ĠPoll enÃ§a
Ġexerc eix
Ġcont enta
n aciÃ³
ud o
erc ats
ĠR onda
W eb
t ots
ti tat
Ġinc ertesa
ĠPag Ã¨s
un ciÃ³
p eti
Ġsegu its
Ġnoctur na
s empre
Ġlla vor
ca dem
ap ort
fic ador
ĠPrim avera
Ġredac tat
ĠSad urnÃŃ
Ġcan Ã³
Ġ11 0
Ġreal ista
ĠsÃº per
B R
Ġantiga ment
Ġdiab etis
Ã¡ zquez
å ı
ĠComerci al
ĠM ans
Ġprepar en
Ġsent Ã¨ncies
Ġmir en
Ġseg ones
S ota
Ġinteg ren
F ranc
Ġb Ã¨l
Ġtrob in
Ġran g
p eta
Ġdescon eguts
essi u
Ġdem and
Ġaut onÃ²miques
Emp reses
Amp osta
ĠW al
Ġarrib in
h ara
ĠMar x
Ġsot er
ĠA ni
Ġestruc turals
ĠDemocrÃł tica
si di
par Ã¨ncia
ĠDe finiciÃ³
Ġrob ar
Ġfom enta
ĠhipÃ² tesi
Ġcap taciÃ³
Ġrod alies
Ġcomiss aria
os au
or de
Ġpre ca
Ġmeravell osa
Ġaccessi bles
Ġsub til
Ġorganitz ant
direc tor
peu ta
ĠcÃºp ula
ĠP ou
au x
Ġdeix in
Ġg ama
IN S
p ing
Ġcrim s
ĠQu ar
vi ol
Ġentren adors
Ġestre t
est o
estudi ar
Ġf ri
Ġpar tint
Ġan omena
ĠW il
Ġtelec omunicacions
Ġprim Ãłries
ĠCas tro
Ġtar des
ĠS all
ur recciÃ³
inclo uen
O F
ĠC H
Ġtorn o
Ġvari at
ĠB ag
Ġf rÃł
Ġautob Ãºs
ĠWillia m
f ac
tro ducciÃ³
tal les
Ġag Ã¨ncies
por taciÃ³
Ġintercan viar
E E
ec able
Ãł x
enti r
ĠK ing
Ġent esa
Ġrela ciona
Ġacab o
ĠlÃº diques
ĠH isp
ep ciÃ³
c ert
Ġhom olog
Ġenvol tada
Ġam ate
Ġbloque ig
tan o
h at
Ġval idesa
ĠBor ja
og en
Ġdivul ga
Ġusu Ãłries
ht ml
Ġbel ga
Ġqu er
Ġ7 7
ow er
ida ble
inform ar
b os
Ġmus e
Ġcontrol at
ĠHo use
Ġpreven tiva
qu isi
roc k
Ġrecla men
P u
og ar
Ġco ves
ĠDel egaciÃ³
Ġmusc ular
Ġconsci enciaciÃ³
Ġeix ir
V er
Ġma ca
AT S
ĠMas ia
Ġad onat
u car
Ġset ge
Ġpess ebre
exc Ã©s
ĠBÃ© tera
Ap p
I d
Ġps ÃŃ
ĠC han
Ġcristi anisme
Ġob rer
ĠGir onÃ¨s
Ġne ts
t ent
t rica
Ġcontrac tat
M itj
Ġtan cades
ĠW ik
b ro
Ġoc cidentals
ĠÃģlvar ez
men et
Ġmil it
âĢĿ ;
Ġat urat
Ġsenzill s
ro und
j al
ul les
ĠN Ãºm
Ġtorn aran
ĠBil bao
Ġpremi ats
ci ments
Ġhist ori
P ol
Ġafir men
Ġbro u
en vi
Ġes brinar
Ġcontr Ãłria
Ġapren en
ĠF res
ĠH orts
ing le
Ġ197 1
Ġ193 2
ĠBi ologia
catal Ãł
bre u
gent ÃŃ
Ġ6 9
Ġ; )
P remi
i ro
Ġsup eren
Ġacons ella
odi es
Ã²x id
Ġdetermin ant
ĠCh risti
Ġexcep cionals
Ġlici taciÃ³
Ġinter venen
eixen Ã§a
Ã© l
Ġdes ocup
Ġpag ant
Ġort ogrÃłfiques
ac ÃŃ
Ġ7 3
Ġcinemat ogrÃłfica
Ġcavall er
Ġbit llet
M at
Ġc end
ĠB ill
Ġcorrespon dÃ¨ncia
p Ãł
ĠS eria
Ġevi ta
Ġpion er
ĠBut lletÃŃ
au dio
Ġadap tant
al titud
ĠI sa
Ġr entar
Ġsepar ats
ĠMas nou
Ġsubstitu Ã¯t
Ġautob usos
Ġllen ya
ĠjurÃŃ dics
Qu alsevol
Ġhipot ec
Ġv ed
Ġimmer siÃ³
ĠPuigcer dÃł
T arra
Ġsuper ant
ĠGl Ã²ria
A la
ĠS OL
Ġ196 2
ĠvÃł lida
ĠOb ra
Ġaspir ants
ĠGÃ¨n ere
Ġt ons
S anta
Ġcar ena
g ran
ĠS ci
titz ada
ex plic
Ġanim at
ĠBe at
Ġdig nes
Ġllen Ã§
ÃĢ ngel
incorpor ar
Ã² liques
Ġab usos
Ġviol ÃŃ
L lu
ĠS ir
ĠB ul
In fer
Ġde fectes
âĢ¦ ).
Ġdesitj at
vangel i
C am
Ġcontempor anis
voca da
Ġexpedi ents
ĠÃĢ ustria
Ġdisc re
ĠCor om
Ġemp ar
Ġro dar
Ġ[ +]
ĠB ÃŃ
d als
hab itants
Ġpubli quen
w er
Ġb uida
ĠM Ã³ra
OR D
Ġacum ula
Ġse tena
Ġpl us
Ġtaul er
om i
Ġderi vat
Ġemmagatzem ar
ĠcomenÃ§a ments
ĠMitj a
th umb
Ġterrat rÃ¨m
G A
Ġna zi
Ġret ribu
Ġmantin drÃł
Ġimpar tir
Ġtranspor tar
ta ge
Ġllic enci
Ġmaj Ãºsc
Ġvor era
Ġdes gra
Ġhab ili
Ġpint ors
acc edir
ĠF ri
Ġag rÃłria
Ġvaria des
Ġrendi bilitat
Ġbarcelon ins
c ha
ÃŃ d
Ã¨ lia
emmagatzem atge
Ġll ana
ĠNicol au
Ġpos ta
Ġcontra diccions
Ġinflu Ã¨ncies
Ġarreg lar
T C
Ġv otacions
Ġesc ric
Ġcre ats
vid eo
Ġgovern ador
Ġad ulta
Ġal ber
Ġvet lla
ti litat
Ġcom arcals
ĠA da
Ġset ze
Ġsupos arÃł
al b
Ġins isteix
Ġtrasp Ãłs
An im
Ġtru cades
Ġetique tada
Ġanar quistes
Ġdes enc
ici tat
Ġinter discipl
ĠPu blic
ĠOs ona
Ġcon voc
ĠM Ãºrcia
Ġelec tro
em et
Ġestr is
ĠRi us
ĠP ac
Ġrespec ta
Ãłu tica
di pu
Ġflamen c
Ġar omes
ĠP rades
Ġve ien
exig Ã¨ncia
Ġmass atge
ĠCiu dad
Ġad hes
ĠRom ero
EU iA
erra ment
Ġ7 4
m ill
ĠD aurada
Ġresol ucions
Ġretalla da
Ġcar den
Ġfor Ã§ar
ip Ã¨
Ġpre cep
ĠMass ana
Ġreb ent
Ġimp actes
c ultural
ĠF oc
Ġri tual
aut oc
ĠPar la
tic Ãł
ĠrÃłpid s
Ġseleccion ades
ĠcÃłs tig
Ġdu resa
Ġdi l
Ġactu alitat
Ġacompany ades
ar bres
Ġorganitz em
ĠAc tualitat
ĠMon te
B O
ĠVol ta
Ġnega tives
Ġlle gu
ĠÃĴ mnium
ĠdiÃłleg s
Ġre met
ĠSal es
ĠÃĢ sia
ĠF an
Ġex ec
Ġpor ti
Ġen ig
Ġnutri ents
ĠC erca
ven da
Î ¿
ĠCl ÃŃnica
Ġcomun ista
ci des
vell es
Ġbrill ants
Ġtari fa
Ġforma va
Ġarren ca
ĠChamp ions
ĠPer iÃ³dico
Ġampli ant
Ab ril
ĠOli va
Ġtar ann
Ġper form
Antoni o
U tilitz
Ġdescon nec
ĠCada sc
Ġex isti
Ġrec te
Ġhistoria dor
Ġpre dis
ys tem
ĠS ic
Ġen la
Ġpl om
Ġsot mÃ¨s
ĠEspa Ã±ola
Ġimpossi bilitat
Ġp icada
emp a
Ġpar rÃ²quies
ĠInstitu ciÃ³
Â ¦
Ass ociacions
Ġmed alles
Ġminist res
Ġenseny at
Ġbar ca
labor ant
Ġmot lle
k u
Ġ }
fi gu
J C
Ġ19 18
Ġpost grau
P F
Ã ´
uc rist
Ġo ci
Ġinc Ã²m
ĠH au
espera va
h orta
Ġesta bilitat
Ġconsid ero
Ġdegra daciÃ³
ar ques
Ġoc asi
Ġexp edient
Ġsup rimir
Ġteat res
ĠFed eral
Ġderi vada
ĠMag n
ĠMor era
Ġdispu tarÃł
ĠW ord
U CIÃĵ
Ġfor tament
ov asc
ec ologia
Ġ19 29
R o
Ġxines os
Ã²m ic
Ġem mar
Ġtr ista
Ġinforma tives
P o
Ġdic tador
Ġreb udes
Ġmor o
bo x
ĠÃ²b viament
Ġmedi taciÃ³
Ġvoc als
ĠCa pital
Ġcl ÃŃ
Ġpin ya
ĠC ri
Ġpropi etÃłria
v asi
ĠC ec
Ġ0 2
afeg ir
ĠN Ãłutic
Ġvita litat
Ġj erar
Ġactu ant
ĠS tan
Ġimp reg
Ġconcent ra
ĠUP F
Ġmu tu
T inc
Ex per
g Ã¨n
Ġaconsegu im
Ġin tim
et nam
Ġhor ts
id ora
vern es
id en
Ġat ur
ER T
mit h
Ġmenta litat
V ila
N A
ven a
ĠSo par
Ġexper iments
in Ãłries
eb res
ĠCons ulta
Ġanim em
Ġconform e
ed icciÃ³
Ġrob atoris
at letisme
or er
Ġfac ultats
Ġcontribu eixen
Ġm itges
ob ert
Ġlli gats
Ġad metre
ĠSand ra
Ġdefens ant
ril lo
amp lada
Ġofer ts
ĠG egants
ĠO R
ej os
reix en
Ã²d rom
Ã³n ica
Ãłri us
Ġampli at
escal f
and ra
Ġ16 0
ok s
Ġacus acions
Ġparticipa tius
Ġdisseny ador
âĢľ ,
Ġencarreg ada
Ġs mart
ist res
ĠJ urÃŃ
ĠridÃŃc ul
Ġb ag
Ġcinqu antena
Ġpa pall
Ġsin te
EC T
essi m
Ġcontra dic
ĠM ec
esc ollir
ug h
Ġrem arcat
giny ers
Ġesc oc
ĠPal es
ĠC icl
enorm e
Ð ¹
ĠMem orial
an gel
ĠF ort
Ġrecoll its
Ġrepl ant
Ġaleg re
Ġmilit Ãłncia
ad missiÃ³
Ġreg eneraciÃ³
Ġdesemb oca
AC T
afeg eix
ins piraciÃ³
Ġcamp ionats
Ġdra mÃłtica
ĠCalaf ell
Ã²ces i
Ġcol pe
ust os
Esper it
ric k
ĠK en
ĠGir on
Ġimpl antar
ĠS Ã©
Ġval entia
ĠZ ar
pro jecte
ĠP ell
ur Ã©
hab itu
ĠGra menet
Ġexpl otacions
Ġra p
g ement
Ġesc and
ĠautÃ¨n tics
ib uix
ĠT es
Ġsan itÃłries
Ġmanip ular
t witter
ĠLe a
Ġderro tar
Ġ196 6
Ġfranqu istes
ĠO bert
ad op
tÃłn yer
ba ma
v ari
Ġcamp ions
ĠÃŃn tim
Ġfol re
Ġre prendre
rob i
Ġad orm
ĠveÃ¯ nal
Ġa per
urb anitzaciÃ³
Ġ7 6
Ġportugu Ã¨s
ro ella
Respec te
Ġta par
Ġresta urar
Ġre duc
ĠI ber
Ġge omÃ¨t
Ġrepresenta da
ĠmetÃł fora
Ġcontin guda
ed itor
ĠCon tac
ĠFamÃŃ lies
ĠJ ava
ĠBi o
f eix
Ġpertin enÃ§a
Ġpresti giÃ³s
estableix en
ĠSi gui
ĠÃĢ frica
bar jo
ĠNorm alment
Ġcris tal
V an
Ġtri partit
Ġprotagon itzat
Ġgerm anor
Ġsu aus
uster itat
ĠLl uÃ¯
Ġcompens ar
Ġfar cit
Ġor elles
Ġmediamb ientals
D iu
u ixa
ĠAn dor
Ġresp irar
Ãłb ia
ĠC un
Ġmol Ã¨c
ĠVic ens
Ġdoc tora
ĠB erg
ĠcentÃŃ metres
l ants
ĠF ruit
ĠÃ¨ tic
Ġmot oci
Ġtarann Ãł
Ġglob als
Ġb is
Ġna tal
ĠMontg rÃŃ
f ont
Ġintent em
aud itori
p df
Ġc iment
ĠS I
ab sol
T Ã©
Ġinterna cionalitzaciÃ³
Ġl ar
Ġmanifes tants
al emany
Ġrep utaciÃ³
Ġafir maciÃ³
Ġt witter
Ġ ones
Ġsem inaris
ĠSÃŃn dic
ĠP op
Ġfemin isme
Ġl ink
Ġpron uncia
Ġpassa ven
Ġc is
Ġt rom
Ġcomp ag
Ġinter medi
ĠK i
Ġconcent racions
Ġobri rÃł
Ġdes tru
ÃŃ tima
Ġteu lada
Ġevid ents
Ġcrea tius
Ġar b
ĠU b
itu alla
acom ia
Ġvor eres
ĠMar s
Ġdisseny adors
ol let
ĠB ir
ens es
Ġenten en
ĠResid us
Ġ ....
b ul
Ġdes en
e jo
Ġcom tat
leg ir
acom panya
Ġnutri ciÃ³
le da
Ġvari es
Ġcamp an
ĠdomÃ¨s tic
Ġlegi timitat
gi ble
Ġoc ci
Ġadi ents
Ġprof undes
Ġaut onÃ²mica
Ġdeixe bles
ĠMet ropolitana
Ġde tallat
Ġ9 6
ĠTrans port
Ġfer ida
Ġjut jar
Ġti mb
idi omes
Ġca val
Ġbar res
ĠGu im
Ġsignifica tives
er ro
si ma
Ġneol ib
ser ia
in itat
tra s
Ġcreix en
ĠAfeg eix
Ġlegi tim
ex cepciÃ³
>< /
Ġap legar
ĠPar lem
Ġcer tesa
entre teniment
Ġdefens ors
Ġmir at
ĠestratÃ¨ gics
ĠContin ue
ĠTrac tat
Ġal cohol
ella des
Ġprovin ent
ĠDi jous
Ġtend resa
Ġoferir an
ĠXi quets
e tar
Ġel ev
ĠEr nest
Ġdeteri orament
Ġm ines
ĠM assa
Ġemp at
Pro jecte
F undaciÃ³
I r
d y
d ent
es mentada
Ġsimpa titz
Ġinsu ficient
ĠPublica cions
Ġretr ats
ĠUd G
ad ona
Ġimplic at
ĠromÃłn tic
Ġren des
ĠRobert o
ĠEduca tiu
U ns
assegu rar
Ġamb aix
Ġorien tat
Ġ ï¿½
OS T
Ġref rig
Ġmenys preu
ĠTra ducciÃ³
And reu
di men
ĠF orca
Ġproteg eix
ompl ir
Ġ196 5
eg as
gi o
ĠC OL
Ġassass inats
Ġradia ciÃ³
Ġ9 7
reg ar
Ġrelig ions
ĠJes ucrist
Ġel abora
Ġproduc tora
Ġenri quir
Ġper ll
ras mus
ĠCas tel
lex iÃ³
Ġompl int
Ġdesfi lada
L os
Ġa qui
oti ts
E ix
ĠMon tilla
es g
Ġth is
Ġr Ã¨t
avant guarda
Ġsalari al
ĠC uix
Ġvi ola
imp res
Ġsol itud
Ġemp itj
inc ompliment
ĠBo ix
Ġ196 3
accep tar
Ġab aix
ĠQu ins
Ġselec tiva
ĠS Ãł
ĠF ebrer
ĠBuen os
ĠAn glÃ¨s
est ona
ĠT emp
Ġmar bre
entis tes
ro ig
Ġtra dueix
ĠL ola
ĠEstr atÃ¨
l ular
Ġobtin guda
Ġtex tures
Ġavantpass ats
e Ãł
er ussa
et te
Ġpa tata
Ġcrea tives
Ġpublic Ãł
Ġpo em
Ġimp ecable
Ġocup ada
gost era
Ġposse eix
Ġanim aciÃ³
Ġcal a
Ġentre m
Ġindi ferent
Ġll op
AC A
Ġmul tip
Ġsost Ã©
Ġx iu
Ġra cisme
ĠCat erina
ma u
fici s
Ġhom osex
Ġtru cada
Ġs Ã¨nior
Ġres ten
Ġcl ari
ĠCat Ãłleg
Ġest ÃŃm
Ġgra ms
trac tes
assegu ranÃ§a
Ġ ombra
Ġb ess
ll ant
Ġperf um
Ġdi guem
Ac tivitat
Arquitec tura
eri als
Ġinclo urÃł
Ãłb rica
Ġal lib
Ġllic enciat
pi da
ĠRÃ¨ gim
Ġpren em
Ġimpar tit
ĠProfession als
Ġdeix arem
Ġllarg ada
gi p
lo v
Ġpi la
Ġdeci siu
Ġenc antat
na ugu
Ġbus quem
Ġpion era
ure m
Ġe voca
rip tors
Ġp iss
Ġatrac cions
Ġpota ble
Ġiron ia
ad hesiÃ³
ades a
Ġpac tar
Ġsard ana
f oc
ĠOc upaciÃ³
ĠR omÃł
legi ats
Ġ19 17
rig en
ĠPerp Ã¨tua
Ġ onada
Ġem a
ĠOr tega
ropol itÃł
Ġcr om
Ġpoder Ã³s
ĠC lo
ĠP un
Ġ7 1
Ġfacili tant
Ġper tÃłnyer
Ġportar an
aplica cions
te ig
Ġagrada va
Ġsum ant
Ġb ul
uÃ¯ da
Ġcaracter ÃŃstics
Ġcor on
Ġten da
Ġcist ella
U I
Ġi ll
Ġar ra
Ġ8 2
Ġintens ament
Ġp Ã¨s
Ġdel inqÃ¼
Ġpro ven
edi ficaciÃ³
Ġobser vacions
Lle ida
equ ilib
adap ta
Ġespon tÃłnia
Ãºrg ica
Ġorgull osos
Ġn iu
Ġpanor Ãłmica
d els
ĠS treet
ac tiva
Ġllibre t
ĠMont b
Ġapla udi
ric tes
Ġtri o
ĠSo vi
Ġconsens u
Ġpatro cini
ex tracciÃ³
Ġbat le
Ġaixec at
ĠCarbon ell
ĠV id
olog ÃŃa
h otels
Ġrod Ã³
Ġramad eria
m ne
ĠfotÃ²graf s
Ġfil tre
ĠBor rell
u an
? "
Ġre us
ĠAlg Ãº
ĠruÃ¯ nes
Ã© e
ĠC I
espe are
ĠM ini
EM P
Ġ196 4
Ġtranquil s
Ġemp eny
Ġju li
b ums
Ġla b
QU ES
ar x
Ġag reu
Ġinten si
ĠFin lÃłndia
ĠFl ors
Ġpresidi da
Ġres istent
Ġdesob ediÃ¨ncia
Ġinjust ÃŃcia
ĠB rossa
Ġbi ologia
ĠRes idÃ¨ncia
ĠF ores
Ġincom pa
å ®
at racciÃ³
Ġcompens aciÃ³
ess ora
Ġdomin is
Ġpre ve
Ġpregun to
ĠD ay
Ġcam isa
ĠT ordera
ĠqÃ¼esti onar
Ġsingular itat
Mad rid
olog y
Ġsupos ada
Ġpreocup ant
Ġtop Ã²nim
z za
ĠL im
Ġcor atge
tr y
Ġcompeti tiva
Ġfum ar
Ġprocla maciÃ³
Ġr ols
Ġdesenvolup ats
dic aciÃ³
Ġconvi uen
ĠF als
ĠSant uari
Ð ·
Ġrem unta
ĠlliÃ§ ons
ĠCla us
ĠIdi oma
ĠR eix
man ent
Ġreta ule
ĠAm eric
Ġincrem entat
es itat
Ġenem ic
Ġf essin
ĠI C
ĠlÃº dic
on ya
Ġpu rament
Ġcamp ament
al o
Ġja ciments
ent usias
Ġcre gut
umen tals
Ġrecon eixen
Ġadap tades
van eres
Ġ1 01
Ġfal tes
Ġs ir
Ġdel icat
ul ants
Ġfes tiva
ĠBarcel Ã³
Ġcom andes
op l
Ġcomplement Ãłria
ess is
Ġimp osa
Ġor ques
Ġconc ession
Ġprodu Ã¯ts
Ġfacili tades
ora cions
Ġs obra
al erta
ĠEs glÃ©sia
Ġconf luÃ¨ncia
ĠC arÃł
Ġpopular itat
Ph one
ĠM Ã©
Ġcomb inen
Ġecos istemes
Ġ194 8
Ãłs er
ĠCol or
Ġfacili tats
Ġperdu ts
Ġf eble
ĠhidrÃł ul
Ġ10 7
ĠGrup s
m ell
Ġpat ologies
Ġquali fica
Ġgro cs
ĠG om
Ġfun er
ĠC rida
di f
egu r
Ġmes a
Ġbull ir
Ġliquida ciÃ³
Ã£ o
U AB
Ġf Ã³ra
Ġposici onar
Ġvid res
Ã Ĺ
Ġcom m
ĠT ossa
Ġol is
orn ada
Ġlla pis
Ġdesit gem
Ġestere otips
x et
Ġdi vor
ob erta
Ġvia ble
ĠproveÃ¯ dor
tar s
ĠV eure
Ġcamp er
ĠTran siciÃ³
Ġplan xa
ĠC ull
g els
ĠEl is
ĠP ad
ĠR aquel
D eix
Ġs opa
Ġe go
M aria
l ina
Ġb ÃŃ
Ġb orb
ms terdam
Ġvis ions
enc Ãłrrec
identi ficaciÃ³
Ġtal lada
Ġplantej aments
Ġactiv istes
Ġpos aran
ĠCom enÃ§a
Ġcor ren
cis tes
Ġparla ments
eg i
ĠN eu
Ġbus cat
Ġarque olÃ²giques
ĠSer rano
Ġmicro ones
ro f
ĠPrem sa
Ġdeu tes
ÃĪN CIA
Ġres tar
inter Ã©s
Ġva ques
Ġemp enta
p ed
Ġins ectes
ĠSant os
est em
ĠG es
Ġll anÃ§at
Ġrecon egudes
ĠAll ÃŃ
OP D
enem ic
ap ortar
ĠCas ino
Ġc era
ĠT ex
li qui
Ġpl Ãłstics
Ġcomun istes
R IA
ĠMar k
Ġcompta va
Ġb Ã³
ĠÃ²p era
Ġ Ñģ
ĠHol anda
ĠMan if
ĠLabor atori
ic ades
us tes
Ġllengu atges
od erament
tr ar
rig ht
Ġconvid en
Ġprob abilitat
Ġendar rer
Ġreg nes
Segu int
ĠParti ci
T erra
Ġperd eu
ĠPro ducciÃ³
Ġplur alitat
ta blement
pia ciÃ³
Ġsup Ã²sits
ĠprÃ²pia ment
c essiÃ³
Ġsig les
Ð ¿
Ġdes prÃ¨n
ĠCiutad ania
ĠG olf
ĠSegu idament
ĠâĢĭ âĢĭ
Ġe ficients
ec o
Ġmor tals
ĠÐ ²
ĠÃ²p tim
Ġde vo
f em
Ġprim ordi
Ġrep resa
exp ulsiÃ³
Ġverita blement
Ġassegu t
Ġexpos ades
Ġexig ents
ĠSim Ã³
s ub
sobre tot
on eta
ic Ã²p
Ġa igu
ing er
Ġca uen
ĠportÃł til
ĠA genda
ĠF ull
eb ron
ĠVal entÃŃ
ĠTor roella
ĠVI H
Ãºni or
ĠC anÃ§
inter na
Ġcontamin ants
Ġsalud ar
Ġg rip
Ġan ces
Ġren om
mp l
Ġpass in
Ġdesenca den
Ġ ).
Ġc anya
Ġpens es
Ġveter ans
Ġantec edents
v ina
ent rades
Ġpen als
ĠLu x
Ġadqui rits
Ġrelax aciÃ³
m ers
Ġdoc trina
Ġmo tivar
ves a
ĠSim fÃ²nica
Ġins istit
Ġtan ques
p ica
Ġdin as
ĠSa gun
Ġde vas
int urÃ³
ard s
Ġsocial dem
ĠMe teor
Ġ8 8
Ġderro tes
Ġarque olÃ²gic
ci Ãĥ
Ġb oles
Ġob sc
Ġimmob les
Ġindic ador
O U
Ġcre enÃ§a
ĠNa tional
estr at
ĠB ab
leg ant
Ġcans ament
tin at
Ġcomp ostos
Ġafeg iu
ĠtÃ²p ics
aÃ¯ llament
Ġal co
Ġrepor tatges
Ġgreix os
erg Ã¨ncies
ĠAb ril
Ġcon d
di d
ĠF alles
ĠPer Ãº
ĠavanÃ§ ats
agu lla
ĠM ach
Ġimp erial
rov Ã¨r
x ador
Or feÃ³
Ġde terior
Com un
N C
... "
acos tu
ĠtÃŃ piques
Ġguany en
Ġreun eixen
ĠclÃłus ules
ĠCr istÃ²
se a
Ġaut omÃ²bil
rig o
Ġmul tic
Ġactiv ista
eric Ã²rdia
Ġe terna
ĠCo va
IN E
ĠsÃł pi
Ġconstitu Ã¯da
Ġemp rat
Ġs c
Ġcombina cions
ur r
ĠGal eria
uti li
estr al
Pro grama
Ġdisf ress
iscop al
Ġsenti mental
Ġcereb ral
Ġreal isme
Ġexac ta
Ġex prÃ©s
ĠAl coi
Ġ9 8
F ranÃ§a
Ġb ibliotec
Ġesdeven en
Ġsopar s
?? ?
Ġproduc tiva
AM B
p se
ĠSup oso
Ġregi onals
Ġradic als
Ġcrim in
o a
å Ľ
ach ing
Ġ ç
Ġlec tora
ri des
id er
oss at
OR A
ĠNat urals
Ġrep assar
Ġdepend ents
b all
Ġrob ot
Ġgui onista
c lo
Ġmun tat
Ġress enya
Ġtitu lacions
Ġdavant er
Ġrecla mat
ur ana
Ġaf ores
ĠMir alles
ĠAjuntament s
Ġterror istes
ss e
ĠZ el
t ran
Ã¡ rez
Ġintens os
Ġpl o
ĠF A
ĠAnd roid
bo a
fi anÃ§a
ER R
h ig
ĠJuli o
Ġembl emÃłtic
Ġne da
ĠfÃłrmac s
Ġta xi
Ġsub has
Ġcontr aris
m Ã³
ĠH arry
Ġconven iÃ¨ncia
Ġpan xa
Ġfigu ren
ĠI B
Ġpremi at
M arc
ĠDis posa
Ġconc lÃ²s
aciÃ³ n
Ġdeci siva
ĠMen tal
ĠAnt Ã²nia
Ġrob Ã²tica
Ġboti farra
Ġdesit gen
ad ura
ĠSan tan
ĠÃł pat
Ġque dem
Ġo posar
vi em
Ġhar monia
Ġkil Ã²metres
Ġexp ansiÃ³
Ġre habili
ĠV ar
Ġomp le
Ġp actes
il o
Ġi t
Ġartes an
Ġintro duÃ¯t
ĠteÃ² rics
ĠmÃłn iga
ĠG or
Ġdiv uit
u de
Ġextraordin Ãłries
Ġfant Ãłstiques
Ġprotagon itzada
âĤ¬ ,
Ġtransform acions
Ġg or
Ġnoti cia
al et
ĠJo han
ĠQu ines
Ġrefor Ã§a
inc endis
Ġbenefici aris
ty le
Ġtranscend Ã¨ncia
ost em
Ġinicia da
Ġrec al
Ġsegu eixi
Ġdol ents
ĠmÃ¨ diques
F P
ut ors
Ġdiver tits
ĠV erg
anes a
Ġdemost rant
Ġcu iner
fi cia
Ġtele fÃ²nica
ci tament
eg ats
ĠTro feu
ĠMund o
Ġs p
Ġpos in
ĠQu ad
Ġest Ã¨s
ĠĠĠĠĠĠĠĠ ĠĠ
ĠAm or
ĠvoluntÃłria ment
Ġjuris dicciÃ³
Ġespec ula
Ġforma ven
s or
Ġg oma
Ġam o
ĠVi quipÃ¨dia
ĠLla tina
Ġbar roc
lel es
aband onament
ĠCa va
Ġsup l
Ġconc eb
Ġvari ats
Ġi mb
Ġinteg rats
Ġsucc essiÃ³
Ġalluny at
ded eu
Contin u
qu atre
ad qui
Ġrecup erant
Ġcust Ã²dia
y mp
du la
Ġp icar
Ġinform ant
m ot
Ġar oma
enf e
Ġallot jaments
p oni
Ġp h
ÃŃn d
Ġrib a
Ġelev ats
Ġcardi ovasc
Ġre ver
Ġ8 3
Ġmel mel
ÃŃn ics
ĠSer v
Algun es
ob tÃ©
ĠGe ografia
ĠRic ardo
Ġconcent rat
Ġnota bles
Ġbas ant
ĠTrans parÃ¨ncia
ĠA S
Ġs ospita
ĠH ora
ale ts
Ġsender isme
m iques
ill ar
P rom
Ġn Ã²m
ri ols
Ġimm or
encarreg ada
ĠB urg
ĠCas es
Ġmor tal
espectac les
ĠdidÃłc tic
ĠLlar ena
ĠLla gostera
ĠD uc
Al ba
ĠB ob
ĠF it
Ġassegu ranÃ§a
Ġdav all
re guen
Ġla ber
atemp tat
ĠS tudi
Ġx ut
Ġrecons truir
ĠShak espeare
Ġalim entari
Ġmin eral
ĠComun ista
Ġf rat
Ġsubsc ripciÃ³
infra estructures
Ġpromot or
le a
Ġpar atges
Ġlli gar
Ġfal lida
Ġse ient
Ġcont rovÃ¨r
Ã ª
ĠTur Ã³
Con ferÃ¨ncia
Ġj e
Ġmar rÃ³
Ġnom enar
isb at
Ġmons tre
g ado
ĠW ar
Ġsorg eixen
w i
Ġap te
en regist
Ġesp erat
Ġ195 6
ĠSolid ari
Ġre vÃ©s
Ġdesp legar
ĠSegu im
Ġinflu ir
j amÃŃ
duc tor
Ġtes is
ĠMoll erussa
gu eres
Ġcelebrar an
cra Ã¯na
Ġdeci dida
work ing
cion en
Ġconeix ent
ĠTo tal
Ġcoordin ada
eda d
Ġno tari
ĠP ur
Ġaix i
Ġa re
os ar
Ġdir Ãł
a plic
Ġur gÃ¨ncia
M ill
k istan
Ġf ec
si blement
Ġpa viment
ĠMÃł laga
Ġcar ns
Ã²g ica
Ġmatin al
ĠB ici
escol ta
ĠIm atge
d ob
Ð ±
Ġt ÃŃm
Ġpas tor
ĠVa ticÃł
Ġdec orat
inar Ã²s
Ġins pecciÃ³
Ġse quera
Ġamb i
ĠÃł via
Ġinfin itat
ĠC inc
Ġdoc toral
Ġhig iene
is mo
Ġcre mat
Ġbas t
ĠAr tes
Ġmon jos
ĠQuir ze
ĠInteg ral
G M
u z
andes os
Ġdepend rÃł
li quem
fic ciÃ³
Ġaut og
Ġemb arcacions
ĠF lu
f Ã¨rica
Ġs ul
Ġpa tim
Ġcons ecuciÃ³
ĠcÃłl culs
ant o
ov ar
Ġa erop
Ġgra vats
Ġnarra dor
ĠEn erg
Ġtrob alla
Ġsu av
Ġquotidi anes
Ġfotografi ar
h r
Ġb ret
ĠB it
Ġinspir ar
Ġcontribu cions
era dament
fic arÃł
ĠconstruÃ¯ ts
ĠPressup ostos
ĠCarÃł cter
Ġins pira
ĠPO UM
m ics
en si
en cies
ar el
Ġe pid
te jar
Ġvol cÃł
at lÃ³
vi vÃ¨ncia
Ġpre co
Ġredu int
Ġcompleix in
B us
z ona
ĠS S
Ġgro ga
OL UCIÃĵ
Ãłrbit re
ĠH ollywood
Ġus at
ĠAr mengol
Ġreg nat
ec te
Ġord enat
ĠBas e
n cia
Ġviol enta
G ener
Ġcom Ã¨s
t he
Ġf Ã¨r
ĠO bres
Ġcas tanyes
Ġav anc
inici arÃł
Ġbog eria
enc ontre
Ġcaracter itzen
Ġ up
Ġ11 2
inform Ãłtica
I raq
at ch
n it
bl ogs
Ġterres tre
ke y
Ġmarx at
H er
Ġdesenvolup arÃł
ES C
uss Ãł
Ġincom pren
Ġb acteris
ĠLl um
dar a
r um
Ġcontr ar
end Ã¨ncia
Ġterror ista
rÃł ries
fic s
Ġaplica bles
at os
Ġf rom
assump te
L la
Ãº b
ap ole
amb aix
AN D
Ġregular ment
A na
en ri
Ġter Ãłpies
Ġdefici Ã¨ncies
Ġsimb Ã²lica
Ġpop ul
ĠD Ã©nia
ion ant
Ġ0 3
Ġw ork
ĠV ide
Ġcomun iÃ³
ĠPales tina
Ġno d
Ġmas ies
Ġha ig
ĠL ED
Ġpassar el
Ġic ona
Ġon ades
Ġcos tan
pe tes
Serve i
ĠRib as
Ġsubrat llat
ord ina
Ġinclus iva
ĠSu eca
el udi
ep is
Ġpol ar
Ġa ran
vers aris
Ġrefer it
Ġporta des
ĠLGT BI
j as
ĠC up
Ġpassej ant
egu en
Ġexhib iciÃ³
Ġsatisfac tÃ²ria
ĠP ess
Ġfet ge
y tics
il er
Oli va
Ġmoss Ã¨n
Ġmol l
rel aciÃ³
Ġ19 00
Ġpsic o
Ġdisc rep
Ġca ut
Ġesmen es
Ġbla us
ĠLl ob
iv et
estructura ciÃ³
ĠFeli pe
Ġg otes
Ġmar ins
Ġdespla Ã§at
Ġmobil itzar
gram unt
ĠsimultÃłnia ment
ĠT un
av anÃ§
Ġopera dors
Ġdescri uen
Ġindivid ualment
Ġpatrimoni als
g eu
........ ........
Ġdist rictes
ĠAc tu
Ġconsidera blement
Ġs how
Ġgiron ÃŃ
ĠAudiovis ual
Ġpossi bili
Ġpec at
ci tar
acredi taciÃ³
Ġapar tament
ĠsÃ² ls
Ġcorrec tes
Ġmodern itzaciÃ³
Ġpu jades
Ġ7 9
ĠCamp anya
Ġtransform at
m itj
par aciÃ³
Ġcre ades
Ġ8 6
Ex Ã¨rcit
... ),
Ġassump te
ĠJ ub
Ġignor Ãłncia
Ġinvers ors
Ġpet Ã³
Ġregist ra
Ġaux iliar
ĠD own
tic al
ĠCh rist
ĠPl anta
Ġmira cle
Ġpenit enci
an ci
ĠAl z
ĠDi pl
ĠPal a
Ġvi al
Ġapos tat
Ġal berg
Ġtele fonia
ĠEsp riu
Ġculp able
Ã² via
ut Ãłria
Ġcandi data
Ã¨ dies
In c
V ols
f unda
Ġbl ues
con tin
Ġfelici tats
el le
Ġf arien
Ġv on
ĠV ela
Ġrela ta
Ġef ÃŃm
ĠIn terior
oca ment
ĠSal le
ĠIns tal
Ġmagn ÃŃfiques
Ġd og
un ning
Ġcons istia
Ġmel odies
ĠMitj anÃ§ant
Ġf Ã¨iem
ud ella
reg at
Ġdramat urg
H um
d eix
Ġserv eixi
Ġcaracter itzat
Ġpil otes
ĠL et
Ġrat lla
ĠQuer alt
ĠAndal usia
A A
Ġajud in
v arÃł
Ġca cau
ex ca
Ġperill osos
O pen
Ġtra um
ĠCas tany
ri em
ĠI rene
ĠAr ran
k ers
ĠB ang
ĠIn fer
envol ta
Ġnomb rÃ³s
res pon
ĠC RA
des prÃ©s
ni e
rat x
ofer im
ĠPi erre
Ġsup lement
Ġman ualitats
Ġtemp les
Ġdiss oluciÃ³
Ġpassad ÃŃs
ĠavanÃ§ ades
ARC EL
ĠFer ro
fi eld
ĠCamp os
Ġproced eix
199 8
Ġprohib ida
Ġtancar Ãł
te a
An tic
Ġconsidera des
ĠP AR
ol anda
v inc
Ġesper ances
Ġinteg rant
Ġconci liaciÃ³
Ġform em
E V
Ġquotidi Ãł
g ents
al li
Ġb otes
Ġjo i
Ġaut onom
am on
ĠRecord em
Ġretor na
c osa
Ġcastell era
Ġrepar ar
Ġsim ula
Ġlava bo
Ġmod erat
ĠAr que
vant es
ĠMor ella
en du
Ġdirig int
Ġad quir
âĢ¦ ,
Ġimpres sionants
eci al
ĠRa imon
ingÃ¼ isme
Ã² gra
Ġfun cionals
Ġvalora cions
Ġes mentada
Ġtrans m
ĠCar ra
S et
tor y
Ġmi ro
T aller
Ġtri gar
ĠOlÃŃmp ic
Ġprivileg iada
Ġ é
edi ment
Ġperill osa
ACI ONS
ĠLoc als
âĢĿ ).
Ġlabor atoris
alt h
Ġtrac ti
Ġcompl icacions
l ela
Ġviol aciÃ³
Ġsur re
ĠvÃł lid
Ġto quen
Ġalg o
Ġdocumen tat
Ġconnec tat
t osa
Ġet n
Ġremun tar
Ġindign aciÃ³
ĠC s
Ãłn dez
Ã²m ica
ĠPro vÃŃn
ĠIgual tat
æ Ĺ
L ES
ĠAl cover
Ġequip at
Ġsenzill esa
C u
Ġen ver
ri o
Ã²g ic
ok ie
Ġmod es
Ġrebut ja
ĠA cadÃ¨mia
Ġfe bre
cin g
ĠFar mÃłcia
Ġn ins
ten em
Ġins tÃłncies
ĠprÃ©stec s
ĠN in
Ġsofer t
Ġt emÃłtics
ĠUni da
ver gon
Ġcob la
Ġbarbaco a
Ġprocess ament
Ġbru ixes
ĠS AL
Ġconver tirÃł
Ġfranc eses
Ġflor al
Ġar rodon
Ġ19 14
In forme
ĠProf essor
ul ia
ĠBus iness
Ġrelle us
Ġestir ar
Ġesc ons
Ġib Ã¨ric
ĠsÃ² lids
Ġparticip Ãł
ĠCas anova
ĠFundaciÃ³ n
ĠRa Ã¼l
Ġdep ura
1 50
A h
ĠquÃŃm ic
Ġb adia
Ġme talls
ĠJosep h
Ġcas als
Ġsobiran istes
in versions
Ġ195 9
ig Ã¼
ĠTre mp
ĠM iss
Ġfinalitz arÃł
Ġca ti
Ġpoder osos
Ġreflec tir
ĠA ren
Ġdesit gin
ol lar
ob il
ĠD ub
fi es
ĠPro cÃ©s
ĠB of
Ġconcep tual
o ver
ĠPa ti
Ġre val
ĠR at
ĠV ine
Ġobtin gudes
ĠH orta
Ġsegueix o
Ġhero is
Ġ/ /
Ġ< /
Ġdeclar ada
Ġfona menta
Ġdi guin
Ġrecoll int
Ġrevolucion Ãłria
Ġindi cis
Ġsal ts
est el
utri ciÃ³
ĠBlanc o
an alitzar
sion isme
Ġbisb es
ĠBar b
ĠM os
Ġsob tada
n en
Ã «
tar isme
ol d
ĠOc tubre
id Ã³
ilia ciÃ³
Ġvita mines
Ġsuperm ercat
rÃł nies
Ġun itÃłria
enfron tament
ĠCad ÃŃ
Ġamb ici
ĠD ur
Ġ8 7
ĠPodem os
Ġtir ant
Ġitiner ant
l ula
ĠL ar
organ ismes
Ġlegisla tiu
j aran
Ġc ria
ti d
Ġmeteor olÃ²giques
Ġparl ants
Ġimm ill
ica go
cion ades
Ġaspira cions
ric ultors
Ġdisseny ats
ĠAdministra cions
Ġcerves es
in em
ĠS k
Ġ0 4
Ġassequi ble
Ġe duc
ĠContempor Ãłnia
" ).
Ġv em
Ãł cies
Ġpir ates
Ġpreco Ã§
Ġajus tar
ĠCuix art
Ġma ti
Ġbot ons
Tarra gona
H ebron
lu a
Ġfix es
ĠAir port
a pren
ĠLl op
Ġrepeti ciÃ³
ĠNeg ra
ĠC he
lo re
Ġregu len
Ġmolt ÃŃssimes
Ġcontrol ada
Ġdescend ents
ĠT ext
tre am
ĠInterna cionals
Ġb Ãłndol
Ġan alitzat
Ġcoincid Ã¨ncia
Res oluciÃ³
Ġver dura
Ġbomb olla
ĠPens o
ĠmÃºs culs
ĠJard ins
Dim ecres
ut o
ĠprÃ² r
Ġtec lat
Ġtrans ports
Ġpass o
Ġve uran
Ġele vades
Ġse di
ĠN ot
Ġtorn Ãł
Ġfres cor
aband onar
s Ã³n
Ġs ents
Ġrus sos
ĠOrganitz a
min ent
Ġsel va
h ad
Ġinf l
Ġliber als
in acs
Ġex it
Ġvis ibil
Ġ8 1
Ġmi reu
Ġema il
an at
Ġel og
Ġla mentat
Ġca ves
emb arra
Ġsolid aris
Ġengan xar
Ġti rada
Ġpe tar
rom pu
Ġober tures
Ġaut op
Ġmaquill atge
ĠMoz art
p it
Ġvita mina
Ġcomp tant
ĠPS M
ind ret
In form
Ġarti ficials
Ġnucle ars
Ġal Ã§ar
Ġallot jar
ĠTim es
ĠF R
Ġta ques
Ġ194 7
Ġm ina
Ġprotagon itzar
____ ____
da y
Ġin fecciÃ³
Ġg ab
Ġma mÃŃ
Ġacc edeix
Ġdors al
ĠplÃłn ol
ĠA V
Ġw h
Ġpin tades
Ġurg ents
Ġdevo ciÃ³
Ġocup ant
Ġdel ta
Ġdedi quem
E va
ta ria
ot ecn
ĠLabor al
Ġfia ble
C aixa
ĠG ard
ox igen
ĠCÃłn cer
Ġcompar eixenÃ§a
Ġadre Ã§ats
Ġcompro vat
Ġ0 6
G U
Ġt oss
ĠSer vic
ĠMon tes
Ġtempor alment
Ġs end
Ġb Ã¨stia
ĠP allar
ass at
Ġprepar ades
Ġreflex iona
ĠAll Ã²
TM L
Ġy our
ĠPro ven
Ġrecor rer
Ġperson alitzar
F el
ĠC ONS
ĠI niciativa
pec tiva
ar Ã©
Ġh orm
ĠRecord eu
ab a
Ġag Ã¨ncia
inf luÃ¨ncia
Ġna cion
an za
id ats
ĠHum an
Ãłp ols
Ġ9 1
Ġaproxim ada
Ġaccess oris
Ġdon o
Ġam fit
clos ques
Ġsal vaciÃ³
ĠTrÃł nsit
Ġb Ãºs
ĠL oren
Ġesc assos
Ġap p
Ġfu ga
ĠP IM
ĠCastell b
Ġpres ons
rim a
Ġtrob eu
ĠD ans
Ã¨s ar
Ġapar iciÃ³
ĠEx pl
Ġconfron taciÃ³
I AL
ĠG egant
Ġrecom pensa
Ġul lada
Ġani ria
Ġsac se
Ġescri via
Ġfos ques
Ġex amen
ĠEx p
ĠDal mau
ĠC Ã²r
a er
Ġpass aport
Ġcu es
Ġbut x
elabor ar
ĠT ai
lar Ãł
Ġsup rim
Ġdesc rit
Ġfalta va
otur isme
c urs
Ġpr ats
ĠpsÃŃ qu
l Ã²
v ed
Ġs ots
ĠV inarÃ²s
d embarra
el it
Esta di
Ġcompon en
mad ura
ĠAM PA
e ves
ic er
Ġpastiss os
ĠcÃ²n sol
ĠB ec
ĠBÃŃ blia
ĠCa fÃ¨
Ġvol guÃ©s
ĠSagun t
ĠA plica
Ġ ya
Ġpl Ãłstiques
Ġass al
ĠEx cel
ĠEsc Ã²cia
Ġser en
Ġabund ants
ĠmÃº tua
Ãº dia
Ġdiver tir
Ġescrip tura
b as
mar a
Ġcompl int
Ġgar atge
ĠcÃ²mp lic
Ġassum it
Ġdecad Ã¨ncia
Ġb atre
enti t
Ġre empla
Ġan alitz
mat erial
Ġgenera da
Ġdesc om
Ġmal bara
Orden aciÃ³
Ġelec tricitat
E vangeli
Ġob e
Ġexcep cions
Ġfant Ãłstics
olÃ²gica ment
Ġpreveu en
ĠSal am
ĠdÃ¨ bil
Ġp ul
ĠA leg
ĠS pr
ili at
Ġma tins
Ġ Ã³
ĠmÃºltip le
ĠC ari
Ġid oni
ĠAnt on
inf o
Ġreutilitz aciÃ³
ok ing
esper at
ĠV ista
ĠPod en
Ġevolu cionat
Ġp ÃŃx
an ul
En ergia
Al fons
Ġtor tura
ĠPr ÃŃncep
Ġ tatu
Ġpun tes
ĠÃ²p tima
od y
ue va
r uc
on cel
Ġt x
Ġju eva
of en
Ġenfron taments
Ġdivi dida
ĠcÃł lid
Ġdific ulta
D illuns
Ġcon vin
Ġser p
Ġnasc uts
Ġtac te
et ti
Ġmad ura
ç ī
ver d
Ġ19 19
Ġprop Ã²sits
ĠrÃł pides
ĠL ac
Ġseguir an
Sal ut
or f
ĠCol Ã²nia
Ġperman ents
Ġron d
ĠAlfons o
le ge
ĠG ri
ĠN Ãº
Ġenginy ers
ol t
Ġnom es
inici aciÃ³
Ġ195 7
ĠVe ter
ĠApro f
Ã¨n yer
ĠF ED
Ġviol Ã¨ncies
Ġinvesti ga
Ġplen itud
Ġe d
Ã¨ri t
avor ir
D ar
Ġ tim
ra ments
Ġalter aciÃ³
Ġdin osau
Ġdis sim
Ġ4 50
AD E
199 5
insc ripcions
ric e
ob ar
obli dar
Ġt emÃłtic
Ġprof es
Ġaut ocar
Ġdesc entr
Ġaconsegu ÃŃ
Ġfaci s
ĠCer vantes
ÃŃ f
expres sar
ĠescÃ¨n ica
ri an
irÃł m
ĠF unda
Ġretir at
intro duir
Ġvig ilar
Ġreflec teixen
en al
ĠD ÃŃ
Ġcomprom esos
Ġimpar teix
ĠcÃ¨le bre
ĠRe dacciÃ³
Ġz o
Ġorigin alment
Ġquad ern
Ġompl ert
Ġmal eta
ĠCor pus
Ġprote Ã¯na
ti gi
Ġcastell ers
Ġprefer eix
enf ons
Ġapas sionant
F es
p unt
Ġtur ista
ĠfÃ²r ums
Ġingres sar
Ġ9 4
Ġneg at
Ġob ren
ex uals
and Ã¨s
expl oraciÃ³
ard Ã³
ĠÐ ¸
Ġpre ferÃ¨ncia
Ġfin anÃ§at
Ġtan quen
Ġ194 4
Ġtin ga
Ġapar car
Ġcarden al
ĠlÃŃquid s
fici entment
Ġconc lo
Ġradic alment
= =
Ġdefens es
ent esa
av asc
tiv ista
Ġende vin
ĠIsi dre
Ġa Ã¨ria
Ġl ÃŃn
Ġp ig
Ġse da
ĠM AT
âĢ¦ âĢ¦
el lets
ad at
Ġexerci t
Ġseri osa
Ġreform ar
ĠAlex andre
Ġp orn
e en
Ġ0 5
ĠÃĢ rea
ĠPri vada
ĠB ap
Ġanal ÃŃ
Ġn ines
ab ra
Ġenginy er
Ãłs tro
ĠÃĴ scar
Ġbutx aques
Ġamb iciÃ³s
Ġresca tar
Ġdel icada
Ġll is
Ġcu iners
Ġcreu er
ĠSob irÃł
ĠP AS
ĠMob ile
ĠAngel es
X V
j es
Ġcar rils
acab en
ĠW ood
ĠBarcelon eta
Ġb elles
Ġta ble
auto estima
Ġpoble t
Ġtel emÃłtica
ÃĴ mnium
atura da
Ġservir an
Ġdes til
Ġtorn s
Ġpertany ents
Ġde pre
Ġarrib aven
ĠPa eria
Ġdivul gar
ĠV ostÃ¨
Ġgener alitzada
Ġestim ats
Ġver ti
Ġconf lu
Ġesmor z
ĠmÃłr tir
Ġform als
Ġset Ã¨
Ġrecord eu
Ġdonar ia
tori als
Ġdinas tia
es ten
Ġanim a
UN D
Ġcontra dicciÃ³
ä ¹
Ã¨r bia
rany able
ĠCan igÃ³
Ġk ms
tar ra
eg oria
pot ser
Ġober tament
Ġdis si
ĠCan Ãłries
interess at
Ġcar peta
Ġobser vant
ĠM Ãłg
Ġdeci di
Ġdro ga
Ġnatur alitat
ĠveÃ¯n als
} .
ĠF alla
Ġr ÃŃt
Ġapro pa
Ġapar enÃ§a
Ġdigital itzaciÃ³
Ġfemen ins
Ġagrup a
Ġestableix en
R I
ĠPar a
Ġnarra cions
Ġexcessiva ment
Ġl ents
ĠSi erra
Ġfam oses
ĠSegu int
Ġnomb rosa
Ġgui ar
Ġconc edeix
Ġben Ã¨
Ġrecla m
Ġenamor at
Ġetique tat
Ġconquer ir
Ġfugi da
E I
ĠRecord o
Ġread ing
ĠD emÃł
f ulla
ĠS ANT
Ġimp ost
Ġins tants
Ġinspi rada
b art
Ù Ĭ
li en
Ġcas eta
ĠRespons abilitat
C i
ĠPl ans
pl ana
Ġceleb rant
Ġtres ors
Ġb os
Ġrell otges
esti mar
ĠRe alment
ĠFranc Ã¨s
ĠEstat uts
la us
Ġ195 8
Ġapro vades
s ant
ĠP Ãłgina
ĠI van
it os
tin i
Ġregist rats
ï¼ Į
esc lat
us ions
ĠPr inc
Ġconsider ant
P I
Ġtrin x
E li
ĠR enfe
ĠEc onÃ²mic
al Ãº
tal isses
ĠSan z
Ġescla tar
Î ¹
Ġm aco
ĠEs tava
Ġmor als
Ġol ors
Ġindemn itzaciÃ³
g ols
f am
ĠSovi Ã¨tica
Ġaband onats
Ġencer tada
ĠM AC
Ġocup ades
d ino
end ent
Ġdos sier
Ġinterna cionalment
Ġarribar em
Ġsolid Ãłries
Ġre viure
ĠP Ãł
Ġo ut
Ġlle u
ĠE C
Ġlla cs
ĠUrb an
Ġrecop il
Ġde ro
ĠB ien
Ġsoci ol
Ġam ist
Ħ ¢
Ġb uta
ĠPro jec
Ġestabl int
\ âĢĻ
ix os
Ġcop ro
Ġad quisi
Ġ194 1
Ġdistin tiu
tre t
Ġpas tana
Ġmel odia
Ġrespectu osa
Ãł udio
Ġins ular
Ġp esa
ĠM and
ita des
enc ant
Ġlid era
ĠJut jat
Ġara g
Ġincid ir
ĠOrganitz aciÃ³
ĠMÃłr queting
Ġac trius
ga z
ĠO bli
Ġvac un
ĠPar ets
Ġtend eix
ĠSols onÃ¨s
ĠR EC
Ġconv oquen
ĠV et
ĠC GT
ĠaÃ¯ llat
Ġpot encia
icar lÃ³
Ġcons ag
am Ã¨rica
Ġ196 1
Ġregula dora
an sietat
Ġdig ni
Ġimmob iliari
vol ta
ĠÃ Ĺ
Ġcuri ositats
Ġpart ÃŃ
fec tivament
Ġmasc le
Ġapos tant
Ġdisfres ses
b et
k en
ic als
Ġlla dres
Ġadver tir
Ãłnd ols
Ġob sol
Ġdist or
obri rÃł
Ġdav allada
Ġpseud Ã²nim
Ġpor tals
gna cio
ĠinÃº til
Ġp ans
ĠÃºltima ment
ĠTec la
Ï Ħ
ien cia
Ġm ÃŃtica
Ġha gis
Ġrep Ã²s
Ġadjud icat
ar te
Ġcan tada
EN S
Ġ ]
Ġcavall ers
Ġconeix eu
ĠPed r
pl ir
Ġcob ren
ĠAl m
Ġhid ra
ha u
Ġab us
ag ent
Ġempres onats
Ġbanc ari
es tres
que jar
Ġmitjan it
ĠB isbe
st Ãºries
Ġof f
Ġdonar em
m ita
Ġfin alitzada
Ġro tl
Ġba talles
impuls ar
Ġhar m
Ġmagatzem s
ĠV ols
ĠK o
ĠEn ergia
Ġescal far
es barjo
ĠA gaf
Ġdefens or
Ġb assa
ĠCar la
Ġemprened or
Ġven j
ĠBla u
A igÃ¼es
Ġpas sions
Ġemo tiu
ĠBot Ãłnic
Ġfrus traciÃ³
Ġcap da
Ġsol dat
int o
Ġdin er
! "
Ġcondem nar
es pany
lic k
ĠFl ores
vi di
ĠCom te
ĠCons ells
Ġtel es
ĠtÃ¨r mica
ĠPeriod istes
Ã¡ Ã±ez
Ġargu menta
Ġclav eguera
ĠCons trucciÃ³
ĠCar re
ĠG is
Ġlla tina
N ou
any Ãł
Ġindisc utible
Ġre vet
ee k
z Ã¡
ul ÃŃ
c entes
Ġsinc ron
Ġrefug iades
at endre
ĠC ET
Ġgiron ins
Ġper t
Ġpoder osa
ĠFon tan
Ġfer mesa
Ġdim i
ad her
Ġcas i
ĠqÃ¼esti ona
Ġfutbol ista
Ġer r
Ġindica da
r ela
ĠB ad
ivis me
Ñ ħ
Ã³rm ula
Ġpass atge
Ġform alment
ss in
Ġlluit en
Ã¨n ic
ĠN Ãłpols
Ġvera citat
Ġestre tament
ves pre
ĠSal om
esp at
Ġmani obra
ĠC eb
ĠP uc
Ġcarreg ada
Ġper p
Ġh ÃŃb
li ps
ĠMun taner
estr als
G ar
l an
nab is
ĠtindrÃł s
Ġesta bles
ĠÐ ½
Ġsucce Ã¯t
P ots
ĠL it
ĠLl otja
ĠRe y
Ġapun ts
Ġincen tivar
Ġs ar
Ġx emen
Ġsuperm ercats
n ant
ĠG rec
ĠV ers
un try
ques a
Ġintro dueix
ass embla
Ġab asta
Ġsec torial
Ã¨ dica
as falt
Ġp antÃł
Ġun ilateral
ĠC CC
ĠD in
acum ulaciÃ³
lus tre
an nex
EN D
Ã¨ct rica
Ġcas at
Ġval ents
ĠAc tiva
ĠFer rocar
Ġbo ig
Ġno ci
Ġsoci oc
Ġtrac tÃ©s
ĠdistribuÃ¯ ts
Ġin acab
Ġan gl
ap un
Ġpat ologia
ĠcomenÃ§ o
Ġclassi ficades
Ġdup lic
met lla
gl ish
Ġgra va
Ġ19 23
Ġam os
Ġserv ici
Ġquad rada
Ġcomp orten
rem is
ÃŃ deo
Ġimp a
Ġquali ficats
ĠRef ugi
ĠF Ãłbrica
ĠEs ter
enll umenat
Ġpos ts
Ġdel iciÃ³s
Ġpr or
Ġactu arÃł
ĠAn ar
estr ella
Ġprogram ada
Ã ¬
ĠM Ãº
Ġtemp taciÃ³
Ġjuga va
as hi
ab Ãºs
Ġcontinu arem
ĠAqu ella
w ing
Ġdes agrada
Ġplas ma
Ġesg la
Ġcorrec cions
le gues
mon d
Ġjo ven
Ġpermet ria
A par
Ġlamenta ble
ĠB anca
Ġimagin ari
Ġmallor quins
on ÃŃ
Ġdispos ava
. ;
ĠJ ack
Per e
Ġcapda vall
ĠH isenda
Ġne f
Ġpopular ment
ĠRo quetes
ĠRo yal
ĠSab em
Ġcar reus
esca cs
Ġinterpreta da
Ġmonar ca
Ġg ota
Ġir ra
on Ãłncia
Ġ193 5
Ġdesg ast
ag rupaciÃ³
G ra
qu eres
Ġinter vingut
Ġdeman o
Ġque do
trÃ²n ic
Ġcab ra
ĠnostÃłl gia
ĠS av
Ġca du
ĠIN F
Ġa udiÃ¨ncia
Ġobser vaciÃ³
Ġcurtmet ratges
Ġx af
Ġsab ÃŃem
ĠX ir
Ãį N
ĠAp ple
Ġa eri
AS A
imp ressiÃ³
Ġdic tat
ĠSall ent
Ãº cia
Inter Ã¨s
autob usos
d et
tu t
Ġpresid eix
Ġmons tres
Alz heimer
ir re
Ġreper cu
tal in
Ġpol ivalent
Ġco titzaciÃ³
atur ats
especi alitzaciÃ³
ass ament
Ġexplic arÃł
aj udes
Ġvac ants
ot os
ĠS ep
Ġedi ficacions
orn ar
Ġag red
Ġge ogrÃłfic
y an
id atge
eny or
Ġoptim ista
B i
ĠTorre dembarra
ĠestratÃ¨ giques
Ġmorta litat
Ġmira va
Ġcop es
Ġpan ells
Ġadver teix
ĠDomÃ¨n ec
Ġsacerd ot
p ic
ĠCa mar
labora tiu
Ġsalv atges
Ġc ivisme
Ġpresid ir
Ġrevel ar
Ġlliga ms
col or
artes ania
Ð ³
ĠO t
Ġbas en
Ġmec Ãłnic
ĠacadÃ¨m iques
b ita
Ġdeix Ãł
Res um
Ġdescar tar
Ġguitar rista
om er
Ġsec reta
Ġvisc uda
Ġconten idor
Ġc all
ĠOri ent
Ġesc ull
Ġresp ost
Ġvost Ã¨s
Ġinquietu d
Ġprecip itacions
Ġandor rana
ĠnÃł ixer
han d
ĠInf Ãłncia
Ġfed eracions
e ib
eg ra
Ġcop sar
Ġmenjar s
de ts
20 20
ĠCerd Ãł
ĠMet ro
Ġcon reus
Ġimpl ÃŃ
Ġpersegu eix
ĠYou tube
Ġmat emÃłtic
imag inari
al fab
Ġ194 3
si onada
ĠN il
Ġregular s
ĠP els
au ra
Ġpar li
Ġbany era
æ ĸ
Ġa ca
on era
Ġm ori
al berg
ĠD ibuix
ĠÂ º
Ġtril ogia
tar t
Ġenten ent
Ġcanta utor
Ġdefen siva
ĠF eu
Es tadÃŃstica
ĠMont siÃł
Ġsolem ne
ĠForca dell
id ores
Ġprogres siÃ³
Ġinform ats
ĠCar dedeu
Ġdeb utar
Ġanterior itat
ĠAss egu
Ġagrup acions
Ġten y
IC E
Ġmallor quina
all y
enti citat
Ġfinal ista
Ġpastiss eria
G o
ĠP it
min ar
equi val
Ġen quad
Ġcat Ãłstro
S M
Ġal e
te dat
ĠR eci
Ġpre gÃ³
Ġentre banc
abs tenciÃ³
ĠE R
rot ecciÃ³
Ġre tall
Ġpropos iciÃ³
Ġsan cion
espec ulaciÃ³
Ġconfigu ren
Ġoportun es
er an
Ġs ust
Dim arts
ĠP ren
Ġviven da
histÃ² ric
Ġlle va
ĠB Ãłr
Ġdistin tes
Ġaplic ades
estr en
Esper em
an z
Ġth at
ac ons
Ar queologia
Ġine quÃŃ
ARCEL ONA
Ġirregular itats
Ġal tura
us se
Ġsup Ã²sit
Ġcob erts
ĠComp ta
Ġcurtmet ratge
Ġco titz
Ġ8 9
i an
Ġaj udi
Ġven im
Ġnota blement
Ġcamb res
Ġc ants
Ġex acte
Ġdes mant
Ġtrac tarÃł
Ġexpli quem
ag ressiÃ³
ĠencapÃ§al ada
r t
Ġ194 2
Ġesca cs
Ġprogres siu
exhib iciÃ³
Ġvina gre
om o
ĠMar y
ĠMal auradament
u ci
Ġsub sidi
Ġpromo guda
habitu al
Ġ ),
esc an
Ġaugment en
ĠDiu en
Ġcap turar
ĠAc tivitat
ĠL or
Ġvertic als
Ġpro visiÃ³
ĠB ella
Ġtind reu
ĠEs pl
instru ments
T ube
Ġlli gades
Ġplan etes
Ġfunda cions
Ġrebaix ar
ĠmÃº tu
Ġmeta f
Ġban queta
ĠComp eti
Ġacla par
Ġin tac
Ġar x
ĠPen al
ĠanÃ¨cd ota
Ġconfess ar
Ġcontinu aran
Ġtreu en
ĠMa ite
Ġvic e
Ġs Ã¨
Ġcor b
Ġdura ciÃ³
ĠAle jandro
Mitj anÃ§ant
Mi quel
ĠLis boa
Ġin tes
Ġco hes
Ġcaram el
Ġser via
Ġass isteix
Ġconform ar
Ġrotl lo
hero i
Î ½
ĠR ull
incid int
ĠRom an
ĠSic ÃŃlia
ix ar
Ġaix o
Ġprogress ista
ĠCar mel
Ġdispos ada
Ġviv Ã¨ncia
á »
ç ļ
El x
Ġsepar ades
ĠE M
Ġajud aran
Ġrecoman at
ÃŃp tic
ä »
9 00
ci ans
ĠT am
Ġfer mentaciÃ³
X avier
ĠC Ã¨sar
Ġpres cin
y le
Ġse ques
ass ociacions
imm oble
ĠindÃŃg enes
Ġes tesa
Ġcal ci
Ġrefre dar
un tu
ĠL and
Ġmic ros
ĠcÃŃv ica
ĠR TV
ĠWh ats
em Ã¨ri
ĠP eix
Ġcon vocats
ern o
Ġassegu rant
w an
ver tit
Ġjogu ina
Ġres tants
enta va
Ġaf us
Ġaf luÃ¨ncia
Ġtram via
ĠBla sco
Ãłn tica
Ġincid ents
Ġempres onat
199 7
ĠÃłl bums
Ġar mats
ss o
Ġsuperior itat
ĠEdu ardo
era tiu
ĠSan itÃłria
ĠFelici tats
Ġint ran
Ġuni forme
Ġesta di
Ġmostra va
M ai
reu ament
Ġconta gi
ĠtomÃł quets
ĠCul turals
a fer
ĠC rim
ab as
Ġoc e
ĠDemocrÃł cia
Ġdec urs
Ar nau
B a
ĠT emple
ĠD er
Es tats
Ġagrada bles
Ġalterna tius
Ġem in
Ġselec cions
ĠElec toral
Ġpres encials
apro par
enfron ta
lustr ar
Ġencar ar
ĠQue da
? âĢĿ.
oss ar
O O
Ġal fab
ON AL
oc ells
Comen cem
Ġacompany ants
er nes
te ta
Ġac orda
ĠJa cin
os an
Ġcom fort
ĠS mart
Ġdifer encial
ĠVic tor
m eric
ĠLou is
Ġintercan vis
H E
re ig
ran cs
Ġpsic Ã²leg
ĠRac Ã³
ĠT Ãºria
Ġprocla mat
Ġpl ou
Ġpol it
A ri
Ġgra f
ore da
itz i
agra Ã¯ment
Ġfacili tarÃł
Ġ194 6
Pro f
P uig
Ġdesenvolup ades
ĠEstat ut
ĠFe ia
T i
ĠS uny
Ġaf lu
Ġad dic
gin e
Ġreconeix ements
Ġcondemn ats
ĠMan olo
ĠBen icarlÃ³
Ġunivers als
ĠOr den
Ġe gip
ita liÃł
hist Ã²ries
ĠCapa citat
em s
Ġrecer ques
Ġenf il
Ġrepresenta va
h l
Ġxi quet
ĠDis ney
ĠA igÃ¼es
Ġcompar tits
âĢ ²
ĠV inc
emo cions
Edit orial
ins on
sc Ã³
Ġde bilitat
esc ri
Ġpu gen
Ġpa tis
ĠMar ÃŃn
Ġfil tres
Ġcomple tes
ĠMad e
Ġmanip ula
Ġro taciÃ³
Ġbal cons
Ġprefer its
Ġe tern
Ġfuncion alitats
pec tes
Ġrod ones
UL T
Estudi ants
ĠGro up
ĠResta uraciÃ³
ri ons
Ġcr uix
rop ologia
Ġ' '
d rem
ĠE rasmus
ĠI lla
Ġassess orar
en llaÃ§os
ent ra
at em
car is
ĠAl emany
ĠMerc edes
Ġbibli ografia
V ull
ec ular
ge ta
pla i
ĠCel oni
ĠD I
ll oc
f l
Ġdestaca ble
Ġac udit
ĠU ll
Ġpresump tes
ĠromÃłn tica
ĠQU E
era bles
Ġx amp
Ġbanc Ãłries
N O
fic ants
ĠPro p
era tiva
Ġimpres sions
Ġhos tes
Ġcam is
Uni vers
Edu ard
ĠAnal ytics
ĠP unta
idat Ãł
ĠN aciÃ³
> >
Ġmon op
ĠcÃł ps
ortun adament
ocup a
Ġa udit
Ġmen jat
ĠPS PV
ĠF en
ĠV o
arc os
em oci
Ġra m
ĠBar Ã³
Ġdol enta
ĠCap devila
Ġar ticular
Ġcam ina
w ell
Ġcon ill
ĠB ones
Ġredu Ã¯ts
ĠMerca dal
Ġhere us
Ġg ots
Ġcontin ents
nat xa
ĠSeg on
orden ades
Ġemp ord
ÃĢ ustria
Ġexpl otar
Ġgastr onÃ²miques
Ġpac k
Ġvergon y
es tats
ĠMar quÃ¨s
ĠPod er
Ġcuri osos
Ġs h
Ġrat lles
Ġ195 5
ĠES T
Alb aida
ĠLeg al
Ġcom tes
ob ren
âĢĿ ),
ĠR ita
Ġpu ta
Ġinter ÃŃ
ĠRec tor
Ġfurgon eta
C L
M e
Ġca vitat
Ġsuper ficial
Ġsuposa va
Ġful let
Ġher Ã¨ncia
lig Ã¨ncies
Ġn us
Ġx il
Ġconsul toria
Ġmantin gui
Llu ÃŃs
B envol
F or
Ġloc alitzat
Ġdespatx os
ed en
Ġapro vats
B o
ĠgrÃł fiques
Ġsimpatitz ants
D av
Ġvalor en
ow een
evid Ã¨ncia
Ġpens ades
Ġmod erada
N orm
Ġllu ir
Ġub icats
Ġb ig
Ġpet jada
ĠA part
Ġan tis
duc te
Ġprec edent
ĠJ x
apro var
ĠTen nis
Ġatribu eix
Ġtru ita
Mon ts
emiss ora
inaugu raciÃ³
G P
Ġper tor
Ġes tra
ri gues
Ġcons orci
tr als
Ø§Ù Ĩ
en atge
Ġins trucciÃ³
Ġam istats
Ġdestin arÃł
Ġderi ven
Ġencer tat
Ġprefer ent
Ġgan ivet
ĠAmp osta
Ġd ÃŃa
Ã³ mac
ĠR al
Ġpa usa
ĠO ne
all unya
Ġgreu ment
Ġin inter
Ġbo us
Ġmajor itari
ĠAc c
Ġpreocup at
b ot
ont ologia
Ġfab ul
ĠMontb ui
u u
Ġmen gen
eib ol
Ġcli mat
amb dÃ³s
in n
Ġan Ãł
Ġac osta
Ġ17 0
en tin
or al
Ġse ients
tad ans
Ġmer escut
Ġpri ori
Ġestran ys
Ġama gats
ti rem
Ġsinc erament
ĠBat ll
Ġsugger eix
Ġf og
ĠB ac
ens enya
Ġgra ti
Ãį S
Ġpancar ta
Ġpromoci onal
Ġbene ficia
Ġm ont
Ġx at
b ella
ĠCal ders
Ġpriva titzaciÃ³
acus aciÃ³
Ġap od
Ġunivers itÃłries
ĠdomÃ¨s tics
ĠMar gar
IF IC
oc eÃł
Ġpropos ades
Ġinver tit
Ġin her
AN Y
Ġexp and
Ġprol etari
t rans
Ġ utili
ĠM ina
Es tar
An dal
Ġpractic ant
ĠMol ta
Ġocupa cional
Ġorgull Ã³s
T o
Ġdes acord
ĠV ig
ĠCom enc
ĠFranc esa
atg eria
eri da
Ġmarc ant
, ,
Ġconven ciment
ĠD A
ĠâĤ¬ ,
ĠViol Ã¨ncia
ĠW ork
Ġender ro
ĠTrib utÃłria
ol iciÃ³
Ġrepar tit
ĠTra ves
Ġcin tes
Ãłl v
ion alment
es fera
esta d
ĠDes car
Ġdeman arÃł
ĠRod oreda
ine a
OM S
Ġcobra ment
ĠJ ussÃł
bil itzaciÃ³
Ġautob i
r ing
Ġl Ãłser
Ġg Ã²tica
tes sin
ĠF E
Ġproc urar
Ġintent o
g ener
Ġest Ã¨tic
Ġpassar em
Ġbat eries
Ġc ÃŃt
Ġcan ad
ĠpolÃŃ gons
Ġtorn in
Ġfre ds
Ġav ent
ĠCal der
ĠRes pecte
Ġperman entment
ĠB ank
ĠF ilip
Ġquedar ia
ĠR evol
Ġgra mÃłtica
Ġfacili ti
li vi
trac taciÃ³
Ġimpuls ors
Ġfron ter
Ġ{ \
Ġn eixen
et z
g essa
ĠP V
ĠGas par
Ġpatrocin adors
blogs pot
Ġal le
ãĢ ģ
itz adors
ĠF ires
m il
ri lla
ir is
ĠF ortun
Ġcons eg
Ġcar is
Ġcur ar
Ġfutbol istes
Ġpres oners
ĠLlen gÃ¼es
Ġess encialment
Ġprocla ma
Ġromand rÃł
ti vi
ĠF ron
zz i
Ġacostu mat
ĠB assa
Ġjudi cis
i blement
ĠM issa
Ġmaj estu
Comen Ã§a
en ni
Ġv ici
Ġinac tives
Â ¨
ad oc
Ġconsidera cions
Ġestre ts
ĠE mb
Ġcar rega
ĠIndepend ent
Ġcomuni taris
is on
Ġmot ll
Ġr al
Ġar xi
y ol
Ġas si
L lic
Ġc inturÃ³
ĠA i
ĠH erm
ĠAn tiga
ES A
Ġprodu eixi
Ġdom inat
Ġincorpor ades
Ġgl uc
Ġintens es
Ġpar en
Ġes tiga
ac tors
OR N
mp lies
Ġir respons
ĠG usta
Ġpro gen
ĠF isi
Ġres tant
ĠpÃŃx els
Ġdivor ci
Ġnorma tiu
assol iment
is tint
Ġpar cials
Ġra ta
pos at
ĠVal le
ev angel
Ġinfer mera
Ġcol p
j an
ĠE qu
Ġesp el
ĠSel ecciÃ³
Ġrecre aciÃ³
ĠPl ani
Ġdib uixa
ves tre
Ġins truc
Ġllegu ms
Ġag rari
Ġreun irÃł
ĠqÃ¼esti onari
OT A
Ġquotidi ans
r istes
Ġab orda
Ġexca vacions
} }
ti cies
ĠM ort
Ġ195 4
Ġesdevin guÃ©
ina ment
ĠLlu Ã§
Ġaux iliars
Ġsub ordin
Ġhor Ãłria
Ġ19 28
Ġan tica
de pera
Ġconnec tats
Ġmeravell es
ĠGai rebÃ©
Ġfemin istes
ĠS mith
ĠDia bles
Ġsegui dament
ĠSu Ã¡rez
Ġcompta bilitat
Ġvuit ena
Ġescal f
Ġg res
ĠM ÃīS
Ġ19 24
Ġpor tin
ĠVer ds
Ġmis ter
ĠBus quets
Ġjap onesos
Ġesbor rar
Ġiogur t
ĠD it
Ġtin guen
ĠCastell Ãł
im at
Ġguany s
ĠRip ollet
ĠMarc os
Ġsomri ures
Ġalco h
ĠcÃ¨n tims
ĠPla ta
ĠCom mons
Ġins up
Ġacredi tar
Ġorden ances
ĠV alla
Ġinter Ã©s
ĠV ega
Ġad ultes
Ġapar caments
ĠRenaix ement
Ġculpa bles
ost el
ĠCas tillo
Ġ/ >
Ġajus tat
Ãł frica
Ġamp lis
Ġrepresenta tives
Ġindic aciÃ³
Ġmosa ic
y ing
re ma
av alu
Ġtri angle
Ġjard ineria
ĠRom ania
Ġmag ni
ĠPropi etat
on arÃł
Ġdenunci en
Ġsorti ran
Record eu
r ÃŃtica
em ental
ten c
camp ada
Ġfia bilitat
ti f
ĠPlan eta
ĠN Ãłstic
Ġinf racciÃ³
Ġofer ia
rot Ã¨c
Ġamp l
Ja ume
Ġmol esta
ĠMa pa
Ġspa m
e arch
pl Ãł
ĠRib Ã³
Ġelectr om
Ġveri ficar
Ġide olÃ²gic
ĠMas car
ĠCons tant
ĠVal or
ks on
l eros
Ġ19 10
ĠCon cepciÃ³
Ġmig raciÃ³
Ġ19 22
Ġag ressiÃ³
ĠBr uc
Ġg enti
itz arÃł
Ġescla us
Ġbiom assa
Ġmol ins
Ġprom etre
ĠPa ges
exerci r
Ġsuscep tibles
ĠM Ãłrius
Ġaf iliats
Ġprac tiquen
ĠprÃ²r roga
Ġpol if
inter essos
ĠdÃ¨ iem
Ġnobles a
dis pla
çļ Ħ
P E
ĠS Ã¡
Ġman res
Ġin ox
rom pre
Ġsign ada
Ġal z
â Ħ¢
el ar
Ġsen tin
ĠBer lin
199 2
Ġdipos itar
li u
Ġmedi cin
Ac tes
edi des
Ġinvesti dura
ĠHistÃ² rica
Ġpol iesportiu
Ġdorm itoris
Ġatra ure
Ġmentres tant
anopar lants
r c
An em
Ġcastell er
M entrestant
Ġal Ã§ades
Ġsan guin
Ġprofund s
Apro f
o quem
ĠFl orida
R et
n Ã©
Ġconc essions
Ġer ig
ĠVen eÃ§
ĠSard enya
r ina
Ġsop rano
l ines
ĠI v
ĠTe am
ĠLeg is
ĠD OGC
Ġfla ma
Ġelec tes
Ġbas tants
incor pora
Ġfr uc
Ġtruc ant
Ġmit ologia
A genda
ĠH il
ĠPl anes
ĠUniversi tats
Ġtrenca closques
Ġalluny ar
ĠB in
Ġpublic arÃł
Ġ194 9
Ġl ux
Ġanomen em
o tat
Ġdem ocra
Ġreflec tit
Ġcap ellÃł
ĠYou Tube
ĠB lo
Ġhom Ã²nim
Ã§ ala
Ġcap ita
ĠGran ados
ng ela
Ġrebaix a
Ġrecip ient
ĠB uf
Ġmanifes ten
Ġtemp estes
ĠTreballa dors
es capa
Ġm ud
Ġar reb
Ġmo gut
Ġprogram ats
p ri
pu ig
ĠCab all
Ġaf l
199 6
ur d
imp osa
ĠW a
Ġgall ec
Ġ erm
ĠA igua
Ġfir mes
Ġsubrat llar
Ġreg ala
Ġi con
ĠR on
Ġcl ÃŃnic
com p
Ġfrac tura
ĠEs tell
ĠGran s
S erÃł
par ar
Ġviat ger
ĠPost grau
ĠLla c
especi alment
v ill
Ġdis cs
ĠRe agrupament
Ġrepar tides
exc ur
Ġdipl oma
Ġmotiv at
ĠM ia
Ġviol oncel
ĠSim on
an ual
ĠT emporada
Ġcomplem entaris
aproxim adament
ĠperÃŃ metre
Ġenerg Ã¨tics
Ġconsta ta
Ġpublic ant
Ġparticip in
expres sa
ĠlÃł mines
ol lida
Ġpre di
ĠLe o
ĠFor Ã§a
Ġdinam isme
Ġvenj anÃ§a
ca ble
per es
ĠRam os
emerg Ã¨ncies
Ġpo us
ĠĠĠĠĠĠĠĠ ĠĠĠĠ
Ġprof essions
ĠCon g
Ġdefin ida
Ġtelevis ions
Ġinno vacions
Ġingres s
Ġcom icis
ĠCom arques
Ġtin guessin
Ġconsecu tiva
Ġproc ura
Ġat ent
Ġvin dran
Ġeng egat
ĠRa y
ĠOn line
Ãºrg ic
T rans
ot h
di us
Car les
Ãłc tica
D em
er ns
ĠF ire
Ġcap aces
En trada
ar ran
ĠC le
ment Ãłria
tu ro
av anÃ§ar
Ġbas tir
Ġtransmet en
Ġmul tes
ti ra
ĠâĢ º
Ġdeix aran
Ġvin guin
aug mentar
b u
ada da
av entures
amp liar
ph one
entusias me
B ona
eix ida
ed s
Ġcaus ant
Ġtro feu
Ġdesf eta
Ġenvas os
Ġcar xof
Ġdu ta
Ġhum it
ĠMin istre
ĠC RE
tiv at
ĠpartÃŃ cip
Ġre vertir
Ġca bles
Ġen rera
ĠM ola
ĠAn ys
P ort
Ã¨n iques
Ġser ralada
Ġd otacions
Ġdispos aven
labora tiva
Ġresum ir
Ġatre ure
Ġ3 65
Ġcatal anista
ET S
equipa ments
Ġb ien
Ġsepar en
ĠEL S
labor adores
ĠFÃł bre
Ġs emÃł
ĠA u
urr Ã¨ncia
P r
ri citat
ĠS ofia
ĠH and
Ġcomb inant
Ġmultina cionals
ĠcadÃł ver
ĠVeneÃ§ uela
B ank
ĠG EN
ĠV AL
Ġacab aria
Ġcaigu des
ĠPar es
Ġbar ata
ĠGin ebra
Ġlleg iu
Ġtes tament
Ġrevel aciÃ³
Inf ant
edic te
Ġparla ven
Ġcompeti tius
! ),
Ġri tuals
esp lai
Ġurg Ã¨ncies
Ġsegu ides
Ġcoll ons
Ġcom a
de fin
Ġresid eix
Ġpersegu ir
gam ans
ĠC is
Ġrepresenta tius
Ġimpossi bles
v ens
ĠS C
ĠF lo
Ġpos tals
Ġest ricte
Ġmas siu
Ġpremis sa
Ġbo icot
identi ficar
c ana
Ġsot mesa
x x
Ġtra Ã§
Ġdiss et
Ġpromou en
f u
Ġenlla Ã§ar
Ġhero i
c ast
m Ã³n
Ass ump
ĠEspa is
ĠBB VA
Ġsub t
ĠPP C
ĠTV E
inicia tives
ad s
ev o
ÑĢ Ðµ
Ġpres encia
Ġveg in
ĠAn Ãłlisi
Ġrebut jat
Ġequilib rat
Ġexpor tacions
Ġlac tÃłncia
ĠAr ticle
A le
Ġp irÃłm
Ġbi olÃ²gic
Ġenri quid
a usteritat
Ġg los
ĠB M
Ġib Ã¨rica
Ġt ony
Ġcent ren
Ġrecep tor
IS S
) ...
Ġtreball arÃł
redi ent
Ġbusca va
et y
Ġatemp tat
vi ew
Ġmor en
Ġveter Ãł
Ãº lies
dam unt
agra ir
ĠMal al
Ġm eg
Ġpros tituciÃ³
J A
Ġmedi oc
Ġcelebra va
ĠCat Ã²lica
ÃŃm ia
ĠPort o
ĠPle gamans
Ġd ites
ĠTa vernes
ĠBen jam
ĠAndre a
s oci
Ġimp rÃ¨s
hes ter
36 6
ĠTecn olÃ²gic
u eta
ĠIn tegra
UR S
Ġconserva dors
ĠS tra
ur ÃŃem
Ġdescon eixement
Ġrigor Ã³s
Ġrestric ciÃ³
Alz ira
O bres
Ãłr dies
Ġgaran tint
ĠBlan ques
Ġ âĢĻ
Ġan otar
Ġlleg eixo
integ rar
es tra
ĠVi etnam
ar queologia
Ġdesf avor
Ġra mb
Ã³ l
ĠGu any
2 50
Ġpal Ã¨s
Ġevolu cionar
ĠF Ã³rmula
Ġcanvi arÃł
F ran
ad ÃŃs
Ġan Ã©s
T or
Ġp imes
Ġgra ella
Ġsoci alitzaciÃ³
Ġresp irat
Ġtren cant
ĠRÃł pita
Ġmad uraciÃ³
Ġpet ons
ĠAM B
in osa
ĠC icles
Ġg ri
di cionalment
Ġdeix alles
Ġra igs
Ġapar ador
ĠLe Ã³n
at urar
ĠW EB
AD ES
ĠSuc cessiÃ³
i ant
ĠDom in
audio vis
ĠCons ta
Ã©n cia
Ġtit ella
Ġcuri osament
Ġlog o
Ġgall ina
Ġenc endre
Ġpublici taris
Ġconegu in
ĠSeg riÃł
espectac ular
Ġexpl or
ĠProduc tes
an ell
ol aciÃ³
Ġdesa fi
Ġsetman ari
Ġg em
Ġinform al
Ġti quets
Ġenregist rar
Ġelectr Ã²niques
ĠAugu st
M ira
ran ys
Ãłn gel
ĠAl ber
ĠCol lege
Ġesdevin gui
Ġgarant eixen
on do
erm o
Ġp ells
Ġcor ba
Ġlleg im
ĠÐ ¾
an as
us et
ĠF allera
Ġbi olÃ²gica
dol id
y r
ĠMet ges
v ing
ĠFals et
Ġre edi
Ġb eu
Ġimp ot
ĠCam ins
end rem
Ġadequ ar
Ġpass eja
Ġcontinu ava
ER N
Ġmulti plic
ĠI ES
Ġsen tint
D ues
Ġdes tres
neg re
ĠCient ÃŃfic
ĠCull era
Ġac on
Ġequ ita
Ġcon duÃ¯t
enseny ar
Ġates es
ĠN ep
ub le
rÃŃc ola
Ġrib era
ĠSantan der
Ġbaix em
ĠOn tinyent
Ġdi etes
Ġ19 26
ĠMed alla
ĠNat ur
Lle i
Ġrum ors
Ġin adequ
ĠCo okies
Ġcorrespon gui
to re
ĠMari ona
Ġpod rÃ©
ĠSeny ora
ĠC AN
Ġ195 2
Ġtub s
Ġespl endor
ĠTol osa
ĠPedr olo
Ġen Ã§Ãł
Ġar mat
ER M
Ġobten int
Ġamp les
Ġac ar
ub s
Ġproteg ides
Ġtrepitj ar
Ġneolib eral
eric o
Ġline al
Ġ Ø§ÙĦ
Ġc allar
Ġpass eu
Ġnecess iteu
ĠanÃ²nim a
Ġfotoc Ã²pia
Ġpiss arra
un id
Ġseg ment
ĠCon venciÃ³
op edag
Ġpresen tin
Ġc ing
ĠVir tual
ĠV ac
ĠMoss Ã¨n
ĠD ri
ub ert
Ġpropor cions
dom Ã¨s
IB I
" ;
n u
Ġdes viar
Ġ195 3
obli ga
Ġatrib uÃ¯
Ġd ens
Ġurban ÃŃstics
it Ã¨s
Ġass isti
Ġnaveg adors
d ites
Ġpl oure
Ġprop erament
ĠBes alÃº
Ġmagist ral
Ġsob irÃł
el aciÃ³
to rets
Ġde tencions
ag ents
Ġafec te
Ġ( -
Ġequi vocat
Ġcomenta va
Ġrecop ilaciÃ³
Ġdeleg acions
Ġda urat
ro ts
Ġfot ogra
Ġsubstitu eix
Ġse d
Ġvalu Ã³s
Ġfa tal
Ġcarreg ats
Ġpronunci at
Ġsens orial
Ġascens or
Ġpun tualment
Ġaerop orts
ĠLluÃ§ anÃ¨s
EN A
Ġress altar
ĠAut Ã²n
ĠmamÃŃ fers
Inter pretaciÃ³
Ġprevis ible
Com par
ĠalgÃº n
ĠReix ac
m ia
ãģ ®
c ont
Ġexecu tat
Ġmig rants
IT Z
Ġarquitect Ã²nica
avasc ript
Ġqu Ã©
ĠPlan as
Ġcinemat ogrÃłfic
Ġcull era
dre ta
Ġoc Ã³rrer
Ġfor ti
ĠCon gressos
Ġcine asta
Un itat
Ġcompleix i
Ġcoloni al
Ġmarca des
ĠSegu eix
obri ment
Ġ19 25
Ġra onament
ĠLl uch
ta m
im i
ĠN E
Ġgol ej
Ġprohib eix
ab at
per siÃ³
Ġali anÃ§a
Ġinven tat
Ġimpl icacions
Ġpic ant
Ġdes mes
Ġapar ent
ex e
ĠI L
Ġsens ors
ĠPer met
ĠPed rera
ĠC ros
am olls
min aciÃ³
Ġautor itzats
Ġimper me
Ġpos es
Ġmillor en
Ġbloque jar
Ġconstitu ent
itz adora
Ġgen oll
Ġdes in
Ġbra sa
escolar itzaciÃ³
m ira
Ġtra ure
ĠM oto
end aris
!! !!!
ĠFam iliar
Ġpres ses
Ġmotoci cle
ta ula
Ġmister iÃ³s
Ġbat lle
ĠPeriod isme
vi o
Ġefec tives
ĠUs uaris
Ġmaltrac tament
Ġa tesa
ĠDi oces
Ġsag rat
\ '
emb ol
ĠP ego
Ã¨r cits
Franc esc
ca va
Ġprojec ta
Ġexp ediciÃ³
U l
Ġim minent
19 39
p ans
Ġac Ãºstica
Ġins ul
lu cin
Ġclic ant
Ġcrem allera
epis odi
Ã³ m
Ġal ls
ĠM E
in eres
Ġin tra
ĠB oti
emp ar
Ġreb em
Ġadm Ã¨s
autog overn
P oc
ĠF ir
ĠCass Ãł
Ġent ranyable
Ġarrib ats
ĠÂ °
Ġmix ta
ĠTec hn
A prenentatge
ad eu
Ġmost rarÃł
Ġapar t
Ġviol ents
Ġten or
Ġsol vÃ¨ncia
esc ultor
let xes
ap as
Ac cÃ©s
Ġpertin ent
c c
ĠF ord
Ġindirec ta
ĀĀĀĀĀĀĀĀĀĀĀĀĀĀĀĀĀĀĀĀĀĀĀĀĀĀĀĀĀĀĀĀ ĀĀĀĀĀĀĀĀĀĀĀĀĀĀĀĀĀĀĀĀĀĀĀĀĀĀĀĀĀĀĀĀ
= "
ĠM ON
ĠL y
il es
Ġor als
Ġespera ven
ĠmÃłs ters
ĠBi om
ĠCada quÃ©s
Ġincre Ã¯bles
ĠHab itatge
ĠRes ulta
ĠEns enyament
rÃ²p olis
ĠCre iem
Ġplas mar
Ġ19 21
Ġprior itzar
ĠT ir
Ġcad et
ĠCon tes
Ġc ota
ĠCoordin aciÃ³
vi als
Ġcar gol
Ġesc assa
Ġevid Ã¨ncies
Ex p
Ġde mag
ĠA viat
ass ot
Ġtamb e
Ġo ients
Ġdetermin en
Ġinsc rites
ĠTol edo
Ġsep ul
en for
eg ades
Ġgl uten
Ġpion ers
ĠclÃłus ula
od os
Ġtem or
ge d
Ġafirma va
Ġcontund Ã¨ncia
Ġâ Ī
Ġreci c
Ġbas ar
Ġtransvers als
mb ur
Im atge
icÃ²p ter
Ã ĳ
ĠJer oni
hab ita
Ã²graf s
hu ana
Ġcar pa
Ġcin emes
ĠPa per
AR D
Ġhid ro
ĠA fers
Ġvuln eraciÃ³
Ġcorpora cions
Ġfla uta
Ġaman ida
Ġcafe teria
Ġprolifer aciÃ³
Ġp iu
ĠMar Ã§al
Ar tur
ĠCal vo
ĠMon tal
Ġafirma cions
O rigen
Ġd rÃłs
Ġbon dat
Ã¨m ica
am an
re tar
di b
Ġsegu iu
Ġfavor its
Ġevolucion ant
ĠIde al
Ġpert oca
an irÃł
Ġpres enti
ĠCa Ã±
Ar ran
Ġpens ats
Ġtel esc
Ġmor ÃŃ
Ġpoem ari
esc en
Ġintrodu int
p p
ob e
Entre vista
ä¸ Ń
Ġdisminu eix
Ġex trac
Ġexpos itors
ĠdidÃłc tiques
Ġengany ar
Ø ³
ci ents
Ġfos cos
ĠRec up
Ġencan tats
v ul
op er
Ġmen jant
Ġbaix en
Ġinqui e
interpre tar
Ġfantas ma
indic al
Ġpac tat
Ġoli ves
ĠI gnacio
Ġrealitz i
In depend
Ġrepresenta tiva
Ġvil es
Ġpropici ar
g Ã¼
Ġdes ocupaciÃ³
Ġcr ua
Ġobjec tiva
Ġprotes tar
Ġpropor cional
R T
Ġurban itzacions
g ora
Ġdes lli
Ġpob la
ka di
ĠIn nova
ĠAr b
exp liquen
Ġun Ãłnim
c eres
ri ller
Ġher b
Ġflor als
Ġsubrat lla
Ġar res
Ġdra mÃłtic
Ġcerca dor
mun tana
Ġenfron tament
Dav id
ar ena
Ġpas toral
ĠCons tan
Ġpreci oses
Ġmusul mana
Ġlleg ia
Ġanim ats
Ġpal esa
ĠĠĠĠĠĠĠĠ ĠĠĠ
Ú ©
Ġco ordina
Ġtrans f
Ġpas tors
ĠAd olesc
Ñģ Ðº
ĠO m
En g
ĠValenci anes
Ġconvida da
ĠdidÃłc tics
Ġjub ilats
Ġar gentÃŃ
Ġmon ogrÃłfic
ĠPR O
Ġresid uals
an itx
ĠFemen ÃŃ
bl anca
ĠJ avascript
Ġsorti en
ĠTrin itat
Ġ19 27
ĠfrÃł gil
Ġclaveguera m
g aran
qu ali
is m
Ġapro pia
Ġexpl os
Ġconsecu tius
Ġmascl istes
di e
ĠB uda
Ġsucc essor
at ologia
tal ia
ass eny
ession al
ĠterratrÃ¨m ol
Ġlla min
ĠComp et
ĠperiÃ² diques
ĠLin ux
Ġrecon ci
an ge
ĠE ix
Ġseg regaciÃ³
Ġag ricultors
her ba
Ġm im
Ġat mosfera
imp ostos
âĨ Ĳ
Ļ Ĥ
as ter
Ġcor tes
d Ã©
Ġll uÃ¯
int erac
Ġculmin ar
af a
ĠÃ¨ tics
Ġrelacion en
ĠÙ ħ
si bles
Ġcor als
Ġap tes
Ġrecom pens
Ġvinc ulant
ress or
ĠclÃŃ niques
" ...
ĥ ¥
is quen
Ġsobre pass
ĠJoaqu ÃŃn
on aris
ti ven
Ġai res
ĠpÃ¨ ls
ma i
Ġconsolida da
Ġs ans
Ġdispos arÃł
Ġcap damunt
af ar
ĠPla za
Ġd aurada
la pse
ĠG la
Ġarrib aran
Ġsu ficientment
ĠAng lada
c ula
ci tÃłnia
di um
vis ible
Ġboni ficaciÃ³
ĠSus anna
Ġdesn onaments
; }.
Ġexc lo
gar a
V ine
Ġquar antena
ĠJ udi
h ard
Ġbar alla
Ġcu ir
ĠLea gue
la bo
tan is
ĠG reu
Ġllarg met
nis tia
Ġandor rÃł
ĠD ies
Ġfl uÃ¯
ind ustri
Em ergÃ¨ncies
Ġr uix
ĠMa estrat
esde venir
Ġfals os
j ust
ot en
Ġtrob alles
Ġjub i
Ġdocum entada
Ġasi Ãłtic
Ġpassad issos
Ġreci clar
ĠEn trada
Ġinterac tiu
si ficaciÃ³
Ġsol edat
Ġali at
Ġcore ografia
Ġinfec cions
j ard
Ġs uro
Ġsobre c
Ġsol apes
oo oo
Ġinconven ients
ĠD illuns
Ġar te
Ġarrib o
ĠArt ÃŃstic
Ġmenj adors
thumb na
ĠC ENT
Ġassign at
Ġadver tit
Ġtau leta
f urt
ĠEs par
Ġbas ÃŃlica
ĠRa Ãºl
ĠAz nar
B iblioteca
Ġ( âĢ¦)
ĠPer alada
Ġdetec ta
Ġdes truc
Ġtra Ã§a
Ġlle idatÃł
osten ible
Ġdim onis
Ġnegu it
Atl Ã¨tic
Ġv oca
Ġcaus ats
vergon y
tu Ã³s
or ciÃ³
Ġnadal enques
h ÃŃ
ia ciÃ³
Ġten dres
Ġimp unitat
Ġpropos ada
Ġto x
Ġpreten siÃ³
Ġsub minist
ÃĢ lex
Ġfl an
Ġenc etar
Ġi ra
ĠV era
Ġdeleg ada
Ġmis teris
Ġbu ides
Ġrend ir
Ġparticular itats
ĠØ ¨
Ġabsur d
ĠCrea tive
al ternativa
ĠP robablement
ed Ã²nia
Ġuni form
ĠSanta mar
Ġced its
Ġfomen tant
gu ai
Ġtur c
ĠBert ran
as il
Ġman d
Ġpot Ã¨ncies
Mus eu
Ġben edicciÃ³
Ġrem em
Aut onomia
Pos teriorment
[ âĢ¦]
Ġpers ever
end ar
Ġsu ec
Ġ195 1
ĠSo und
Ġprimordi al
ins pec
Ġseny era
opa tia
Ġpel i
ĠEn horabona
Ġins ults
Ġform ades
Ġtan cant
eta s
Ġconegu i
ĠcontrovÃ¨r sia
ë ĥ¥
Ġimp ul
Ġpropos ats
Ġsignifica tivament
Ġenlla Ã§a
Ï Ĥ
Ġh egem
vers aciÃ³
Ġcrom os
ëĥ¥ ëĥ¥
C la
P ress
ic cions
ĠP ower
Ġpre dic
Ġval er
Ġfemen ines
ĠFlor Ã¨ncia
Ġsimpa tia
Ġdeix aven
Ġti res
ard ia
Ġned ar
Ġcre ient
Ġgra cies
Ġtir at
Ġmic rÃ²
Ġca ient
V iu
ix ent
Ġfib res
C COO
Ġcons istÃ¨ncia
gen era
h imne
cas tell
Ġrefer eixo
ĠGu ti
Ġenvol tats
ĠSor tida
ĠMaj ors
Ġen y
ĠM B
Ġprol ong
ĠD onar
Ġdenom inat
Ġe b
ĠAl ÃŃcia
Ġprofession alment
Ġmasc ota
Ã²gra fa
Arrib a
AC C
Ġadap tacions
Ġdesocup ats
ĠC AL
ass ab
ge tes
op eracions
Ġclaus ura
ĠCal drÃł
Ġex istit
ass e
Ġacus ar
Ġcap vespre
AV E
Ġcoincid it
Segu im
Ġballar ins
un eixen
Ġpes at
ĠEmp reses
itualla ment
ĠC OP
ĠS P
labor adora
Ġag osar
Ġgaran tit
Ãł til
Ġpu ig
Ġman eig
ĠZel anda
ĠG N
Ġdesp leg
ĠdemocrÃłtica ment
ĠS Ã³
Ġdisting eix
Form aciÃ³
Ġalien es
I v
Ġsens a
emb urg
ĠautÃ²ct ona
ĠLoren zo
end s
å ¹
Ġan irÃ©
AR R
Ġassegu rances
Ġenf ilar
ĠNi vell
! âĢĿ.
fi quem
Ġdubte u
ĠPer manent
Ġent errat
Ġus ant
Ġpertany ent
ester ol
ĠsuÃ¯ cidi
es truc
ĠGo ya
ĠRod rigo
Ġinnoc ent
Ġperpe tu
ĠJ ordÃł
Ġmes qu
Ġin sig
ĠT ens
ĠCom as
ĠRib ag
Ġconsol idant
ĠMedi eval
Ġxer rar
Necess ites
ota des
Ġembarass ada
e du
Ġvol ts
Ġ19 13
Ġaf ins
Ġprefer eixen
Ġcapa citaciÃ³
vi ments
Ġpret emporada
Ġetique ta
institu cions
re am
Ġb if
ĠM OL
ĠPi quÃ©
har monia
Ġen du
Ãłn dia
aix eca
b la
Ġmotiva cions
Ġgaran tida
Ñ Ĩ
Ġfuncion ant
Ġmis sions
Ġaprof item
Ġcompor tat
ENT S
Ġinterp el
Ï ģ
er res
in isme
acol liment
ĠIn troducciÃ³
Ġsor olls
Ġenll u
Ġher eu
ĠJa ime
Ġimmill orable
Ä ±
ul d
ĠAr ti
Ġgal Ãłx
Ġva gues
Ġ( âĢĺ
Ġgen oci
ĠOr tiz
ĠPh ilip
Ġraj oles
Ġbarreg en
Ġmal etes
Ġhipot eca
Ġdes enllaÃ§
Ġgarant eixi
Ġrespectu Ã³s
Ġne w
Ġestim ulant
Ġda us
ĠA T
ĠHel ena
Ġrecom pte
Ġfuncion i
ĠDesta ca
ĠLluÃ¯ sa
etis me
V e
Ġpu ri
Ġtal ents
Ġexc losos
Ġidenti ficats
Ġ$ .
Ġcons istir
Ġda ma
Ġmari huana
R Ãł
ĠH id
ĠC y
ĠFran ja
ĠCec ÃŃlia
ĠD ES
ĠF ritz
ĠComp te
on ja
eu tament
Ġpen jant
ĠMas ter
Ġobstac le
c ola
Ġe ixamp
et c
ĠPas siÃ³
B e
P roc
Ġregist rades
ĠB ARCELONA
Ġtit ulats
Ġestruc turat
x if
estre ta
Ġprior itari
Ġcorn isa
S ovint
ĠCamb ridge
ĠcÃłn nabis
U AL
Ġm urals
it ora
Ġali ances
ĠTar adell
ĠencapÃ§al at
Ġf lash
Ġpressupost Ãłries
eu c
Ġpos aven
rar es
ĠÃ ĵ
Ã²s t
ĠTerritori als
ar et
ĠP ica
organitz acions
ĠEmp rened
Ind Ãºstria
naugu raciÃ³
ci as
ess orat
Ġvac una
Ġdorm itori
Ġopera tius
Ġmi res
Ġaband ona
ĠFortun y
Ġcan tat
min i
Ġenorm ement
ĠRespons able
ant ÃŃ
Ġdes interess
ĠEc onom
Ġvideoj oc
Ġt om
Ġacab Ãł
Vis ita
anti cisme
ĠValla dolid
Ġ errades
ass oci
ĠMon ti
ĠEst her
ĠGerm ans
ac tius
Ġquan tia
Ġdom inaciÃ³
zz o
at leta
Ġpos tures
Ġextraordin aris
re vÃ©s
as tes
Ġcl or
Ġten gui
escalf ament
c Ãłnica
Ġnoti cies
Ġdocum entar
r un
om ociÃ³
ia c
ĠB erta
ĠPu erto
Ġpres um
ĠCar ol
ĠaromÃł tiques
emes ÃŃ
ĠK at
Ġtaul ell
Ġinter ro
Ġcul tiva
An Ãłlisi
Ġllumin Ã³s
ĠD onald
ab und
enc ert
Ġdisseny ades
ĠS oc
Ġelabor ades
Ġvide os
Ġrecti ficar
Ġpers istent
Ġcomple ts
Ġrecla mant
Ġpsic Ã²loga
Ġimagin at
Ġalliber at
Ġesqu ema
f y
ĠRe fer
ucar istia
in ci
Ġcol esterol
Sc ript
Ġpar Ã¨n
vis me
Ġmultina cional
âĢĻ âĢľ
ĠC oca
65 1
empa tia
ĠCastel let
ĠU SA
ĠW ag
Ġdesper tat
Ġdesaper ceb
U nes
min o
Ġsur tin
ide al
Ġinteg rals
Ġguard onats
ĠO bama
En ginyers
Ġemb otits
ĠColom er
Ġsint onia
Ġadsc rit
mo re
lustra dor
Ġalcal dessa
ĠcÃŃv ics
Ġinunda cions
ĠZ a
ĠPra ga
ĠU p
Ġcomplem entari
Ġpartid ari
ãĢ Ĥ
k al
ĠIn n
Ġaconsegu ia
Ġqueix ar
Ġdesig nar
Ġpatr ona
Ġperill oses
si ler
Ġcat Ã²lics
Ġmis sion
equ itat
voca cia
mel Ã³
ĠCristÃ² fol
Ġop inar
Ã²s tics
ex portaciÃ³
Ġactu alitzacions
ĠCh icago
inf lu
or ren
tr ats
ĠJo vent
Ġdistan cia
Ġpre fix
Ġest Ã¡
Ġgen uÃ¯
ĠBurg os
ĠE co
Ġmani obres
Re ad
an em
an goixa
ĠÃł mplies
om ana
Ġcamp aments
Ġexpl ora
Ġali ena
Ġ eres
enci ant
Ġmanten ia
EM A
Ġf allar
Ġper si
ver de
ĠH D
ĠO ut
ĠOb rera
Ġno vena
te ja
Ġcu ines
ĠTÃ¨c niques
u tats
ĠLlu is
r ÃŃa
ar reg
aut ocar
Ġinde f
Ġrevolucion aris
Ciu tat
Ġpredis posiciÃ³
Ġde por
us h
ĠM it
Ġentre gat
Ã©n dez
Ġgro gues
ĠC ine
ĠTra muntana
Ġarquitect Ã²niques
Ġres ign
Ġcre ieu
ĠC ra
anomen en
Ġexperim enta
ĠtÃ¨x tils
ÑĤ Ðµ
Ġali ens
Ġmagist rat
ÃŃ acs
ĠTur ull
Ġcig ar
Ġun d
Ġ19 12
Ġven uts
A U
Ã²g n
in ador
Cons id
A metlla
j Ã³n
Ġdim oni
ĠexplÃŃ cita
Ġin grÃ©s
int on
Ġven edor
Ġa fers
Ġl um
Ġtony ina
ĠS port
Ġha guem
Ġmon ges
UN YA
ĠFre e
ĠHen ry
ĠEn ciclopÃ¨dia
Ġmad uix
ĠSaf or
Ġcom et
rim onis
In terna
ĠrÃ¨ p
Ġafavoreix en
E ts
ĠV Ã¡zquez
Es plai
Ġentra va
ĠTar rÃ©s
af avorir
ĠTor r
Ġhor talisses
estr atÃ¨
Ġdescar ta
leros i
ĠmÃł gics
Ġcompon dre
I ma
Ġper dem
Ġt Ãº
Ġag ricultura
âĢĵ .
Ġorienta des
Ġman dra
at eria
ex cep
ĠMo is
Ġred ist
Ġagro alim
ĠProvÃŃn cia
ĠBof ill
P O
tin al
ĠLl ÃŃria
Ġcont ro
ĠM Ã¡r
ĠEs ca
Ġpens e
Ġresp ir
omp le
ĠA cadÃ¨m
Ġman ga
ura ment
Ġmagn ÃŃfics
Ġd ren
Ġpr Ã²s
Ġdescob ertes
ess en
ej eje
Ġprecip itaciÃ³
Ġin ges
ĠA us
Ġsin ergies
Ġenregist rat
Ġbag atge
ic on
Ġsi guis
Ġpen ja
ĠRecord s
ĠSuny er
Ġcom ens
Ġin des
Ġcap sa
Ġmar xes
ĠPac ÃŃfic
t z
Ġpu b
Ġpob ra
automÃ²bil s
Ġal ev
Ar b
ĠLuc as
ĠGuim erÃł
Ġan go
Ġcons istirÃł
min g
ib er
ĠSal vat
Ġaccep ten
Ġdiagnos i
ĠB ast
Ġap osten
eri ment
ĠBÃłr bara
Ġdes dob
Ġdem Ã²crates
Ġtras plan
Ġmeravell oses
inven tar
Ġparado x
P as
car rer
Ġsol ista
ĠW o
Ġocasi onar
h ns
tu rem
titz a
Ġimpuls or
Ġesqu emes
ĠElis abet
va c
ĠÃłnim es
Ġadm irar
ĠIsa ac
ĠPartici pa
Ġh Ãłg
ĠS ky
acab i
ĠlÃŃn ea
s ols
Â ł
ren al
Ġdisc ussions
ĠQuin tana
Ġinox idable
Ġcap elles
Ġron des
ĠGaran tia
ĠLlen gu
Ãº quer
ĠBar n
Ġretribu cions
Ġencap Ã§ala
Ġplan tat
ĠFin ances
Ġindirec tament
Ġmo cions
ov ÃŃ
Ġreb ia
Ġexpos ada
ĠH TML
Ġtruc s
f eus
ul in
ĠJ ar
Ġes tius
Ġent rÃł
Ġmantin dre
mir all
ĠcÃłn on
fÃ¨ ric
Ġsab Ã³
Ġexplic o
Ġqued Ãł
Ġbarra ques
Ġsupos aria
U ll
i tives
ĠL ad
Ġcompar tides
T ur
m y
Ġguany adores
Ġenganx at
F I
Ġdesp lega
ĠÃŃn teg
Ġac usa
Ġcons tel
Ãłr regues
Ġexper ta
Ġadjun tem
Ġmeridi onal
ĠT E
Ġcos ir
apar tament
ĠtÃ¨cnica ment
ĠexplÃŃ citament
D S
ĠM am
ĠJ ones
ess es
ĠMar ca
Ġcondi ciona
m iento
ti cisme
enfron ten
U V
Ġsan ejament
uf era
Ġfla mes
H ostal
Ġcol omb
ĠH eu
Ġad Ã©u
Ġmal bÃ©
Ġcri dant
Ġdesta quem
Ġcomand ant
ĠTeat ro
an ni
Ġin us
ĠManten iment
Ġf is
Ġexc essiu
f ores
Ġvin y
ĠCort Ã©s
Ġdif on
d ins
Ġin gen
anta da
Ġconver ti
ĠAss ocia
ĠO ficina
Ġconeix es
ĠEx tre
Ġno ces
era dors
Ġespor Ãł
Ġmasc les
el ats
Ġseg ells
Ġviol ent
Dis posem
ĠCr ÃŃtica
Par al
Ġvigil ant
er is
or xador
Ġen ginyeria
ec onom
f s
h ola
Ġre posiciÃ³
Ġcon forma
Ġdi lu
ig ar
Ġins eguretat
ĠterapÃ¨u tic
ĠConstant ÃŃ
ĠmolÃ¨c ules
S in
Ġgener ats
Ġ19 11
Ġw e
Al m
ĠFer rat
[...]
