{"<s>":0,"<pad>":1,"</s>":2,"<unk>":3,"<mask>":4,"!":5,"\"":6,"#":7,"$":8,"%":9,"&":10,"'":11,"(":12,")":13,"*":14,"+":15,",":16,"-":17,".":18,"/":19,"0":20,"1":21,"2":22,"3":23,"4":24,"5":25,"6":26,"7":27,"8":28,"9":29,":":30,";":31,"<":32,"=":33,">":34,"?":35,"@":36,"A":37,"B":38,"C":39,"D":40,"E":41,"F":42,"G":43,"H":44,"I":45,"J":46,"K":47,"L":48,"M":49,"N":50,"O":51,"P":52,"Q":53,"R":54,"S":55,"T":56,"U":57,"V":58,"W":59,"X":60,"Y":61,"Z":62,"[":63,"\\":64,"]":65,"^":66,"_":67,"`":68,"a":69,"b":70,"c":71,"d":72,"e":73,"f":74,"g":75,"h":76,"i":77,"j":78,"k":79,"l":80,"m":81,"n":82,"o":83,"p":84,"q":85,"r":86,"s":87,"t":88,"u":89,"v":90,"w":91,"x":92,"y":93,"z":94,"{":95,"|":96,"}":97,"~":98,"¡":99,"¢":100,"£":101,"¤":102,"¥":103,"¦":104,"§":105,"¨":106,"©":107,"ª":108,"«":109,"¬":110,"®":111,"¯":112,"°":113,"±":114,"²":115,"³":116,"´":117,"µ":118,"¶":119,"·":120,"¸":121,"¹":122,"º":123,"»":124,"¼":125,"½":126,"¾":127,"¿":128,"À":129,"Á":130,"Â":131,"Ã":132,"Ä":133,"Å":134,"Æ":135,"Ç":136,"È":137,"É":138,"Ê":139,"Ë":140,"Ì":141,"Í":142,"Î":143,"Ï":144,"Ð":145,"Ñ":146,"Ò":147,"Ó":148,"Ô":149,"Õ":150,"Ö":151,"×":152,"Ø":153,"Ù":154,"Ú":155,"Û":156,"Ü":157,"Ý":158,"Þ":159,"ß":160,"à":161,"á":162,"â":163,"ã":164,"ä":165,"å":166,"æ":167,"ç":168,"è":169,"é":170,"ê":171,"ë":172,"ì":173,"í":174,"î":175,"ï":176,"ð":177,"ñ":178,"ò":179,"ó":180,"ô":181,"õ":182,"ö":183,"÷":184,"ø":185,"ù":186,"ú":187,"û":188,"ü":189,"ý":190,"þ":191,"ÿ":192,"Ā":193,"ā":194,"Ă":195,"ă":196,"Ą":197,"ą":198,"Ć":199,"ć":200,"Ĉ":201,"ĉ":202,"Ċ":203,"ċ":204,"Č":205,"č":206,"Ď":207,"ď":208,"Đ":209,"đ":210,"Ē":211,"ē":212,"Ĕ":213,"ĕ":214,"Ė":215,"ė":216,"Ę":217,"ę":218,"Ě":219,"ě":220,"Ĝ":221,"ĝ":222,"Ğ":223,"ğ":224,"Ġ":225,"ġ":226,"Ģ":227,"ģ":228,"Ĥ":229,"ĥ":230,"Ħ":231,"ħ":232,"Ĩ":233,"ĩ":234,"Ī":235,"ī":236,"Ĭ":237,"ĭ":238,"Į":239,"į":240,"İ":241,"ı":242,"Ĳ":243,"ĳ":244,"Ĵ":245,"ĵ":246,"Ķ":247,"ķ":248,"ĸ":249,"Ĺ":250,"ĺ":251,"Ļ":252,"ļ":253,"Ľ":254,"ľ":255,"Ŀ":256,"ŀ":257,"Ł":258,"ł":259,"Ń":260,"Ġd":261,"es":262,"en":263,"Ġa":264,"Ġde":265,"Ġl":266,"er":267,"Ġp":268,"ta":269,"Ġc":270,"qu":271,"ar":272,"el":273,"Ġi":274,"ci":275,"Ġs":276,"an":277,"on":278,"re":279,"or":280,"Ġla":281,"Ġm":282,"al":283,"un":284,"Ġqu":285,"Ġel":286,"âĢ":287,"ti":288,"Ã³":289,"Ġque":290,"ent":291,"âĢĻ":292,"Ġt":293,"at":294,"Ġf":295,"Ġv":296,"Ã©":297,"om":298,"Ġper":299,"os":300,"in":301,"Ġen":302,"ol":303,"Ġun":304,"ra":305,"Ġn":306,"is":307,"Ãł":308,"ciÃ³":309,"Ġdel":310,"Ġes":311,"ri":312,"em":313,"Ġh":314,"Ã©s":315,"res":316,"ic":317,"tat":318,"mb":319,"da":320,"ro":321,"Ġal":322,"Ã¨":323,"it":324,"ÃŃ":325,"Ġles":326,"Ġse":327,"Ġcom":328,"ons":329,"ia":330,"ĠC":331,"ix":332,"gu":333,"Ġre":334,"la":335,"Ġamb":336,"ment":337,"Ã²":338,"ec":339,"Ġels":340,"ques":341,"ot":342,"as":343,"Ġin":344,"Ġb":345,"us":346,"ant":347,"Ġg":348,"Ġno":349,"aciÃ³":350,"ĠP":351,"le":352,"Ġcon":353,"Ġo":354,"ir":355,"ĠE":356,"Ġuna":357,"Ġpro":358,"va":359,"Ġe":360,"li":361,"ca":362,"ĠA":363,"ĠS":364,"ĠM":365,"ur":366,"Ġha":367,"Ġva":368,"Ġca":369,"Ġdi":370,"ĠL":371,"tal":372,"ul":373,"ĠÃ©s":374,"tes":375,"si":376,"ts":377,"Ġdes":378,"di":379,"tu":380,"oc":381,"era":382,"te":383,"tar":384,"ob":385,"Ġpar":386,"ĠmÃ©s":387,"ad":388,"Ġj":389,"Ġ(":390,"Ġ1":391,"tan":392,"il":393,"cia":394,"Ã§":395,"Ġdels":396,"als":397,"ĠB":398,"Ġan":399,"eix":400,"itat":401,"ter":402,"ica":403,"ĠT":404,"Ġ2":405,"ĠD":406,"mp":407,"Ġaques":408,"Ãº":409,"Ã¨n":410,"ona":411,"et":412,"up":413,"ran":414,"od":415,"ell":416,"Ġser":417,"orm":418,"cions":419,"itz":420,"Ġac":421,"Ġtot":422,"emp":423,"bl":424,"ver":425,"eu":426,"ig":427,"ĠF":428,"ada":429,"Ġex":430,"ĠG":431,"ost":432,"ac":433,"ĠR":434,"id":435,"any":436,"Ġcomp":437,"ens":438,"tin":439,"eg":440,"um":441,"ist":442,"ria":443,"im":444,"ut":445,"Ġres":446,"..":447,"ab":448,"ors":449,"Ġrec":450,"Ġll":451,"fer":452,"ats":453,"Â·":454,"Ġmol":455,"ĠV":456,"Ã¨ncia":457,"ĠI":458,"du":459,"Ġr":460,"ass":461,"ĠEl":462,"ĠJ":463,"ents":464,"ĠâĢ":465,"Ġfa":466,"ins":467,"ici":468,"all":469,"Ġcons":470,"tic":471,"Ġesp":472,"entre":473,"vi":474,"Ġta":475,"tr":476,"Ã³n":477,"ves":478,"00":479,"ĠN":480,"El":481,"Ġpod":482,"Ġfer":483,"Ġsi":484,"Ġpre":485,"Ġpres":486,"rim":487,"rÃł":488,"oci":489,"Ġar":490,"Ġseu":491,"ss":492,"Ġtra":493,"tant":494,"bre":495,"Ġcap":496,"ana":497,"par":498,"ans":499,"tra":500,"ge":501,"mbÃ©":502,"ora":503,"cion":504,"des":505,"Ġpers":506,"ĠCa":507,"ari":508,"ÃŃs":509,"Ġhi":510,"Ġten":511,"de":512,"obre":513,"Ġvi":514,"ades":515,"ĠLa":516,"Ġob":517,"Ġpos":518,"Ġseva":519,"me":520,"ys":521,"op":522,"ĠU":523,"ven":524,"Ġmolt":525,"Ġmat":526,"âĢĿ":527,"na":528,"Ġals":529,"Ġpel":530,"tres":531,"Ġens":532,"Ġaquest":533,"ma":534,"Ġpr":535,"og":536,"ill":537,"ort":538,"ed":539,"tament":540,"pos":541,"01":542,"Ġdis":543,"ĠperÃ²":544,"tor":545,"ha":546,"tiu":547,"tats":548,"Ġcar":549,"ers":550,"ili":551,"Ġpu":552,"arc":553,"Ġpa":554,"ina":555,"ĠâĢľ":556,"ord":557,"Ġparti":558,"ess":559,"Ġsobre":560,"Ġma":561,"Ġcas":562,"Ġja":563,"jec":564,"una":565,"ex":566,"Ã§a":567,"tica":568,"pr":569,"ones":570,"Ġimp":571,"Ġvol":572,"Ġform":573,"Ġaix":574,"car":575,"Ã¯":576,"Ġnost":577,"les":578,"ĠtambÃ©":579,"Ġprim":580,"ga":581,"per":582,"Ġaquesta":583,"iu":584,"alitz":585,"Ġvan":586,"form":587,"egu":588,"reb":589,"ya":590,"eb":591,"Ġpass":592,"enta":593,"Ġter":594,"rec":595,"tÃł":596,"ĠEs":597,"alitat":598,"rob":599,"ĠEn":600,"rib":601,"end":602,"Ġentre":603,"ub":604,"Ġcol":605,"Ġseg":606,"gra":607,"tiva":608,"siÃ³":609,"ĠH":610,"blic":611,"iÃ³":612,"vol":613,"Ġesc":614,"pl":615,"Ġpot":616,"cies":617,"fic":618,"ble":619,"Ġman":620,"ve":621,"ĠPer":622,"Ġhan":623,"Ġnom":624,"ista":625,"lar":626,"La":627,"Ġon":628,"Ġ201":629,"ĠsÃ³n":630,"pa":631,"Ġcos":632,"Ġanys":633,"duc":634,"av":635,"Ġpl":636,"ĠĠ":637,"ep":638,"Ġinter":639,"aques":640,"se":641,"ita":642,"orn":643,"tiv":644,"Ġcre":645,"ten":646,"ĠCatal":647,"ener":648,"Ġtreb":649,"Ġfins":650,"...":651,"Es":652,"au":653,"Ġgran":654,"Ġtrob":655,"Ġmar":656,"cip":657,"Ġcan":658,"alment":659,"quÃ¨":660,"Ġ3":661,"Ã¨s":662,"uc":663,"tre":664,"Ġlli":665,"Ġ19":666,"urs":667,"ure":668,"Ġtemp":669,"Ġsoci":670,"ni":671,"enti":672,"Ġdia":673,"til":674,"Ġ\"":675,"ota":676,"qui":677,"Ġsol":678,"gui":679,"Ġmateix":680,"ura":681,"Ġsup":682,"gun":683,"Ġem":684,").":685,"am":686,"ants":687,"Ġass":688,"Ġfin":689,"int":690,"Ġdon":691,"tura":692,"pi":693,"Ġins":694,"ament":695,"Ã¼":696,"gi":697,"ĠperquÃ¨":698,"),":699,"arÃł":700,"Ãºs":701,"min":702,"essi":703,"Ġpol":704,"Ġtots":705,"Ġor":706,"rer":707,"Ġcor":708,"gut":709,"via":710,"prÃ©s":711,"unya":712,"Ġquan":713,"Ġmes":714,"ĠO":715,"Ġsens":716,"tir":717,"arcel":718,"Ġtreball":719,"Ãłn":720,"Ġrep":721,"fici":722,"esc":723,"ges":724,"hi":725,"Ġpart":726,"atge":727,"Ġmill":728,"urant":729,"Ġciu":730,"Ġpor":731,"Ġap":732,"ai":733,"Ġsegu":734,"ĠCatalunya":735,"Ġfet":736,"Ġrel":737,"ola":738,"titu":739,"Ġad":740,"ĠMar":741,"Ġconc":742,"Ġdifer":743,"ĠCom":744,"vers":745,"Ġab":746,"ren":747,"jun":748,"Ġni":749,"gan":750,"En":751,"rat":752,"ics":753,"lo":754,"Ġmen":755,"leg":756,"tivitat":757,"ĠestÃł":758,"Ã²ria":759,"itj":760,"rup":761,"arcelona":762,"Ġgu":763,"Ġseus":764,"vis":765,"ema":766,"Ġcal":767,"Ġx":768,"ĠAl":769,"itu":770,"Ġ-":771,"Ġho":772,"ug":773,"Ġpersones":774,"ÃŃn":775,"Ġesta":776,"Ġveu":777,"Ġdem":778,"Qu":779,"Ġvis":780,"Ãłria":781,"Ġestat":782,"Ġmun":783,"esti":784,"ĠaixÃ²":785,"eti":786,"Ġcada":787,"Ġtan":788,"cional":789,"Ġlloc":790,"Ġsense":791,"enci":792,"dor":793,"ĠBarcelona":794,"ments":795,"Ġcatal":796,"Ġent":797,"Ġpublic":798,"Ġset":799,"Ġaltres":800,"ĠtÃ©":801,"rar":802,"Ġtin":803,"Ġmo":804,"Ġprojec":805,"its":806,"Ġinc":807,"Ġtal":808,"Ġli":809,"ĠIn":810,"rem":811,"embre":812,"fec":813,"ular":814,"ena":815,"ric":816,"eri":817,"Ġme":818,"Ġcomen":819,"Ġprof":820,"Ġcontra":821,"Ġarrib":822,"taciÃ³":823,"ing":824,"pec":825,"Ġ4":826,"Ġdos":827,"isme":828,"Ġinform":829,"ella":830,"eny":831,"Ġfe":832,"Ġemp":833,"ĠÂ":834,"iciÃ³":835,"Ġpob":836,"ĠquÃ¨":837,"ĠX":838,"Ġval":839,"met":840,"Ġsor":841,"erra":842,"Ġnec":843,"tius":844,"Ġgener":845,"Ġaqu":846,"Ġco":847,"ĠNo":848,"Ġve":849,"Ġtran":850,"Ġtant":851,"ud":852,"ui":853,"Ġpun":854,"Ġcontin":855,"Ġtemps":856,"aix":857,"ĠpÃº":858,"ret":859,"ement":860,"ĠÃ":861,"tim":862,"Ġqual":863,"ert":864,"ĠdesprÃ©s":865,"ls":866,"Ġquals":867,"ĠSant":868,"vern":869,"Ġjo":870,"ula":871,"cara":872,"ĠEls":873,"Ġprimer":874,"reu":875,"Ġav":876,"Ġmanera":877,"ores":878,"Ġdurant":879,"fi":880,"eci":881,"ganitz":882,"teri":883,"Ã¨ncies":884,"ĠpolÃŃ":885,"Ġdeix":886,"âĢ¦":887,"mÃŃ":888,"Ãłs":889,"Ġ5":890,"Ġdirec":891,"acions":892,"dic":893,"ĠUn":894,"que":895,"Ġalgun":896,"ja":897,"Ġhem":898,"altres":899,"Ġserve":900,"tiques":901,"men":902,"cab":903,"ĠnomÃ©s":904,"pany":905,"bles":906,"Ġoc":907,"Ġsal":908,"Ġus":909,"Ġmitj":910,"oni":911,"ilitat":912,"osa":913,"Ġdesc":914,"Ġproc":915,"Ã²n":916,"Ġpla":917,"Ġmillor":918,"Ġveg":919,"Ġver":920,"ĠaixÃŃ":921,"ĠAques":922,"ells":923,"Ġperson":924,"Ġmal":925,"Ġpo":926,"Ġti":927,"Ġcul":928,"Ġcomun":929,"Ġera":930,"istes":931,"tac":932,"Ġben":933,"Ġdiferents":934,"Ġara":935,"ĠJo":936,"ori":937,"Ġdu":938,"juntament":939,"Ġra":940,"nes":941,"aran":942,"īs":943,"Ġdir":944,"Ġhist":945,"Ġtrac":946,"ag":947,"Ġreg":948,"Ġw":949,"Ġfun":950,"Ġgrup":951,"ont":952,"overn":953,"ries":954,"Ġfor":955,"ĠQu":956,"Ġactu":957,"Ġsitu":958,"aris":959,"ap":960,"inc":961,"ard":962,"Ġaut":963,"ho":964,"Ġsec":965,"Ã²m":966,"gua":967,"Ġencara":968,"ĠAn":969,"Ġtrans":970,"emb":971,"Ġforma":972,"fica":973,"Ġvida":974,"Ġmom":975,"incip":976,"esta":977,"Ġveure":978,"cid":979,"ll":980,"anes":981,"anc":982,"ĠbÃ©":983,"empre":984,"eixen":985,"bor":986,"Ġte":987,"Ġcr":988,"Ġpoder":989,"Ġrealitz":990,"tics":991,"atre":992,"xa":993,"Ġ200":994,"Ġseves":995,"ns":996,"lia":997,"quip":998,"Ã¨c":999,"versi":1000,"ural":1001,"Ġet":1002,"plic":1003,"ĠmÃ³n":1004,"ib":1005,"Ġ6":1006,"Ġespeci":1007,"Ġproduc":1008,"truc":1009,"Ġam":1010,"olog":1011,"ador":1012,"sa":1013,"Ġtenir":1014,"Ġaf":1015,"Ġcel":1016,"Ġcamp":1017,"Ġciutat":1018,"Ġdef":1019,"han":1020,"Ġprincip":1021,"Ġprogra":1022,"Ġcent":1023,"oca":1024,"ĠCon":1025,"Ġsab":1026,"tis":1027,"endre":1028,"Ġuns":1029,"ou":1030,"ines":1031,"Ġsub":1032,"Ġpassat":1033,"Ġnou":1034,"Ġtres":1035,"ĠmÃł":1036,"Ġnostra":1037,"Ġpossi":1038,"Ġpeti":1039,"Ġnostre":1040,"Ġrecup":1041,"por":1042,"Ġsempre":1043,"and":1044,"Al":1045,"eta":1046,"uro":1047,"Ġfot":1048,"Ġinf":1049,"Ġim":1050,"Ġprimera":1051,"Ġbar":1052,"Ġsin":1053,"Ġlle":1054,"oll":1055,"Ġofer":1056,"ien":1057,"Els":1058,"mes":1059,"oria":1060,"ixer":1061,"âĢĿ.":1062,"Ġhavia":1063,"anda":1064,"entaciÃ³":1065,"envol":1066,"Ġcla":1067,"Ġcurs":1068,"Ġtorn":1069,"Ġnov":1070,"Ġacab":1071,"Ġsenti":1072,"ser":1073,"Ġtotes":1074,"Ġest":1075,"evol":1076,"tad":1077,"tives":1078,"resa":1079,"ĠÃº":1080,"Per":1081,"tilitz":1082,"etat":1083,"Ġprojecte":1084,"Ġmunici":1085,"aquest":1086,"vid":1087,"ida":1088,"Ġparticip":1089,"anta":1090,"Ġcer":1091,"Ġbas":1092,"Ã§ar":1093,"Ġpas":1094,"envolup":1095,"ĠCons":1096,"Ãłr":1097,"ĠCar":1098,"ĠCas":1099,"Ġactivitat":1100,"ĠDe":1101,"emes":1102,"Ġop":1103,"jar":1104,"Ġmaj":1105,"Ġqui":1106,"Ġdiss":1107,"Ġec":1108,"ne":1109,"Ġpens":1110,"Ġint":1111,"Ġnostres":1112,"ĠĠĠĠ":1113,"Ġpropos":1114,"Ġdivers":1115,"tants":1116,"uÃ¯":1117,"tell":1118,"Ġorganitz":1119,"Ġmoment":1120,"ars":1121,"Ġpoden":1122,"raciÃ³":1123,"lec":1124,"tudi":1125,"Ġpels":1126,"Ġmod":1127,"uciÃ³":1128,"rada":1129,"Ġdies":1130,"edi":1131,"ov":1132,"xim":1133,"ĠLl":1134,"tit":1135,"alla":1136,"utilitz":1137,"Ġdoc":1138,"ĠLes":1139,"rip":1140,"atges":1141,"Ġcanvi":1142,"Ġimpor":1143,"guin":1144,"Ġri":1145,"ust":1146,"onsegu":1147,"ru":1148,"Ġju":1149,"cat":1150,"Aques":1151,"Ġvaig":1152,"Ġsetm":1153,"Ġhab":1154,"Ġdonar":1155,"aquesta":1156,"cs":1157,"laciÃ³":1158,"Ġany":1159,"Ġcop":1160,"Ġceleb":1161,"entar":1162,"Ġtota":1163,"he":1164,"ĠpÃºblic":1165,"onÃ²m":1166,"ies":1167,"ĠÃīs":1168,"Ġmin":1169,"Ġrepres":1170,"esa":1171,"Ġdesenvolup":1172,"Ġapro":1173,"sos":1174,"Ġdues":1175,"Ġjun":1176,"Ġsocial":1177,"avant":1178,"Ġ9":1179,"ĠPar":1180,"Ġz":1181,"Ġref":1182,"lla":1183,"ĠW":1184,"Ġ7":1185,"ull":1186,"ĠVal":1187,"Ġweb":1188,"Ġloc":1189,"Ġ8":1190,"adors":1191,"Ġllar":1192,"Ġresp":1193,"dre":1194,"ĠDes":1195,"Ã²g":1196,"Ġedi":1197,"ĠDi":1198,"teix":1199,"Â»":1200,"qÃ¼":1201,"dar":1202,"Ġtar":1203,"âĢĿ,":1204,"est":1205,"Ġto":1206,"Ġ10":1207,"blica":1208,"Ã¡":1209,"Ġgent":1210,"ession":1211,"Ġpoc":1212,"mar":1213,"Ġ18":1214,"Ġtenen":1215,"ĠK":1216,"dia":1217,"Ġresul":1218,"vÃ©s":1219,"ĠpublicaciÃ³":1220,"Ã³s":1221,"lus":1222,"terior":1223,"vell":1224,"ĠinformaciÃ³":1225,"Ġcontinu":1226,"igu":1227,"ĠRe":1228,"ols":1229,"Ġcasa":1230,"Ġaconsegu":1231,"Ġtrobar":1232,"dors":1233,"!!":1234,"if":1235,"reg":1236,"Ġqualsevol":1237,"Ġprop":1238,"anÃ§":1239,"ologia":1240,"Ajuntament":1241,"eres":1242,"Ġneg":1243,"Ġnova":1244,"Ġelec":1245,"Ġpermet":1246,"ĠtravÃ©s":1247,"ÃŃc":1248,"Ġdins":1249,"Ġacc":1250,"gl":1251,"Ġaquests":1252,"Ġdar":1253,"Ġcosa":1254,"ient":1255,"Ġdavant":1256,"atura":1257,"ĠGener":1258,"ber":1259,"ĠfamÃŃ":1260,"Ġcont":1261,"Ġdispos":1262,"Ġbl":1263,"Ġgovern":1264,"Ġsigui":1265,"Ġanar":1266,"Ġcl":1267,"Ġaj":1268,"Ġestan":1269,"erci":1270,"Ġresta":1271,"ĠÃł":1272,"Ġexc":1273,"Ġsist":1274,"ES":1275,"000":1276,"Ġllen":1277,"eria":1278,"Ġabans":1279,"ĠSal":1280,"citat":1281,"esp":1282,"Ġmost":1283,"ira":1284,"Ġmolts":1285,"versitat":1286,"rica":1287,"los":1288,"Ġnecessi":1289,"ĠPro":1290,"var":1291,"ĠSi":1292,"ules":1293,"Ġhe":1294,"Ġrefer":1295,"Ġ15":1296,"pus":1297,"Ġfinal":1298,"ĠTa":1299,"ĠâĢĵ":1300,"Ġgra":1301,"osaltres":1302,"ron":1303,"Ġbaix":1304,"Ġutilitz":1305,"ĠÂ«":1306,"able":1307,"tors":1308,"Ġpunt":1309,"Ġpartir":1310,"ĠAr":1311,"ĠAix":1312,"Ã¨ixer":1313,"aut":1314,"Ġexper":1315,"Ġapar":1316,"Ġdades":1317,"Ġcu":1318,"Ġven":1319,"ĠPerÃ²":1320,"Ġespany":1321,"Ġprofession":1322,"ĠserÃł":1323,"dis":1324,"pe":1325,"Ġrecupera":1326,"ranc":1327,"elles":1328,"pend":1329,"Ġsig":1330,"iv":1331,"Ġall":1332,"ĠMa":1333,"cal":1334,"Ġreb":1335,"Ġvam":1336,"Ġserveis":1337,"estiÃ³":1338,"minist":1339,"Ġbon":1340,"Ġmet":1341,"ava":1342,"umen":1343,"Ġconeix":1344,"rom":1345,"Ġdec":1346,"Ġbanda":1347,"Ġnecess":1348,"Ġhum":1349,"Ġllibre":1350,"els":1351,"Ġvegada":1352,"Ġlleg":1353,"labor":1354,"Ġarribar":1355,"Ġas":1356,"Ġconf":1357,"uts":1358,"Ġescol":1359,"lex":1360,"Ġro":1361,"ogra":1362,"Ġprobl":1363,"Ġag":1364,"Ġide":1365,"Ġmunicip":1366,"cil":1367,"Ġprem":1368,"Ġexemp":1369,"Ġ20":1370,"tori":1371,"jectiu":1372,"Â´":1373,"dat":1374,"ĠcatalÃł":1375,"icaciÃ³":1376,"omen":1377,"Ġsetmana":1378,"Ġclar":1379,"nos":1380,"eren":1381,"Ġactivitats":1382,"ros":1383,"pres":1384,"reta":1385,"arra":1386,"iss":1387,"umnes":1388,"ots":1389,"ĠmÃºs":1390,"Ġmant":1391,"Ġconsid":1392,"Ã²s":1393,"Ġalg":1394,"ĠJos":1395,"Ġtipus":1396,"ĠGu":1397,"anÃ§a":1398,"ral":1399,"ures":1400,"Ġcontr":1401,"ĠhistÃ²ria":1402,"Ġpat":1403,"ĠtÃ¨c":1404,"com":1405,"Ġporta":1406,"ions":1407,"aud":1408,"Ġrela":1409,"19":1410,"ĠprÃ²":1411,"Ġcentre":1412,"ducaciÃ³":1413,"Ġhores":1414,"vor":1415,"iter":1416,"rets":1417,"Ġgrans":1418,"Ġcompar":1419,"voc":1420,"Ġpresid":1421,"201":1422,"Ġempres":1423,"Ġserv":1424,"iÃ¨ncia":1425,"Ġprom":1426,"Ġ12":1427,"Ġjug":1428,"Ġposar":1429,"Ġsegons":1430,"anya":1431,"Ġunes":1432,"ficaciÃ³":1433,"Ġservei":1434,"nica":1435,"gin":1436,"Ġescri":1437,"art":1438,"ĠpaÃŃs":1439,"Ġpropi":1440,"Ġaltre":1441,"olÃ²g":1442,"ual":1443,"ĠLle":1444,"Ġbona":1445,"ĠUni":1446,"Ãłncia":1447,"Ġfan":1448,"tals":1449,"ĠJoan":1450,"sions":1451,"bilitat":1452,"ĠeconÃ²m":1453,"Ġdiu":1454,"ĠsinÃ³":1455,"Ġmer":1456,"plica":1457,"of":1458,"Ġrespec":1459,"pu":1460,"Ġpoble":1461,"hom":1462,"Les":1463,"Ġciutad":1464,"gat":1465,"ecciÃ³":1466,"Ġdisc":1467,"ulta":1468,"panya":1469,"Ġinteress":1470,"icia":1471,"Ġaltra":1472,"eraciÃ³":1473,"ordin":1474,"Ġmenys":1475,"Ġestar":1476,"af":1477,"quen":1478,"Ġaquestes":1479,"Ġcoses":1480,"Ġequip":1481,"gar":1482,"itats":1483,"Ġjoc":1484,"gn":1485,"Ġmili":1486,"ero":1487,"ĠgrÃł":1488,"ern":1489,"ĠVi":1490,"ĠAmb":1491,"enc":1492,"Ġpartici":1493,"Ġagra":1494,"Ġrespons":1495,"rÃłc":1496,"Ġrecon":1497,"Ãłg":1498,"Ġdin":1499,"sc":1500,"Ġimportant":1501,"Ġcapa":1502,"lic":1503,"Ġespec":1504,"In":1505,"Ġalguns":1506,"aqu":1507,"Ġfil":1508,"onar":1509,"\".":1510,"Ġprograma":1511,"gon":1512,"Ġmus":1513,"depend":1514,"Ġfavor":1515,"ril":1516,"Ġnorm":1517,"Ġfut":1518,"Ġtotal":1519,"Ġcri":1520,"Ġfaci":1521,"ĠUna":1522,"uda":1523,"Ġqualitat":1524,"Ġterme":1525,"ĠSer":1526,"entat":1527,"Ġpri":1528,"Ġmoltes":1529,"embla":1530,"Ġalumnes":1531,"Ġna":1532,"ĠJa":1533,"ĠprocÃ©s":1534,"Ġ[":1535,"Ar":1536,"Ġgeneral":1537,"An":1538,"inter":1539,"bli":1540,"dica":1541,"Ġhom":1542,"tubre":1543,"orre":1544,"bres":1545,"rir":1546,"Ãłries":1547,"ĠpolÃŃtica":1548,"Ġguany":1549,"Ġpassar":1550,"duca":1551,"ĠTambÃ©":1552,"gues":1553,"ĠCol":1554,"assa":1555,"Ġsistema":1556,"Ġat":1557,"ĠprÃłc":1558,"erar":1559,"actu":1560,"ltim":1561,"vat":1562,"ciona":1563,"Ġrecord":1564,"Ġtel":1565,"emÃł":1566,"Ġgaud":1567,"Ġconver":1568,"Ġsuport":1569,"Ġestudi":1570,"ociaciÃ³":1571,"ĠsÃŃ":1572,"ĠAquest":1573,"ĠPla":1574,"ÃŃt":1575,"Ġmateixa":1576,"ĠCal":1577,"Ġllarg":1578,"Des":1579,"II":1580,"Ġexplic":1581,"Ġcarrer":1582,"onom":1583,"rig":1584,"ĠMon":1585,"ĠPa":1586,"Ġmi":1587,"Ġinici":1588,"unda":1589,"iment":1590,"hora":1591,"Ġsegle":1592,"Ġsom":1593,"jo":1594,"erm":1595,"nic":1596,"Ġfam":1597,"Ġcli":1598,"rera":1599,"Ġmai":1600,"imp":1601,"ĠcomenÃ§ar":1602,"Ġ17":1603,"tia":1604,"Ġavui":1605,"uros":1606,"Ġcat":1607,"Ġdesp":1608,"Ġnat":1609,"rac":1610,"teg":1611,"Ġil":1612,"Ġmor":1613,"ER":1614,"isi":1615,"Ġpersona":1616,"cer":1617,"Ġdeman":1618,"Ġtracta":1619,"Ġcondi":1620,"gia":1621,"taris":1622,"Ġcomple":1623,"Ġzona":1624,"Ġ,":1625,"Ġlla":1626,"Ġcompany":1627,"Ġhaver":1628,"ĠsituaciÃ³":1629,"Ġxar":1630,"Ġvalor":1631,"ine":1632,"vesti":1633,"Ġdif":1634,"ritori":1635,"Ġdona":1636,"Ġdefin":1637,"ĠformaciÃ³":1638,"tru":1639,"Ġmica":1640,"Un":1641,"itzaciÃ³":1642,"ĠlÃŃ":1643,"pia":1644,"Ġbus":1645,"Ġtradi":1646,"Ġnosaltres":1647,"ĠcÃłr":1648,"oma":1649,"irc":1650,"Ġpartit":1651,"Ġobli":1652,"asc":1653,"Ġ|":1654,"Ġquatre":1655,"acte":1656,"ĠmÃºsica":1657,"Ġmanten":1658,"Ġvost":1659,"und":1660,"\",":1661,"Ġtreballa":1662,"unci":1663,"tada":1664,"Ġren":1665,"Ġtempor":1666,"aria":1667,"Ġfent":1668,"Ġfill":1669,"issiÃ³":1670,"Ġur":1671,"lu":1672,"Ġtenim":1673,"Ġtur":1674,"Ġpen":1675,"Ġpersonal":1676,"Ġacom":1677,"vin":1678,"ordi":1679,"Ġdecid":1680,"Ġpodem":1681,"arem":1682,"Ġmon":1683,"Ġinstal":1684,"Ġpossible":1685,"posiciÃ³":1686,"terna":1687,"vant":1688,"Ġnivell":1689,"Ġmeu":1690,"Ġbo":1691,"ements":1692,"Ġtind":1693,"tot":1694,"ĠConsell":1695,"Ã¨r":1696,"cionals":1697,"ĠTot":1698,"Ġ16":1699,"ÃŃstica":1700,"ĠÃ¨":1701,"ĠcamÃŃ":1702,"Ġ14":1703,"Ġvisi":1704,"ris":1705,"Ġsentit":1706,"urÃł":1707,"Ġfes":1708,"opular":1709,"Ġetc":1710,"Ġfem":1711,"Ġdefens":1712,"Ġsocietat":1713,"ĠGeneralitat":1714,"mat":1715,"30":1716,"Ġgai":1717,"Ġmig":1718,"essiÃ³":1719,"ĠfÃł":1720,"Ġinterna":1721,"ĠsegÃ¼":1722,"irÃł":1723,"Ġprepar":1724,"dres":1725,"Ġtall":1726,"Ġexemple":1727,"Ġsembla":1728,"ĠAquesta":1729,"tural":1730,"activitat":1731,"ecn":1732,"Ġsocials":1733,"ĠpÃłg":1734,"Ġleg":1735,"ĠMun":1736,"ĠCan":1737,"ĠconÃ¨ixer":1738,"Aquest":1739,"tida":1740,"ĠBar":1741,"Ġmentre":1742,"ode":1743,"Ġdones":1744,"acc":1745,"octubre":1746,"Ġuni":1747,"isc":1748,"eca":1749,"Ġdist":1750,"alitzaciÃ³":1751,"ĠJosep":1752,"uns":1753,"rers":1754,"Ġestr":1755,"pren":1756,"Ġinten":1757,"Ġmateri":1758,"ĠSoci":1759,"Ġsen":1760,"apar":1761,"retat":1762,"Ġenti":1763,"ÃŃem":1764,"Ġdiversos":1765,"Ġefec":1766,"ĠPal":1767,"pon":1768,"Ġeduca":1769,"cis":1770,"ĠUniversitat":1771,"Ġsetembre":1772,"Ġreun":1773,"Ġprofess":1774,"Ã§os":1775,"xes":1776,"ĠMan":1777,"Ġfeina":1778,"Ġmarc":1779,"st":1780,"Ġmesos":1781,"Ġ13":1782,"Ġsota":1783,"oli":1784,"Ġ/":1785,"omb":1786,"Ġsa":1787,"fia":1788,"ĠaquÃŃ":1789,"erca":1790,"ides":1791,"Ġdeixar":1792,"equip":1793,"val":1794,"ion":1795,"antil":1796,"Ġlec":1797,"uls":1798,"anÃ§ant":1799,"Ġprodu":1800,"Ġpresident":1801,"ĠEuro":1802,"ĠforÃ§a":1803,"ĠVall":1804,"alta":1805,"Ġnens":1806,"ĠÂ¦":1807,"Ġsent":1808,"Ġ30":1809,"uit":1810,"Ġdret":1811,"tures":1812,"tur":1813,"ĠrelaciÃ³":1814,"Ġdesta":1815,"ĠhistÃ²":1816,"udi":1817,"ata":1818,"enes":1819,"No":1820,"Ġcaus":1821,"Ġsegona":1822,"aigua":1823,"Ġconjun":1824,"ĠfamÃŃlia":1825,"Ã±":1826,"let":1827,"IC":1828,"ano":1829,"abte":1830,"ursos":1831,"Ġcirc":1832,"Ġconegu":1833,"Ġell":1834,"unt":1835,"Ġtri":1836,"onomia":1837,"Ġind":1838,"gual":1839,"Ġproductes":1840,"Ġdiverses":1841,"Ġparticipar":1842,"Ġ25":1843,"Ġmaig":1844,"illa":1845,"Com":1846,"Ġrealitat":1847,"Ġjorn":1848,"vien":1849,"Ġespai":1850,"ok":1851,"Ġindepend":1852,"ĠediciÃ³":1853,"Ġ2018":1854,"Ġnovembre":1855,"orta":1856,"liol":1857,"Ġobres":1858,"Ġterritori":1859,"Ġdisseny":1860,"Ġjuny":1861,"cin":1862,"Ġcin":1863,"Ġinstitu":1864,"tima":1865,"ĠPu":1866,"Ġalguna":1867,"Ass":1868,"ĠpoblaciÃ³":1869,"Ġindi":1870,"ĠâĢĺ":1871,"Ġaconseguir":1872,"ĠgestiÃ³":1873,"Ġvegades":1874,"Ġprojectes":1875,"AC":1876,"ĠparticipaciÃ³":1877,"Ġpresentar":1878,"Ãłc":1879,"Ġvolun":1880,"Ġjoves":1881,"Ġmajor":1882,"Ġobjec":1883,"trucciÃ³":1884,"Ġne":1885,"uta":1886,"Ġnoves":1887,"Ġempreses":1888,"Ġseua":1889,"ani":1890,"Ġcastell":1891,"ÃŃcia":1892,"Ġespanyol":1893,"Ġ'":1894,"uen":1895,"ale":1896,"ĠmÃłxim":1897,"visiÃ³":1898,"Ãłl":1899,"Ġproper":1900,"Ġtex":1901,"ĠnÃº":1902,"ces":1903,"forma":1904,"escola":1905,"Ġden":1906,"ala":1907,"ĠcÃłrrec":1908,"Ġpresent":1909,"ficar":1910,"Ġafec":1911,"amb":1912,"Ġpin":1913,"Ġplant":1914,"ĠGir":1915,"Ġespecial":1916,"Ġllengua":1917,"objectiu":1918,"no":1919,"Ġpregun":1920,"Ġcatalana":1921,"abor":1922,"ĠgrÃłcies":1923,"ĠCamp":1924,"Ġ11":1925,"Ãłm":1926,"Ġcompte":1927,"alitzar":1928,"Si":1929,"Ġsaber":1930,".[":1931,"ĠJordi":1932,"Ġofici":1933,"Ġsem":1934,"erat":1935,"Ġells":1936,"Ġgen":1937,"Ġpe":1938,"ara":1939,"Ġamp":1940,"ĠGovern":1941,"Ġsegon":1942,"Ġgaudir":1943,"Ġmedi":1944,"Ġesde":1945,"for":1946,"Ġterra":1947,"Ġ.":1948,"Ġvin":1949,"ĠrÃł":1950,"ducciÃ³":1951,"Ã©n":1952,"ibli":1953,"lament":1954,"lies":1955,"guts":1956,"Ġpunts":1957,"Ġk":1958,"ografia":1959,"ĠVa":1960,"Ġcompl":1961,"ĠAixÃŃ":1962,"Ġclass":1963,"Ġjuliol":1964,"Ġpresenta":1965,"Ġdeb":1966,"rea":1967,"AR":1968,"ites":1969,"ultura":1970,"Ġalgunes":1971,"ej":1972,"Ġdrets":1973,"Ġpara":1974,"Ġsector":1975,"ere":1976,"Ġmeva":1977,"AT":1978,"ogrÃł":1979,"Ġdom":1980,"Ġtenia":1981,"Ġsobretot":1982,"quer":1983,"ch":1984,"ip":1985,"Ġtor":1986,"Ġmajoria":1987,"Ġdescob":1988,"laboraciÃ³":1989,"Ġcorres":1990,"erta":1991,"bil":1992,"termin":1993,"tudis":1994,"Ġacompany":1995,"ĠmitjanÃ§ant":1996,"ĠcomunicaciÃ³":1997,"ĠÃºltim":1998,"Ġafeg":1999,"tarÃł":2000,"vent":2001,"Ġtas":2002,"Ġajud":2003,"Ġsel":2004,"Ġnous":2005,"Ã¨ri":2006,"obra":2007,"Ġmanif":2008,"Ġparlar":2009,"Ġfos":2010,"Ġcultura":2011,"ortun":2012,"nat":2013,"Ġassegu":2014,"Ġcontrol":2015,"ĠCo":2016,"Estat":2017,"Ġfou":2018,"Ġgrups":2019,"Ġdesenvolupament":2020,"ticle":2021,"Ġid":2022,"ÃŃnia":2023,"partament":2024,"Ġ2017":2025,"ĠmarÃ§":2026,"acord":2027,"rien":2028,"ocup":2029,"Ġdissabte":2030,"pai":2031,"umenge":2032,"acter":2033,"istÃ¨ncia":2034,"Ġdeci":2035,"Ġtecn":2036,"Ġfi":2037,"ÃŃtol":2038,"Ġpopular":2039,"lacions":2040,"vestig":2041,"Ġdirig":2042,"Ġpaper":2043,"Ġ199":2044,"formaciÃ³":2045,"Ġcostat":2046,"ixa":2047,"enya":2048,"vista":2049,"ĠCl":2050,"Ġdesembre":2051,"ĠTer":2052,"Ġanim":2053,"ocrÃł":2054,"lici":2055,"ĠSanta":2056,"Ġprofessionals":2057,"Ġseny":2058,"vendres":2059,"ĠAc":2060,"Ġeren":2061,"Ġcomb":2062,"mbit":2063,"Ġnit":2064,"isteix":2065,"undaciÃ³":2066,"uria":2067,"Ã¯sos":2068,"Ġurb":2069,"Ġ0":2070,"erior":2071,"Ġcorrespon":2072,"den":2073,"Ġcontrac":2074,"erg":2075,"tany":2076,"Ġinclo":2077,"uny":2078,"Ã¨m":2079,"co":2080,"ĠCentre":2081,"Ġsan":2082,"lat":2083,"hab":2084,"AN":2085,"estat":2086,"guÃ©s":2087,"niques":2088,"Ġespor":2089,"venciÃ³":2090,"Ġtreballar":2091,"posta":2092,"ministra":2093,"Ġdub":2094,"Ġlabor":2095,"aj":2096,"Ġeuros":2097,"Ġconsum":2098,"Ã²r":2099,"ĠmatÃŃ":2100,"ĠValÃ¨ncia":2101,"ĠpÃºblica":2102,"ÃŃa":2103,"ĠFran":2104,"Ġlocal":2105,"ĠplaÃ§a":2106,"glÃ©s":2107,"ĠPol":2108,"ĠveÃ¯":2109,"ds":2110,"ĠCor":2111,"ĀĀ":2112,"agra":2113,"ĠGirona":2114,"Ġseguir":2115,"Ġteu":2116,"ze":2117,"ms":2118,"Ġmassa":2119,"Ġtornar":2120,"ĠMus":2121,"adal":2122,"Ġdestin":2123,"Ġcontac":2124,"Ġtema":2125,"Ġfutur":2126,"Ġtemporada":2127,"Ġinicia":2128,"Ġsu":2129,"Ġtroba":2130,"Ġresid":2131,"ets":2132,"Ġso":2133,"titut":2134,"Ġnatural":2135,"Ġliter":2136,"tÃłn":2137,"ĠqÃ¼":2138,"Ġrom":2139,"Ġmapa":2140,"ĠfÃłcil":2141,"Ġcob":2142,"Ġdoncs":2143,"Ġ21":2144,"Ġfamili":2145,"ĠMaria":2146,"oses":2147,"ibliot":2148,"atÃ¨":2149,"vocat":2150,"Ġsuper":2151,"cada":2152,"ĠnÃºm":2153,"Ġcomprom":2154,"Ġcentres":2155,"Ġservir":2156,"Ġfacili":2157,"Ġrealitzar":2158,"sol":2159,"dem":2160,"Ġpassa":2161,"Ġdarrer":2162,"hir":2163,"Ġorig":2164,"Ġcaracter":2165,"Ġoculta":2166,"Ġmilions":2167,"Ġentitats":2168,"Ġacabar":2169,"ĠRec":2170,"ĠSeg":2171,"ĠVic":2172,"rid":2173,"alt":2174,"Ġtr":2175,"Ġtext":2176,"ivil":2177,"acciÃ³":2178,"osos":2179,"Ġrespecte":2180,"Ġmovi":2181,"Ġfoto":2182,"tagon":2183,"ĠlÃŃnia":2184,"Ġenc":2185,"Ġy":2186,"Ġdedic":2187,"ĠGran":2188,"AL":2189,"vaciÃ³":2190,"Ġcomerci":2191,"ĠFundaciÃ³":2192,"bol":2193,"ĠAra":2194,"Ġllibres":2195,"inar":2196,"ĠcomenÃ§a":2197,"ĠCastell":2198,"Ġminuts":2199,"Ġpromo":2200,"Ġmort":2201,"ĠZ":2202,"Ġson":2203,"net":2204,"Ġcrear":2205,"Ġfavorita":2206,"icle":2207,"11":2208,"ebrer":2209,"Ġconser":2210,"altra":2211,"ĠNa":2212,"aula":2213,"Ġtren":2214,"ĠMol":2215,"Ġrecom":2216,"Ġdur":2217,"estar":2218,"rimoni":2219,"ĠJu":2220,"ÃŃfic":2221,"Ġofereix":2222,"ĠVila":2223,"man":2224,"tiga":2225,"Ġmitjans":2226,"abril":2227,"Ġfre":2228,"Ġcur":2229,"Ã©u":2230,"Ġtras":2231,"Una":2232,"Ã¡n":2233,"ÃŃstiques":2234,"Ġocup":2235,"ba":2236,"ĠEspanya":2237,"Ġconjunt":2238,"Ġespa":2239,"Ġprotagon":2240,"ania":2241,"Ġmodel":2242,"Ġdiumenge":2243,"edir":2244,"Ġseguretat":2245,"organitz":2246,"Ġtothom":2247,"Ġrecursos":2248,"Ġconven":2249,"Ãīs":2250,"ON":2251,"Ġsimp":2252,"Ġproblemes":2253,"Ġeuro":2254,"uari":2255,"Ġvul":2256,"Ġrelacion":2257,"Ġcondicions":2258,"Ġvalenci":2259,"Aquesta":2260,"Ġprot":2261,"Ġâ":2262,"Ġllum":2263,"ĠfamÃŃlies":2264,"empresa":2265,"Ġestava":2266,"ĠprÃłctica":2267,"Ġcinc":2268,"ĠReg":2269,"trÃ²n":2270,"âĢľ":2271,"Ã¨tica":2272,"Ġsalut":2273,"Ġmostra":2274,"Esc":2275,"grat":2276,"Ġdetermin":2277,"gres":2278,"Ġ2016":2279,"Ġobra":2280,"ĠEx":2281,"talla":2282,"Amb":2283,"do":2284,"gaf":2285,"EN":2286,"Ġ...":2287,"Ġautor":2288,"Ġfac":2289,"Ġmolta":2290,"Ġfora":2291,"ĠHi":2292,"âĢĵ":2293,"rÃ©s":2294,"Ġresol":2295,"Ġmunicipal":2296,"ribu":2297,"quit":2298,"Ġdivendres":2299,"Ġrecerca":2300,"Ġperi":2301,"Ġnot":2302,"200":2303,"vui":2304,"Ġfons":2305,"ÃĢ":2306,"Ġmemb":2307,"Ġsigni":2308,"Ġprincipal":2309,"Ġespecialment":2310,"Ġimm":2311,"iques":2312,"Ġviure":2313,"orca":2314,"tenciÃ³":2315,"itzar":2316,"Ġjornada":2317,"lida":2318,"Ġmillorar":2319,"Ġdeu":2320,"Ġmotiu":2321,"ĠcreaciÃ³":2322,"iÃ¨ncies":2323,"ĠSol":2324,"Ġexplica":2325,"duir":2326,"Ġpes":2327,"Ġsuc":2328,"ĠMad":2329,"ital":2330,"Ġllocs":2331,"aquests":2332,"Ġ24":2333,"Ġdeclar":2334,"Ġmot":2335,"Ġcreix":2336,"ĠallÃ²":2337,"Ġexpres":2338,"tivament":2339,"Ġviol":2340,"Ġfebrer":2341,"Ġjust":2342,"ĠMi":2343,"Ġmil":2344,"Ġdemost":2345,"Ġfesta":2346,"ĠDE":2347,"Ġparla":2348,"tina":2349,"ela":2350,"Ġidenti":2351,"ĉĊ":2352,"Ġcomar":2353,"Ġesti":2354,"Ġimpl":2355,"Ġpan":2356,"Ġfas":2357,"Ġigual":2358,"uals":2359,"Ġbase":2360,"Ġdirector":2361,"Ġpetit":2362,"rebÃ©":2363,"ĠpodrÃł":2364,"âĢ¢":2365,"xe":2366,"Ġmusic":2367,"ÃŃstic":2368,"ĠSan":2369,"entment":2370,"glÃ©sia":2371,"efici":2372,"Ġpotser":2373,"ĠTarra":2374,"Ġvisita":2375,"port":2376,"sup":2377,"Ġestem":2378,"quÃŃ":2379,"ficat":2380,"Ġmembres":2381,"xit":2382,"oss":2383,"Ġreflex":2384,"gular":2385,"Ġfranc":2386,"Ġdol":2387,"eric":2388,"davant":2389,"ĠAixÃ²":2390,"Ġgaran":2391,"Ġpodeu":2392,"her":2393,"Ġ22":2394,"ĠpÃłgina":2395,"gen":2396,"mÃł":2397,"ĠDesprÃ©s":2398,"Ã§at":2399,"Ġlliure":2400,"poca":2401,"Ġqueda":2402,"ripciÃ³":2403,"Ġposi":2404,"Ġregid":2405,"ÃŃssi":2406,"cad":2407,"gona":2408,"Ġperd":2409,"osten":2410,"Ġxarxa":2411,"Ġcot":2412,"Ġart":2413,"Ĥ¬":2414,"ez":2415,"Ġmunicipi":2416,"pre":2417,"Ins":2418,"Ġtingut":2419,"Ġ2015":2420,"etes":2421,"ĠconstrucciÃ³":2422,"trac":2423,"veu":2424,"ĠRo":2425,"uix":2426,"Ã¯t":2427,"Ġnombre":2428,"Ġlliber":2429,"querra":2430,"Ġmed":2431,"dit":2432,"Ġportar":2433,"otel":2434,"tival":2435,"Ġimatge":2436,"ĠMas":2437,"OR":2438,"guda":2439,"aren":2440,"ĠpresentaciÃ³":2441,"Ġconfi":2442,"adora":2443,"Ġproposta":2444,"10":2445,"Ġcultural":2446,"Ġmillors":2447,"ĠprÃ²pia":2448,"Ġmob":2449,"Ġresultats":2450,"Ġprimers":2451,"ĠperÃŃ":2452,"ĠY":2453,"ĠdemocrÃł":2454,"ĠFranc":2455,"ww":2456,"ĠAnt":2457,"onal":2458,"Ġgas":2459,"Ġmercat":2460,"Ġcasos":2461,"ĠdirecciÃ³":2462,"ilitats":2463,"Ġconstitu":2464,"ĠhaurÃł":2465,"ÃŃnim":2466,"Ġaquells":2467,"ecu":2468,"Ġformat":2469,"ĠCiu":2470,"Ġple":2471,"Ġmetres":2472,"Ġport":2473,"Ġdit":2474,"Ġproblema":2475,"Ġresultat":2476,"Ãłcter":2477,"Ġdocu":2478,"apro":2479,"Ġprofessional":2480,"ssa":2481,"Ġsubs":2482,"ĠcarÃłcter":2483,"ĠpaÃ¯sos":2484,"ĠLli":2485,"Ġvist":2486,"ĠTe":2487,"Ġvic":2488,"Ãłmbit":2489,"ĠtindrÃł":2490,"Ġnord":2491,"ĠgairebÃ©":2492,"uaris":2493,"nies":2494,"iments":2495,"Ġvolem":2496,"tÃ²ria":2497,"ospi":2498,"Ġcampanya":2499,"Ġllu":2500,"Ġprincipals":2501,"ĠsegÃ¼ent":2502,"tual":2503,"Ġestabl":2504,"Ġsols":2505,"Ġvia":2506,"ministraciÃ³":2507,"Ġllei":2508,"ĠexperiÃ¨ncia":2509,"ĠfarÃł":2510,"Ġaspec":2511,"Ġenf":2512,"dio":2513,"Ġrob":2514,"Ac":2515,"guany":2516,"omp":2517,"itÃłria":2518,"Ġcateg":2519,"Ġtarda":2520,"Ġfigu":2521,"eig":2522,"ĠmÃŃnim":2523,"ĠelectrÃ²n":2524,"educaciÃ³":2525,"ĠpresÃ¨ncia":2526,"ĠFer":2527,"lÃŃc":2528,"Ġenll":2529,"Ġcolor":2530,"ollir":2531,"viat":2532,"maciÃ³":2533,"Ã¨rie":2534,"Ġespectac":2535,"estudi":2536,"blement":2537,"vors":2538,"Ġpares":2539,"Ã¨ria":2540,"Ġaquell":2541,"ĠTor":2542,"Ġquin":2543,"Ġtractament":2544,"Ġespais":2545,"ocs":2546,"tari":2547,"Ã²l":2548,"Ġincor":2549,"Ġcatalans":2550,"quitec":2551,"menta":2552,"Ġconsidera":2553,"Ġgl":2554,"ĠServe":2555,"Ġcapacitat":2556,"ĠEsc":2557,"Ġconcep":2558,"Ġparaules":2559,"estiu":2560,"ingÃº":2561,"Ġnecessitats":2562,"ĠMart":2563,"tenir":2564,"dora":2565,"Ã³na":2566,"asi":2567,"Ġtu":2568,"cial":2569,"Ġbarri":2570,"Ġsortir":2571,"aquestes":2572,"Ġquedar":2573,"Ã¼es":2574,"Ġorigin":2575,"prendre":2576,"Ġidea":2577,"Ġfeia":2578,"pro":2579,"accÃ©s":2580,"De":2581,"guen":2582,"Ġpodria":2583,"Ġpremi":2584,"Ġfl":2585,"ĠPS":2586,"Ġsur":2587,"Ġanat":2588,"Ġconsell":2589,"Ġconte":2590,"18":2591,"ĠTarragona":2592,"Ġconsci":2593,"ativa":2594,"ĠtÃŃtol":2595,"Ġseria":2596,"Ġevi":2597,"ĠValenci":2598,"exper":2599,"abilitat":2600,"Ġfunciona":2601,"anar":2602,"Ġmir":2603,"ger":2604,"Ġpetits":2605,"aten":2606,"ĠRam":2607,"ĠPrem":2608,"to":2609,"Ġpugui":2610,"ĠdifÃŃ":2611,"Ġmul":2612,"ume":2613,"lles":2614,"ĠQuan":2615,"vem":2616,"Ġanomen":2617,"osta":2618,"Ġpartits":2619,"ior":2620,"Ġmarca":2621,"Ġaug":2622,"Ġvig":2623,"ocia":2624,"ĠcanÃ§":2625,"Ġprou":2626,"20":2627,"ĠbÃłs":2628,"ini":2629,"Ġbi":2630,"espai":2631,"osc":2632,"lusiÃ³":2633,"ĠPere":2634,"Ġsis":2635,"Ġterc":2636,"inaciÃ³":2637,"tora":2638,"Ġrem":2639,"carreg":2640,"Ġpots":2641,"Ġvari":2642,"Ġtermin":2643,"Ġtele":2644,"Ġparl":2645,"tanya":2646,"Ġ#":2647,"Ġprofessor":2648,"Ġdic":2649,"EC":2650,"ps":2651,"ĠsÃ¨rie":2652,"ovint":2653,"ĠdÃ³na":2654,"Ġmalal":2655,"ticular":2656,"Ġsortida":2657,"vada":2658,"Ġpensar":2659,"Ġnovel":2660,"Ġmodi":2661,"ĠpolÃŃtics":2662,"ĠLleida":2663,"ĠeconÃ²mica":2664,"jous":2665,"Ġesdeven":2666,"Ġ50":2667,"Ġperfec":2668,"ront":2669,"Ġhauria":2670,"ĠproducciÃ³":2671,"Ġconeixement":2672,"Ġguerra":2673,"inici":2674,"plicaciÃ³":2675,"dial":2676,"ĠComun":2677,"iem":2678,"Ġesper":2679,"Ġof":2680,"Ġinternacional":2681,"ĠvÃŃ":2682,"ĠCatalana":2683,"cionar":2684,"Ġimpos":2685,"ting":2686,"guer":2687,"Ġ:":2688,"AssociaciÃ³":2689,"Ġcausa":2690,"Ġ198":2691,"ide":2692,"Ġinteg":2693,"encial":2694,"ÃŃtica":2695,"erc":2696,"Ġexplicar":2697,"Ġprov":2698,"Ġagaf":2699,"autor":2700,"Ġcapital":2701,"Ġgrat":2702,"Ġrecol":2703,"Ġcara":2704,"Ġfills":2705,"Ġregist":2706,"ilar":2707,"ĠOr":2708,"oles":2709,"Ġteva":2710,"vos":2711,"entatge":2712,"tem":2713,"Ġinsc":2714,"Ġpressup":2715,"Ġcompeti":2716,"Ġsembl":2717,"gel":2718,"ĠMadrid":2719,"Ġped":2720,"litat":2721,"Ġtemes":2722,"Ġllegir":2723,"Ġvoltant":2724,"ĠSegu":2725,"Ġhabitu":2726,"Ġnacional":2727,"alcal":2728,"Ġocas":2729,"Ġtre":2730,"ĠMont":2731,"cep":2732,"Ġimpres":2733,"Ġ23":2734,"Ġnecessitat":2735,"Ġhavien":2736,"Ġsap":2737,"Ġsupos":2738,"Ġ2014":2739,"Or":2740,"Ġfona":2741,"Ġpis":2742,"ÃŃcies":2743,"Ġconn":2744,"Ġcompta":2745,"avi":2746,"Ġvinc":2747,"ĠCh":2748,"tint":2749,"Ġella":2750,"Ġpreu":2751,"iblioteca":2752,"Ġmantenir":2753,"Ġdecidir":2754,"ĠPP":2755,"Ġplat":2756,"Ġrecorre":2757,"Ġcreu":2758,"Ġvo":2759,"ĠpolÃŃtiques":2760,"Ġmaterial":2761,"Ġfru":2762,"Ġgerm":2763,"Ġtoc":2764,"IN":2765,"Ġimportants":2766,"Ġquanti":2767,"Ġvista":2768,"ances":2769,"Ġactual":2770,"olÃ²gica":2771,"Ġcompet":2772,"ĠreferÃ¨ncia":2773,"Ġcelebrar":2774,"Ġexp":2775,"rop":2776,"dap":2777,"Ġdigi":2778,"Ġveh":2779,"Ġpropostes":2780,"Ã³r":2781,"Ġbat":2782,"ĠfÃŃs":2783,"Ġrisc":2784,"Ġhagi":2785,"Ġelements":2786,"tructura":2787,"ĠDÃ©u":2788,"Ġ100":2789,"50":2790,"ofer":2791,"rats":2792,"ĠRa":2793,"Ã©ixer":2794,"Ġrepresenta":2795,"Ġclub":2796,"ingÃ¼":2797,"alitzat":2798,"sic":2799,"Ġbenefici":2800,"Ġindivid":2801,"âĢ¦]":2802,"Ġfar":2803,"ĠperÃŃode":2804,"Ġconstru":2805,"Ġdiferent":2806,"ĠpÃºblics":2807,"Ġreconeix":2808,"Ġreser":2809,"Ġrepar":2810,"alitats":2811,"tades":2812,"Â».":2813,"Ġexpos":2814,"entrada":2815,"Ġpal":2816,"ĠPres":2817,"Ġpogut":2818,"Ġimport":2819,"eqÃ¼":2820,"Ġplan":2821,"tall":2822,"Ġcert":2823,"ĠTerra":2824,"Ġconsul":2825,"ĠgratuÃ¯":2826,"ĠningÃº":2827,"ustri":2828,"Ġciutadans":2829,"odi":2830,"Ġ27":2831,"Ġadministra":2832,"Ġprocess":2833,"Ġsob":2834,"mpoc":2835,"AM":2836,"tistes":2837,"Ġcontacte":2838,"Ġentorn":2839,"Ġsim":2840,"Ġdim":2841,"ospital":2842,"Ġinvestig":2843,"ĠGar":2844,"Ġpuguin":2845,"Ġacord":2846,"rega":2847,"der":2848,"olÃ²gic":2849,"legi":2850,"erts":2851,"Ãºblica":2852,"Ġrebre":2853,"pea":2854,"essin":2855,"ssi":2856,"ĠBen":2857,"Ġmem":2858,"ĠJaume":2859,"oti":2860,"ĠSup":2861,"Ġnegoci":2862,"ĠfunciÃ³":2863,"ulaciÃ³":2864,"Ġparticular":2865,"ĠRep":2866,"Ġmarxa":2867,"Ġprova":2868,"ĠvÃŃde":2869,"Ġjur":2870,"enari":2871,"Ġparticipants":2872,"quel":2873,"Ġhor":2874,"Ġlim":2875,"Ġllibertat":2876,"ĠCap":2877,"ĠdÃ¨":2878,"Ġhora":2879,"Ġanterior":2880,"estr":2881,"aven":2882,"Ġaccep":2883,"Ġlocals":2884,"sion":2885,"Ġobjectiu":2886,"oble":2887,"ĠtrÃł":2888,"quis":2889,"Ġinfantil":2890,"Ġusuaris":2891,"ĠHa":2892,"Ġresposta":2893,"ĠSocial":2894,"ĠInterna":2895,"Ġmare":2896,"Ġord":2897,"Ġsum":2898,"ÃŃfica":2899,"ĠDepartament":2900,"unta":2901,"gÃ¨ncia":2902,"go":2903,"Ġfra":2904,"Ġrepresen":2905,"ĠPrim":2906,"usta":2907,"Ã¨t":2908,"Ġmillora":2909,"lada":2910,"ĠDia":2911,"ua":2912,"ovaciÃ³":2913,"Ġtit":2914,"ĠLlei":2915,"Ġai":2916,"enda":2917,"ĠconseqÃ¼":2918,"Ġpost":2919,"Ġ>":2920,"Ġclasse":2921,"Ġfets":2922,"Ġadap":2923,"Ġ[âĢ¦]":2924,"Ġdefini":2925,"Institut":2926,"glÃ¨s":2927,"Ġmoments":2928,"Ġfalta":2929,"ĠpolÃŃtic":2930,"Ġ2013":2931,"Ġsegui":2932,"ĠNacional":2933,"cap":2934,"ĠPuig":2935,"Ġanti":2936,"altre":2937,"arrib":2938,"Ġmoviment":2939,"Ġul":2940,"Ġamics":2941,"Ġpetita":2942,"anys":2943,"Ġviatge":2944,"Ġempresa":2945,"Ġ2012":2946,"ĠClub":2947,"ible":2948,"rit":2949,"....":2950,"12":2951,"Ġcadasc":2952,"grÃ©s":2953,"Ã²p":2954,"quet":2955,"Ġdisp":2956,"idar":2957,"esper":2958,"Ġcontemp":2959,"ĠGeneral":2960,"ĠMo":2961,"Ġsovint":2962,"ferÃ¨ncia":2963,"Ġfel":2964,"Ġhomes":2965,"Ġseran":2966,"atenciÃ³":2967,"ĠĠĠĠĠĠĠĠ":2968,"Ġrebut":2969,"Ġexerci":2970,"titz":2971,"metre":2972,"Ġcomunitat":2973,"Ġoferir":2974,"Ġmenjar":2975,"Ãºl":2976,"ĠAntoni":2977,"ĠFes":2978,"Ġveritat":2979,"Ġpil":2980,"icip":2981,"Ġdijous":2982,"omÃł":2983,"Ġafir":2984,"Ġpare":2985,"rics":2986,"Escola":2987,"Ġlluita":2988,"Ãłleg":2989,"ĠMuseu":2990,"ce":2991,"ĠPl":2992,"Ġjocs":2993,"Ãłss":2994,"Ġmans":2995,"Ġpressupost":2996,"Ġperiod":2997,"ĠRes":2998,"ĠMonts":2999,"Ġutilitzar":3000,"rant":3001,"Ġestudis":3002,"tec":3003,"Ġcam":3004,"Ġtreballadors":3005,"teriors":3006,"Ġconvocat":3007,"Ġcontinguts":3008,"tista":3009,"Ġ197":3010,"erÃ§":3011,"Ġcient":3012,"Ġdefensa":3013,"Ġ28":3014,"cle":3015,"ĠdifÃŃcil":3016,"Ġobs":3017,"alum":3018,"Ġmesura":3019,"Ġpais":3020,"amp":3021,"Ġtinc":3022,"Ġequips":3023,"Ġiniciativa":3024,"guem":3025,"Ġdata":3026,"agost":3027,"Ġreal":3028,"rades":3029,"Ġdonat":3030,"ĠenllÃł":3031,"ĠCer":3032,"Espanya":3033,"Ġcab":3034,"Ġdreta":3035,"Ġsala":3036,"ografi":3037,"Ġrecep":3038,"Ã²bil":3039,"ties":3040,"bert":3041,"jat":3042,"Ġjove":3043,"Ġendavant":3044,"ĠgÃ¨n":3045,"Ã§ada":3046,"Ġimatges":3047,"Ġvalors":3048,"ĠÃĢ":3049,"Ġmesures":3050,"Ġresponsable":3051,"Ġcrisi":3052,"Ġsegur":3053,"entis":3054,"Ġintel":3055,"Ġimpuls":3056,"Ġdemanar":3057,"Ġcuina":3058,"Ġ26":3059,"ĠLe":3060,"havia":3061,"ĠveÃ¯ns":3062,"Tot":3063,"ĠAd":3064,"Ġtard":3065,"AS":3066,"cant":3067,"Ġsiguin":3068,"ĠCultura":3069,"organitzaciÃ³":3070,"Ġevitar":3071,"ast":3072,"tegra":3073,"Con":3074,"Ġpossibilitat":3075,"Ã²nica":3076,"Ġdific":3077,"ĠestratÃ¨":3078,"Ġteatre":3079,"Ġpropor":3080,"15":3081,"Ġtrobem":3082,"Ġeleccions":3083,"Ġade":3084,"Ġsuperior":3085,"ĠBl":3086,"Ġclients":3087,"ĠXX":3088,"Ġelabor":3089,"Ġtram":3090,"fa":3091,"cie":3092,"Ġdiners":3093,"ĠDipu":3094,"Ġcorrec":3095,"Ġmateixos":3096,"Ġtaula":3097,"ensa":3098,"ĠâĢ¦":3099,"Ġdarrera":3100,"Ġdib":3101,"Ġgesti":3102,"DesprÃ©s":3103,"Ġlectura":3104,"Ġdebat":3105,"ĠBo":3106,"ĠEns":3107,"Ġcoop":3108,"eixi":3109,"Ġcompartir":3110,"inf":3111,"hib":3112,"ĠMunicip":3113,"ĠTur":3114,"Ġdura":3115,"Ġquad":3116,"ĠSab":3117,"Ġagrada":3118,"Ġcandi":3119,"Ġarriba":3120,"Ġcarrers":3121,"Ġconv":3122,"Ġvir":3123,"Ġvisitar":3124,"Ġbaixa":3125,"ĠimportÃłncia":3126,"incid":3127,"omÃ©s":3128,"dament":3129,"lluns":3130,"Ġmena":3131,"za":3132,"ĠGra":3133,"eus":3134,"Ġexpl":3135,"omes":3136,"Ġtrobada":3137,"Ġcoordin":3138,"itaciÃ³":3139,"Ġcanvis":3140,"orda":3141,"ĠDirec":3142,"Ġnav":3143,"Ġcorreu":3144,"ĠsessiÃ³":3145,"Ġadequ":3146,"Ġfon":3147,"ĠAb":3148,"cadÃ¨m":3149,"Ġevid":3150,"Ġcrec":3151,"ĠPod":3152,"Ġdilluns":3153,"vador":3154,"orig":3155,"Ġdescon":3156,"Ġconvi":3157,"Ġsenz":3158,"pen":3159,"istir":3160,"estaciÃ³":3161,"Ġconcurs":3162,"Ġproducte":3163,"encia":3164,"reix":3165,"Ġextra":3166,"ĠLlu":3167,"Ġer":3168,"Ġir":3169,"Ġvolen":3170,"Ġllavors":3171,"espec":3172,"Ġrecorregut":3173,"IS":3174,"cament":3175,"Ġobjectius":3176,"urals":3177,"Ġvoluntat":3178,"liment":3179,"ĠmitjÃł":3180,"exc":3181,"ĠFel":3182,"alles":3183,"edat":3184,"Ġrecla":3185,"tion":3186,"tatge":3187,"ror":3188,"viar":3189,"Ġsentir":3190,"Ġahir":3191,"Ġcomarca":3192,"ĠVer":3193,"ĠnÃºmero":3194,"Ġaviat":3195,"Ġampli":3196,"Ġpaci":3197,"Ġsignifica":3198,"Ġentrar":3199,"Ġpi":3200,"urar":3201,"ĠalgÃº":3202,"Aix":3203,"Ġriu":3204,"quia":3205,"uran":3206,"Ġdificul":3207,"cina":3208,"ĠprotecciÃ³":3209,"exposiciÃ³":3210,"Ġclassi":3211,"jecte":3212,"ĠParlament":3213,"ederaciÃ³":3214,"taforma":3215,"Ġincorpor":3216,"Ġinfants":3217,"Ġtasca":3218,"torn":3219,"Ġactes":3220,"IT":3221,"Ġajudar":3222,"Ġ40":3223,"Ġfoc":3224,"Ġaspectes":3225,"ecres":3226,"ĠPat":3227,"Ġcivil":3228,"Ġ193":3229,"titud":3230,"Ġdiver":3231,"Ġdibuix":3232,"Ex":3233,"Ġpodran":3234,"icar":3235,"turals":3236,"Ġcanviar":3237,"ĠAm":3238,"Ġguanyar":3239,"ĠIns":3240,"Ġconvid":3241,"egut":3242,"Ġcrea":3243,"Ġpatrimoni":3244,"Ġtend":3245,"Ġseguit":3246,"Ġclau":3247,"Ġ2011":3248,"prenentatge":3249,"ÃŃm":3250,"Ġfamiliar":3251,"Ġalhora":3252,"onat":3253,"bliques":3254,"Ġcost":3255,"ums":3256,"ial":3257,"Ġtreballs":3258,"ĠÃºnica":3259,"Ġball":3260,"ortunitat":3261,"Ġzones":3262,"ĠsÃ©":3263,"Ġexig":3264,"alu":3265,"fon":3266,"Ġdarrers":3267,"Ġ29":3268,"ĠXV":3269,"ossos":3270,"Ġtercer":3271,"amor":3272,"haver":3273,"Ġplanta":3274,"Ġllista":3275,"ĠBale":3276,"usiÃ³":3277,"Ġprincipi":3278,"Ã²nia":3279,"Ġmiss":3280,"usti":3281,"Ġperdre":3282,"Ãĵ":3283,"roc":3284,"fiques":3285,"riu":3286,"icat":3287,"Ġaccions":3288,"ĠÃºltims":3289,"14":3290,"Ġobser":3291,"ĠsegÃ¼ents":3292,"Ġdubte":3293,"isti":3294,"guÃ©":3295,"icles":3296,"Ġestim":3297,"pid":3298,"Ġedifici":3299,"inat":3300,"ĠInter":3301,"Ġlaboral":3302,"emble":3303,"usuari":3304,"Ã¨l":3305,"istents":3306,"Ġviu":3307,"ET":3308,"ologies":3309,"icions":3310,"Ġposa":3311,"Ġanunci":3312,"Ġconcert":3313,"17":3314,"Ġprendre":3315,"Ġfinalment":3316,"rent":3317,"ĠPremi":3318,"llaÃ§":3319,"Ġani":3320,"redi":3321,"zar":3322,"orial":3323,"capa":3324,"gament":3325,"Ġtaller":3326,"Ġsosten":3327,"AD":3328,"Ġtampoc":3329,"ĠMiquel":3330,"Euro":3331,"ĠtÃ¨cnica":3332,"ĠÃºs":3333,"Ġarribat":3334,"Ad":3335,"con":3336,"Ġmas":3337,"Ġnecessari":3338,"dats":3339,"ografies":3340,"Ġpersonatges":3341,"Ġcategoria":3342,"adament":3343,"Ġxarxes":3344,"ĠMen":3345,"Ġrelig":3346,"ĠAnd":3347,"Ġciutadania":3348,"riure":3349,"enyament":3350,"nics":3351,"istÃ²ria":3352,"Ġpocs":3353,"Ġequi":3354,"ĠTra":3355,"Ġjugar":3356,"Ġsud":3357,"Ġcompos":3358,"Ġviat":3359,"ĠMal":3360,"entitat":3361,"Ġmuntanya":3362,"Ġrelle":3363,"Ġactualment":3364,"ĠInternacional":3365,"lÃŃcula":3366,"Ara":3367,"Ġblog":3368,"Ġpec":3369,"ĠCarles":3370,"Ġfal":3371,"Ġassol":3372,"Ġtermini":3373,"ĠPau":3374,"alitzada":3375,"itatge":3376,"Ġestran":3377,"iten":3378,"Ġmis":3379,"ĠAss":3380,"agrada":3381,"âĢĶ":3382,"Ġhas":3383,"Ġbal":3384,"ĠQue":3385,"Ġcentral":3386,"Ġmusical":3387,"Ġmunicipals":3388,"ĠBa":3389,"aquÃŃ":3390,"Ġfutbol":3391,"Ġdirectament":3392,"ĠGrÃł":3393,"Ġmalgrat":3394,"peu":3395,"pies":3396,"ĠmatÃ¨ria":3397,"Ġcicle":3398,"Ġglob":3399,"siva":3400,"Ġdigital":3401,"Ġselec":3402,"Ġge":3403,"Ġsatis":3404,"Ġconflic":3405,"Ġfinals":3406,"!!!":3407,"Ġcompanyia":3408,"Ġ2010":3409,"ĠCent":3410,"Ġjuntament":3411,"Ġindustri":3412,"Ġrevol":3413,"drÃł":3414,"Ġpublica":3415,"quem":3416,"Ġespanyola":3417,"Ġsepar":3418,"Ġdescobrir":3419,"ĠFranÃ§a":3420,"cades":3421,"Ġgust":3422,"Ġobert":3423,"ĠFin":3424,"Ġrespon":3425,"Â»,":3426,"Ġmaterials":3427,"itor":3428,"Ġintro":3429,"ĠEm":3430,"Ġcontingut":3431,"ĠposiciÃ³":3432,"Ġfonamen":3433,"Ta":3434,"ĠMor":3435,"Ġescrit":3436,"hores":3437,"metres":3438,"Ãłnim":3439,"Ã¨ct":3440,"ĠDiputaciÃ³":3441,"Ġdisponi":3442,"Ġcontinuar":3443,"ĠprÃ²xim":3444,"quil":3445,"Ãłlisi":3446,"Ġabsol":3447,"Ġfunda":3448,"ĠPen":3449,"ĠgÃ¨nere":3450,"Ġconcent":3451,"Ġpodia":3452,"Ġapor":3453,"ĠUniÃ³":3454,"Ġentendre":3455,"Ġaquella":3456,"tt":3457,"ĠclÃłss":3458,"lecciÃ³":3459,"Ġhome":3460,"Ã²ries":3461,"acab":3462,"sar":3463,"ÂŃ":3464,"ĠEuropa":3465,"ef":3466,"Ġparc":3467,"CI":3468,"ates":3469,"Ġpersonals":3470,"Ġnaveg":3471,"xt":3472,"ĠVol":3473,"Ġescoles":3474,"itx":3475,"ogrÃłfic":3476,"Ġfab":3477,"ĠMarc":3478,"Ġpublicat":3479,"Ġfuncionament":3480,"ĠMall":3481,"essions":3482,"ong":3483,"Ġquantitat":3484,"ense":3485,"Ġfran":3486,"Ġperill":3487,"Ġlluny":3488,"EM":3489,"Ġ$":3490,"Ġrelacions":3491,"bo":3492,"ĠNadal":3493,"ev":3494,"uel":3495,"Ġpren":3496,"edifici":3497,"retera":3498,"interÃ¨s":3499,"rament":3500,"itari":3501,"Ġinstitucions":3502,"Ġparaula":3503,"lectiu":3504,"Ġconegut":3505,"indic":3506,"Ġresponsabilitat":3507,"ĠDurant":3508,"Ġima":3509,"Ġpsic":3510,"EducaciÃ³":3511,"Ġdesapar":3512,"ĠmemÃ²ria":3513,"anim":3514,"CO":3515,"Ġpeu":3516,"Ġfinalitat":3517,"Ġbri":3518,"Ġtallers":3519,"Ġplena":3520,"Ġexcep":3521,"ĠParc":3522,"ĠeconÃ²mic":3523,"Ġconvertir":3524,"Ġregu":3525,"dorra":3526,"Ġcelebra":3527,"Ġpreocup":3528,"ĠqÃ¼estiÃ³":3529,"emÃłtica":3530,"ĀĀĀĀ":3531,"Ġbuscar":3532,"Ġposterior":3533,"Ġjut":3534,"Ġdesenvolupar":3535,"Ġret":3536,"ĠTeatre":3537,"ĠcastellÃł":3538,"Ġganes":3539,"can":3540,"article":3541,"Ġtradicional":3542,"ĠXI":3543,"entorn":3544,"fil":3545,"ĠFrancesc":3546,"ĠGo":3547,"Ġblanc":3548,"algun":3549,"16":3550,"Ġmasc":3551,"Ġdimecres":3552,"Avui":3553,"ismes":3554,"ĠMunicipal":3555,"ĠversiÃ³":3556,"ĠcomÃº":3557,"IB":3558,"Ġinn":3559,"Ġnomb":3560,"Ġfront":3561,"ĠDel":3562,"Ġconstruir":3563,"Ġemb":3564,"Ġescriure":3565,"Ġprefer":3566,"ĠMed":3567,"Ġestudiants":3568,"Ã³c":3569,"Ġoficial":3570,"orar":3571,"tava":3572,"ories":3573,"vall":3574,"Ġalt":3575,"Ġfuncion":3576,"Ġsegueix":3577,"ĠHo":3578,"Ġgui":3579,"quin":3580,"ĠSa":3581,"Ġdeixa":3582,"ertes":3583,"Ġtroben":3584,"ke":3585,"Ġrecordar":3586,"Ġindic":3587,"Ġlo":3588,"ĠGrup":3589,"Ãłb":3590,"Ġprimeres":3591,"Ġestaven":3592,"Ġess":3593,"giques":3594,"Ġtotalment":3595,"Ġderi":3596,"eses":3597,"Ġom":3598,"Ġand":3599,"Ġformar":3600,"Ġpremis":3601,"Ġsetmanes":3602,"ĠtÃ¨cniques":3603,"Ġdestac":3604,"Ġgenera":3605,"estÃł":3606,"ĠprÃ¨":3607,"Ġnenes":3608,"ĠallÃł":3609,"Ġrecull":3610,"Ġbici":3611,"EL":3612,"rÃŃc":3613,"Ġjudi":3614,"Ġtorna":3615,"Ġcamin":3616,"mon":3617,"Ġsituat":3618,"Ġactuacions":3619,"Ġlegis":3620,"iva":3621,"ĠraÃ³":3622,"experiÃ¨ncia":3623,"tingut":3624,"Ġavan":3625,"ejar":3626,"aments":3627,"ĠForm":3628,"Ġciutats":3629,"OS":3630,"ĠPor":3631,"Ġposat":3632,"ĠprÃłctiques":3633,"Ġformes":3634,"Ġtransport":3635,"Ġobtenir":3636,"AP":3637,"Ġcarretera":3638,"Ġmec":3639,"alcalde":3640,"Ġ196":3641,"ĠEntre":3642,"ĠviolÃ¨ncia":3643,"Ġprincipis":3644,"Ã²leg":3645,"ĠRib":3646,"truÃ¯":3647,"Ġadre":3648,"ĠBaix":3649,"Ġambient":3650,"giny":3651,"ĠcaracterÃŃstiques":3652,"Ġquina":3653,"Ġinau":3654,"Ġcompanys":3655,"ĠRamon":3656,"Ġconsol":3657,"ĠLla":3658,"Ġkm":3659,"Ġinteressant":3660,"Ġress":3661,"Ġaprofi":3662,"jada":3663,"Ġbla":3664,"ton":3665,"Ġsort":3666,"Ġprogrames":3667,"//":3668,"ĠFac":3669,"ĠJes":3670,"Ġnuc":3671,"Ġsolu":3672,"ega":3673,"Quan":3674,"ĠreuniÃ³":3675,"etats":3676,"Ġfom":3677,"Ġinaugu":3678,"unes":3679,"iran":3680,"ĠqÃ¼esti":3681,"adell":3682,"dac":3683,"anca":3684,"Ġguard":3685,"loc":3686,"Ġperm":3687,"ociacions":3688,"Ġeix":3689,"ĠMin":3690,"forÃ§":3691,"ĠcompromÃŃs":3692,"PerÃ²":3693,"Ġpista":3694,"ables":3695,"Ġacte":3696,"plicar":3697,"ugi":3698,"ĠBalears":3699,"Ġcinema":3700,"Ġredu":3701,"ĠÐ":3702,"Ġcoincid":3703,"Ja":3704,"nia":3705,"Ġfestes":3706,"ĠselecciÃ³":3707,"jor":3708,"pes":3709,"ribun":3710,"Ġterren":3711,"Ġcursos":3712,"ĠAut":3713,"ĠmÃ²bil":3714,"ĠvÃŃdeo":3715,"rans":3716,"Ġdirecte":3717,"Ġproteg":3718,"Ġcomprar":3719,"iental":3720,"ĠEstats":3721,"activitats":3722,"Ġruta":3723,"Ġpleg":3724,"Ġdistrib":3725,"ental":3726,"Ġgaire":3727,"ĠelectrÃ²nic":3728,"marts":3729,"Ġaquelles":3730,"onada":3731,"Ġpret":3732,"tria":3733,"Ġcosta":3734,"ĠâĢĶ":3735,"Ġdestacar":3736,"ach":3737,"Ens":3738,"âĤ¬":3739,"ĠdecisiÃ³":3740,"vel":3741,"Ġnota":3742,"ĠcelebraciÃ³":3743,"ublic":3744,"TambÃ©":3745,"reus":3746,"umental":3747,"ĠCatalÃł":3748,"Durant":3749,"Ġrit":3750,"versari":3751,"Ġcreixement":3752,"ident":3753,"ĠMÃ©s":3754,"ĠvisiÃ³":3755,"Ġaccedir":3756,"len":3757,"Ġconfir":3758,"ĠLluÃŃs":3759,"ĠXavi":3760,"Ġpremsa":3761,"Europa":3762,"ĠMallorca":3763,"Ġsensi":3764,"ĠPot":3765,"Ġjugadors":3766,"Ġcolors":3767,"Ġcontribu":3768,"Ġdimarts":3769,"origen":3770,"Ġvaren":3771,"Ġparts":3772,"Ġincl":3773,"rÃŃ":3774,"ĠComissiÃ³":3775,"Ġmostrar":3776,"Ġcontes":3777,"ĠEmp":3778,"13":3779,"Ġ2009":3780,"esquerra":3781,"Ġfix":3782,"Ġquil":3783,"Ãłnica":3784,"ticles":3785,"Ġviv":3786,"uf":3787,"Ġgir":3788,"Ġbosc":3789,"Ġllarga":3790,"reball":3791,"Ġmagn":3792,"Ġexisteix":3793,"ĠcontinuaciÃ³":3794,"ĠPi":3795,"Ġrei":3796,"Ġneu":3797,"Ġpubli":3798,"ĠelÃ¨ct":3799,"ĠespÃ¨":3800,"Ġextre":3801,"Ġpobles":3802,"Ġvac":3803,"Ġquar":3804,"Ã¨tic":3805,"://":3806,"ĠrÃ¨":3807,"Ġsil":3808,"ĠCat":3809,"Ġentren":3810,"Ġsex":3811,"dores":3812,"ĠSalut":3813,"isb":3814,"Ġpresentat":3815,"Ġdemana":3816,"Ġcotxe":3817,"Ã¨rica":3818,"ĠpÃºbliques":3819,"ĠcomenÃ§":3820,"Ġhagut":3821,"anÃ§ament":3822,"Ġdocument":3823,"tana":3824,"Ġmunicipis":3825,"UP":3826,"ĠPr":3827,"Ġdiari":3828,"ĠtradiciÃ³":3829,"Ġreiv":3830,"Ġtir":3831,"ka":3832,"bi":3833,"Ġdiuen":3834,"Ġculturals":3835,"Ġliteratura":3836,"Ġsigut":3837,"otaciÃ³":3838,"Ġidees":3839,".-":3840,"Ġparticipa":3841,"Ġfotos":3842,"emblea":3843,"ses":3844,"amunt":3845,"Ġmitjana":3846,"Ġtercera":3847,"expres":3848,"aire":3849,"ultural":3850,"ĠTots":3851,"ĠpromociÃ³":3852,"eda":3853,"ĠUnits":3854,"tualment":3855,"Ġrealment":3856,"ĠÂ·":3857,"mor":3858,"Ġ60":3859,"Jo":3860,"Ġaprendre":3861,"equ":3862,"Ġescolar":3863,"umentaciÃ³":3864,"Ġnove":3865,"Ġub":3866,"ĠVil":3867,"ĠconvocatÃ²ria":3868,"Ġgrau":3869,"otes":3870,"ĠTV":3871,"Ġacos":3872,"siques":3873,"anisme":3874,"ulat":3875,"Ġacabat":3876,"ĠBer":3877,"lle":3878,"gim":3879,"ĠindependÃ¨ncia":3880,"Ġorganitzat":3881,"Ġproves":3882,"andes":3883,"ĠÃ¨xit":3884,"Ġcontinua":3885,"Ġfigura":3886,"Ġtenien":3887,"Ġgar":3888,"Ġplu":3889,"Ãºn":3890,"Ġclasses":3891,"ĠCasa":3892,"Ġajuda":3893,"rarÃł":3894,"gent":3895,"Ġpeces":3896,"Ġimagin":3897,"Ġalterna":3898,"toral":3899,"ĠPalau":3900,"Ġefectes":3901,"xi":3902,"Ġexplicat":3903,"ĠSegons":3904,"quets":3905,"Ġaconseguit":3906,"Ġsus":3907,"Ġtitular":3908,"ĠtÃ¨cnic":3909,"vist":3910,"ki":3911,"Ġbloc":3912,"Ġsindic":3913,"ĠGuerra":3914,"erament":3915,"Ġobrir":3916,"Ġvuit":3917,"ĠprÃ¨via":3918,"informaciÃ³":3919,"Ġinclou":3920,"III":3921,"ocal":3922,"ï¿":3923,"Ġproced":3924,"Ġuniversi":3925,"Ġbones":3926,"enciar":3927,"Ġsistemes":3928,"Ġperman":3929,"ĠSÃ³n":3930,"OL":3931,"Ġarticle":3932,"Ġdedica":3933,"Ã³rrer":3934,"mo":3935,"Ãºltim":3936,"Ġeta":3937,"ibilitat":3938,"hor":3939,"Ġrealitzat":3940,"Ġrecuperar":3941,"ï¿½":3942,"AB":3943,"vades":3944,"Ãłvem":3945,"Ġmembre":3946,"Ġhumans":3947,"ire":3948,"Ġmira":3949,"Ġbe":3950,"ĠSec":3951,"Ġcontext":3952,"Ġescrip":3953,"Ġtranquil":3954,"Ġ2007":3955,"Ġobstant":3956,"Ġcuri":3957,"ĠpÃłgines":3958,"actual":3959,"licitu":3960,"Ġportes":3961,"Ġdipu":3962,"Ġvesp":3963,"icament":3964,"Ã¨dia":3965,"Ġguia":3966,"ÃŃstics":3967,"ĠPas":3968,"Ġulls":3969,"Ġfase":3970,"ĠServei":3971,"arr":3972,"ĠThe":3973,"Ġ31":3974,"ansa":3975,"odes":3976,"bleix":3977,"rees":3978,"Ġconeixements":3979,"ork":3980,"Ġvols":3981,"ĠlingÃ¼":3982,"tacions":3983,"Ġcursa":3984,"Ġverm":3985,"cio":3986,"xar":3987,"ĠMat":3988,"Ġdeixat":3989,"Ġsuposa":3990,"Ġtreballant":3991,"zz":3992,"mit":3993,"Ġtreure":3994,"ĠII":3995,"Ġtraslla":3996,"ĠLu":3997,"Ġestic":3998,"Ġsubstitu":3999,"itants":4000,"Ġgarantir":4001,"vells":4002,"Ġaprof":4003,"ino":4004,"istre":4005,"vats":4006,"ĠPed":4007,"Ġpuc":4008,"Ġestil":4009,"Ġeines":4010,"esglÃ©sia":4011,"Ġpagar":4012,"Ġthe":4013,"ales":4014,"ĠdisposiciÃ³":4015,"Ġfotografies":4016,"Ãłnia":4017,"ĠJosÃ©":4018,"Ġcompor":4019,"ĠdiferÃ¨ncia":4020,"escrip":4021,"RE":4022,"esia":4023,"Ġprocessos":4024,"Ġaigua":4025,"ĠcÃ²m":4026,"Ġinfer":4027,"Ġexclus":4028,"ĠBi":4029,"ĠIlles":4030,"ĠDav":4031,"Ġtrobat":4032,"Ġunivers":4033,"fÃŃ":4034,"ĠEuropea":4035,"ĠContin":4036,"osp":4037,"Ġvostra":4038,"Ġrecoman":4039,"bilitats":4040,"rot":4041,"gies":4042,"Ġfotografia":4043,"Ġalta":4044,"Ġdesitj":4045,"Ġmanteniment":4046,"ficient":4047,"Ġarreu":4048,"gers":4049,"Ġcerta":4050,"Ġend":4051,"Ġ2008":4052,"sim":4053,"ĠNova":4054,"tructures":4055,"Ġbanc":4056,"Ġapareix":4057,"rg":4058,"tique":4059,"ĠBor":4060,"Ġabs":4061,"OM":4062,"Ġaplica":4063,"Ġbomb":4064,"ÃŃp":4065,"Ġoriginal":4066,"Ġtens":4067,"Ġtecnologia":4068,"Ġdamunt":4069,"ionat":4070,"cit":4071,"ĠrepresentaciÃ³":4072,"Ġsatisf":4073,"Di":4074,"Ġadqui":4075,"emanya":4076,"estructura":4077,"avui":4078,"Ġpassant":4079,"Ġinver":4080,"ĠMer":4081,"home":4082,"Ġconcre":4083,"Ġder":4084,"Ġurban":4085,"Ġsign":4086,"Ġemoci":4087,"Ġvaria":4088,"Ġ194":4089,"Ġfacilitar":4090,"Ġanimals":4091,"Ġinflu":4092,"Ġnombros":4093,"Ġinterpre":4094,"olÃŃ":4095,"Ġcomplex":4096,"Ġaband":4097,"Ġquedat":4098,"talls":4099,"errat":4100,"itzat":4101,"Ã¨poca":4102,"ĠFestival":4103,"idors":4104,"ĠSala":4105,"ĠFa":4106,"Ġpropietat":4107,"ĠJesÃºs":4108,"ĠSet":4109,"gida":4110,"arcal":4111,"ogrÃłfica":4112,"Emp":4113,"ĠfrancÃ¨s":4114,"Ġrequer":4115,"actuaciÃ³":4116,"vÃ¨ncia":4117,"Ġrevista":4118,"ĠFederaciÃ³":4119,"Ġdespla":4120,"Ġmeus":4121,"ĠFira":4122,"Ġdonen":4123,"ficacions":4124,"che":4125,"Ġrepro":4126,"Ð¾":4127,"Ġfort":4128,"vistes":4129,"enÃ§":4130,"mentar":4131,"ĠFesta":4132,"Ġasseny":4133,"aprenentatge":4134,"udio":4135,"ĠCada":4136,"ĠCr":4137,"Ġmic":4138,"oraciÃ³":4139,"ĠrÃłpi":4140,"Ġmeitat":4141,"Ġreconeixement":4142,"Ġdisposa":4143,"Ãłstic":4144,"eries":4145,"ters":4146,"aplicaciÃ³":4147,"Ġru":4148,"ĠGal":4149,"lab":4150,"economia":4151,"enten":4152,"euros":4153,"ump":4154,"onor":4155,"Ġllic":4156,"ĠlÃŃnies":4157,"Ġvel":4158,"Ġpon":4159,"Ġorganitza":4160,"ediciÃ³":4161,"itacions":4162,"Ġplaces":4163,"ĠÃ¨poca":4164,"ĠNomÃ©s":4165,"ilib":4166,"IA":4167,"Ġconnec":4168,"opa":4169,"Ġconduc":4170,"Ġama":4171,"Ġclient":4172,"riques":4173,"ang":4174,"tel":4175,"Ġprocedi":4176,"Ġcerti":4177,"teu":4178,"cipl":4179,"inform":4180,"ĠvalenciÃł":4181,"enf":4182,"ĠRi":4183,"25":4184,"ĠmÃłxima":4185,"Seg":4186,"Ġacaba":4187,"Ġrod":4188,"ĠcanÃ§ons":4189,"ĠTen":4190,"ĠaccÃ©s":4191,"Ãłmica":4192,"Ġhabitual":4193,"Ġbra":4194,"Ġretorn":4195,"OC":4196,"Ġdestaca":4197,"Ġfont":4198,"Ġcases":4199,"Ġvenda":4200,"199":4201,"Ġregal":4202,"Ġcomercial":4203,"Ġfamiliars":4204,"ĠBra":4205,"Ġpossibles":4206,"sign":4207,"ĠMajor":4208,"ĠvÃł":4209,"Ġrepresentants":4210,"udes":4211,"Ġvull":4212,"iniÃ³":4213,"Ġsot":4214,"ĠMedi":4215,"Ġcomenta":4216,"Ġfeta":4217,"Ġsituacions":4218,"Ãºnic":4219,"eral":4220,"ĠRÃł":4221,"IM":4222,"Ġcompra":4223,"cl":4224,"Ġvers":4225,"Ġprac":4226,"Ġdeia":4227,"Ġpublicar":4228,"ĠMartÃŃ":4229,"ĠacadÃ¨m":4230,"espera":4231,"enar":4232,"Ġteniu":4233,"Ġxif":4234,"Ġjard":4235,"Ġpau":4236,"ĠDon":4237,"Ã²giques":4238,"Ġmodern":4239,"ĠReus":4240,"ĠtelÃ¨":4241,"ĠAvui":4242,"Ġeducatiu":4243,"ĠCivil":4244,"igÃ¼es":4245,"Ġaporta":4246,"Ãłtica":4247,"ĠprogramaciÃ³":4248,"Ġsopar":4249,"Ġfres":4250,"ĠRepÃºblica":4251,"olÃ²gics":4252,"teixen":4253,"emÃłtiques":4254,"Ġprevist":4255,"AixÃŃ":4256,"Ġperme":4257,"ĠsoluciÃ³":4258,"UR":4259,"Ġdispu":4260,"Ġfusta":4261,"mem":4262,"Ġconstant":4263,"vencions":4264,"tides":4265,"ĠValenciana":4266,"ĠvÃŃc":4267,"ĠVallÃ¨s":4268,"oms":4269,"Ġbell":4270,"Ġmilitar":4271,"Ġiniciar":4272,"ĠSe":4273,"cen":4274,"alumnat":4275,"mbits":4276,"Ġbons":4277,"ĠpÃ¨r":4278,"ĠIs":4279,"Ġdra":4280,"Hi":4281,"vocar":4282,"Ġtransform":4283,"Ġdoble":4284,"Ġcad":4285,"onament":4286,"Ġsocis":4287,"erna":4288,"obregat":4289,"ĠEsp":4290,"rÃ²":4291,"Ġintegra":4292,"ĠanglÃ¨s":4293,"itatges":4294,"ĠNat":4295,"Ġprec":4296,"Ġllengu":4297,"Ġeng":4298,"Ãºstria":4299,"ĠvictÃ²ria":4300,"ĠPre":4301,"ĠCiutad":4302,"olesc":4303,"Ġvolia":4304,"Ġpedra":4305,"Ġdorm":4306,"cisament":4307,"uraciÃ³":4308,"Ġformen":4309,"Ġpell":4310,"ocupaciÃ³":4311,"ĠDavid":4312,"ĠsecciÃ³":4313,"Ġcompro":4314,"Ġfemen":4315,"jament":4316,"elec":4317,"Ġoberta":4318,"Ã²nim":4319,"OE":4320,"iscal":4321,"ĠFins":4322,"Ãºsica":4323,"ĠrÃ¨gim":4324,"isteri":4325,"Ġ+":4326,"Ġgreu":4327,"Ġaproxim":4328,"itza":4329,"ĠMari":4330,"Ġdesig":4331,"Ġquasi":4332,"Ġsabem":4333,"Ã¨x":4334,"Ġvehicles":4335,"Ġritme":4336,"Ġartistes":4337,"riÃł":4338,"Ġconcepte":4339,"ĠpresÃ³":4340,"Ġescola":4341,"Ġxerra":4342,"ele":4343,"ĠhistÃ²ric":4344,"ĠpretÃ©n":4345,"Ġexcel":4346,"Ġmitja":4347,"rin":4348,"Ġplatja":4349,"Ġvenir":4350,"Ġ80":4351,"ĠFl":4352,"dria":4353,"cionat":4354,"urg":4355,"ĠnecessÃłria":4356,"Ġvesti":4357,"Ġpregunta":4358,"Ġqued":4359,"Ġturisme":4360,"Ġanem":4361,"Ġgal":4362,"exp":4363,"Ġrecorda":4364,"Ġempresari":4365,"ĠLlobregat":4366,"teris":4367,"Ġnen":4368,"ĠOl":4369,"okies":4370,"erac":4371,"usa":4372,"ĠcrÃŃ":4373,"ado":4374,"Ġcant":4375,"ĠâĤ¬":4376,"las":4377,"ĠpÃ¨rdu":4378,"ribunal":4379,"ÃŃssim":4380,"Ġhabitants":4381,"Ġenerg":4382,"Ġentrada":4383,"Ġcontrari":4384,"Ġmorir":4385,"Ġassum":4386,"Ġopera":4387,"Ġpujar":4388,"Ġmalaltia":4389,"actualitat":4390,"Ġinforma":4391,"Ġfestival":4392,"ĠtelevisiÃ³":4393,"ĠHem":4394,"Ã¯da":4395,"Ġnecessita":4396,"ĠcomerÃ§":4397,"Ġsorg":4398,"Ãłrea":4399,"Ġdefinitiva":4400,"Ġcorre":4401,"estre":4402,"Ġpetites":4403,"Ġbany":4404,"'s":4405,"Ġeurope":4406,"ĠCab":4407,"Ġtraves":4408,"Ġquant":4409,"ogle":4410,"Ġnatura":4411,"Ġnete":4412,"ertura":4413,"Ġful":4414,"Ġnaturals":4415,"Ãį":4416,"ĠPaÃŃs":4417,"hes":4418,"ĠBarÃ§a":4419,"pir":4420,"Ġsof":4421,"Ġquali":4422,"Us":4423,"reses":4424,"Ġpermetre":4425,"Ġheu":4426,"Ã²c":4427,"Ġprior":4428,"gueu":4429,"eixin":4430,"lustra":4431,".,":4432,"Ġmanca":4433,"ĠSabadell":4434,"Ġrefor":4435,"Ġllo":4436,"ĠcomenÃ§at":4437,"xiu":4438,"ĠhaguÃ©s":4439,"ĠSÃŃ":4440,"Ġpropis":4441,"siu":4442,"sible":4443,"Ġterres":4444,"icacions":4445,"ults":4446,"Ġhtt":4447,"ĠmÃ¨t":4448,"Ġhip":4449,"cats":4450,"Ġnivells":4451,"atori":4452,"ĠÃŃn":4453,"ĠUs":4454,"Ġforces":4455,"gaciÃ³":4456,"Ġparella":4457,"avor":4458,"pora":4459,"Ġdeleg":4460,"administraciÃ³":4461,"prÃ¨s":4462,"ĠexperiÃ¨ncies":4463,"orament":4464,"Ġtransc":4465,"istent":4466,"ĠatenciÃ³":4467,"ĠÃłmbits":4468,"Ġmad":4469,"Ġordin":4470,"Ġplataforma":4471,"Ġpassada":4472,"Ġsolid":4473,"Ġtancar":4474,"ĠavanÃ§":4475,"ÃŃfics":4476,"ĠsÃ³c":4477,"Ġimme":4478,"Ġpossibilitats":4479,"ĠtÃ¨cnics":4480,"Ġgol":4481,"Ã¨nd":4482,"Ġseues":4483,"Ġanteriors":4484,"Ð°":4485,"Ġtoca":4486,"Ġinteressos":4487,"Ġnormativa":4488,"fÃŃcie":4489,"Va":4490,"Ġtractar":4491,"lement":4492,"iga":4493,"Ġarticles":4494,"Ġpreveu":4495,"ĠRos":4496,"Ġlid":4497,"dura":4498,"Ġconvers":4499,"tÃłncia":4500,"ĠfreqÃ¼":4501,"Ġdonant":4502,"Ġredac":4503,"Ġinstru":4504,"nis":4505,"Ġenguany":4506,"Ã¨ries":4507,"ĠAquests":4508,"Ã¨xit":4509,"Ġmotius":4510,"Ġjusti":4511,"Ġcarrera":4512,"venil":4513,"Ġarr":4514,"mits":4515,"ĠhistÃ²rica":4516,"Ġpaisatge":4517,"ĠdemocrÃłcia":4518,"po":4519,"Ġtingui":4520,"Ġvostre":4521,"hotel":4522,"ecuciÃ³":4523,"Ġfuncions":4524,"enca":4525,"ĠTreball":4526,"Ġdepartament":4527,"ĠMag":4528,"ĠCiutat":4529,"Ġmirar":4530,"gÃ¼es":4531,"Ġvolta":4532,"Ġcomptar":4533,"ĠintervenciÃ³":4534,"Ġdocuments":4535,"ĠConc":4536,"gles":4537,"Ġdetec":4538,"ĠPir":4539,"Ġexperim":4540,"40":4541,"ĠFor":4542,"Ġcreat":4543,"ich":4544,"Ebre":4545,"graf":4546,"ĠprÃ²pies":4547,"Ġintentar":4548,"Ġfelici":4549,"Ġarquitec":4550,"Ġllegint":4551,"Ġsessions":4552,"Ġba":4553,"Ġemo":4554,"ĠNe":4555,"Ġesca":4556,"interior":4557,"Ġperc":4558,"ĠfÃŃsica":4559,"ĠconfianÃ§a":4560,"Ġeina":4561,"ĠMundial":4562,"Ġfinanc":4563,"Ġprofessors":4564,"Ġpreguntes":4565,"Ġpersonatge":4566,"ĠocasiÃ³":4567,"ĠjurÃŃ":4568,"Ġinterior":4569,"enÃ§a":4570,"Ġconform":4571,"Ġconsulta":4572,"ĠexposiciÃ³":4573,"Ã²metres":4574,"ĠPel":4575,"tiner":4576,"Ġpermeten":4577,");":4578,"Ġautors":4579,"Ġenvol":4580,"Ġconta":4581,"energia":4582,"Ġdenunci":4583,"ĨĴ":4584,"Ġpoesia":4585,"Ġtasques":4586,"ĠhumÃł":4587,"ĠPort":4588,"ĠJorn":4589,"ĠJuan":4590,"Ġcorresponent":4591,"Ġregidor":4592,"exerci":4593,"ultat":4594,"Ġantic":4595,"Ġindustrial":4596,"Ġobligat":4597,"ĠRod":4598,"ĠconstruÃ¯":4599,"Re":4600,"ventut":4601,"uncia":4602,"Ġperspec":4603,"ĠServeis":4604,"Ġrefugi":4605,"ĠBiblioteca":4606,"Ġcoopera":4607,"Ġplantes":4608,"retari":4609,"ĠreflexiÃ³":4610,"oris":4611,"iny":4612,"ĠdocumentaciÃ³":4613,"Ġconsultar":4614,"Ġvisc":4615,"Ġmundial":4616,"Ġmenor":4617,"Ġvolum":4618,"Ġdiv":4619,"Ġcatalanes":4620,"Ġapun":4621,"mateix":4622,"Ġdedicat":4623,"zem":4624,"Ġcompon":4625,"itud":4626,"Ġparticipat":4627,"ĠPlaÃ§a":4628,"Ġcarta":4629,"ĠCongrÃ©s":4630,"tip":4631,"Ġsant":4632,"Ġtenint":4633,"Am":4634,"ĠCultural":4635,"Ġseguint":4636,"ĠMÃºsica":4637,"ĠconseqÃ¼Ã¨ncia":4638,"ÂĴ":4639,"teres":4640,"olÃ²giques":4641,"evoluciÃ³":4642,"Ġvostres":4643,"ĠdiÃłleg":4644,"Ġdelic":4645,"ofia":4646,"Ġpena":4647,"Ġdisposi":4648,"Ġinternacionals":4649,"fons":4650,"Ġprohib":4651,"Ġsuperar":4652,"times":4653,"Ġresponsables":4654,"rere":4655,"ports":4656,"tÃŃ":4657,"Ġgens":4658,"Ġpreus":4659,"Ġtret":4660,"Ġvolgut":4661,"menys":4662,"Ġconsta":4663,"Ġpagament":4664,"jant":4665,"Ġprogres":4666,"Ġevol":4667,"ĠCamb":4668,"Ġperfil":4669,"Ġaniversari":4670,"ĠCosta":4671,"Ġgastr":4672,"ks":4673,"Ðµ":4674,"ĠBr":4675,"ĠcapaÃ§":4676,"Ġenseny":4677,"Ġtocar":4678,"ĠintenciÃ³":4679,"tells":4680,"Ġprogram":4681,"Ġtru":4682,"Ġagents":4683,"ĠnÃ©ixer":4684,"Ġxi":4685,"Ab":4686,"urat":4687,"Ġnegre":4688,"ED":4689,"igual":4690,"Ġfabric":4691,"Ġompl":4692,"tÃłncies":4693,"Ġpertany":4694,"Ġparell":4695,"tisme":4696,"ĠâĨĴ":4697,"ite":4698,"Ġvint":4699,"PA":4700,"ĠcÃłn":4701,"line":4702,"Ġsac":4703,"ĠTerrassa":4704,"Ġprotagonista":4705,"Ġmel":4706,"arÃłs":4707,"Ġsenzill":4708,"ĠÃºnic":4709,"Ġvila":4710,"Ġelles":4711,"actes":4712,"espectac":4713,"ĠPerquÃ¨":4714,"Ġcura":4715,"Ãłtic":4716,"ĠMontserrat":4717,"Ġtesti":4718,"Ġllenguatge":4719,"Ġfonamental":4720,"ĠTan":4721,"imentaciÃ³":4722,"ĠPSC":4723,"Ġcoll":4724,"americ":4725,"Ġmestres":4726,"Ġpolicia":4727,"ollit":4728,"omenatge":4729,"Ġbarre":4730,"ĠInf":4731,"alitza":4732,"Ġele":4733,"atx":4734,"ow":4735,"ĠXavier":4736,"Ġmissatge":4737,"ĠcanÃ§Ã³":4738,"Ġcristi":4739,"arcelon":4740,"ĠConstitu":4741,"Ġelim":4742,"ĠAquestes":4743,"Ġ70":4744,"ĠAg":4745,"ulars":4746,"fe":4747,"Ġtrajec":4748,"ĠMartÃŃn":4749,"Ġfaran":4750,"orat":4751,"Ġroba":4752,"Ġdimen":4753,"Ġsectors":4754,"ĠDoc":4755,"Ġcavall":4756,"24":4757,"ĠOc":4758,"ĠDec":4759,"Ġquart":4760,"sin":4761,"Ġindependentis":4762,"rÃ³":4763,"Ġfu":4764,"tali":4765,"Ġhumana":4766,"Ãºltima":4767,"Ġreci":4768,"Ġcomentaris":4769,"Ġclara":4770,"hum":4771,"Ġrelacionats":4772,"jud":4773,"Ġdinar":4774,"cindi":4775,"Ġescoltar":4776,"ĠAlbert":4777,"ĠEc":4778,"Ġentitat":4779,"Pro":4780,"esos":4781,"Ġ195":4782,"Ġvoler":4783,"Ġperdut":4784,"ĠdifusiÃ³":4785,"Ġbiblioteca":4786,"Ġagafar":4787,"chez":4788,"Ġrecollir":4789,"ĠXar":4790,"Ġsurt":4791,"tri":4792,"ĠinvestigaciÃ³":4793,"Ġpeix":4794,"Ġfonts":4795,"âĢĻ,":4796,"Ġincid":4797,"Ġ&":4798,"Ġindica":4799,"eja":4800,"adores":4801,"Ġvosaltres":4802,"Ġdificultats":4803,"ugu":4804,"Ġpati":4805,"itar":4806,"ĠRÃłdio":4807,"ĠComunitat":4808,"Ġconcret":4809,"Ġdecidit":4810,"edit":4811,"ĠinterÃ¨s":4812,"Ġpend":4813,"queta":4814,"Ġedit":4815,"ĠJunta":4816,"ĠĠĠĠĠĠ":4817,"Ġatrac":4818,"Cal":4819,"gica":4820,"udit":4821,"ĠComp":4822,"ĠVan":4823,"dez":4824,"2018":4825,"--":4826,"escol":4827,"Ġvisites":4828,"Ġdep":4829,"Ġteix":4830,"bia":4831,"Ġvisitants":4832,"elabor":4833,"Ãºria":4834,"mplia":4835,"idor":4836,"ĠHe":4837,"Ġvacances":4838,"rontar":4839,"Ġfrac":4840,"ÃŃtols":4841,"Ġsecund":4842,"ĠMir":4843,"Ġdecisions":4844,"ĠtelÃ¨fon":4845,"ĠCi":4846,"Ġcamps":4847,"ENT":4848,"Âº":4849,"mig":4850,"onats":4851,"Ġfla":4852,"ajuntament":4853,"Ġestigui":4854,"Ġcerca":4855,"23":4856,"capacitat":4857,"Ġresoldre":4858,"Ġargu":4859,"Ã¨ndum":4860,"Ġproduir":4861,"ĠRom":4862,"Ġespera":4863,"ook":4864,"Ġactuals":4865,"Ġextraordin":4866,"Ġconcerts":4867,"endari":4868,"urien":4869,"Ġreduir":4870,"Ġglobal":4871,"del":4872,"Ġnoms":4873,"Ġnarra":4874,"encials":4875,"ãģ":4876,"Ġdesper":4877,"ĠBe":4878,"ĠcrÃŃtica":4879,"Ã±a":4880,"Ġsilenci":4881,"Ġpresents":4882,"Ġafegir":4883,"ĠValenciÃł":4884,"Ġequ":4885,"idaritat":4886,"Ġdiversitat":4887,"arribada":4888,"ht":4889,"ĠNi":4890,"estil":4891,"ĠciÃ¨ncia":4892,"Ġestablir":4893,"ĠmÃłqu":4894,"associaciÃ³":4895,"ĠcompeticiÃ³":4896,"Segons":4897,"riol":4898,"Ġteus":4899,"Ġcontempor":4900,"ositat":4901,"Ġrendi":4902,"Ġassoci":4903,"Ġvot":4904,"OT":4905,"Ġvent":4906,"udiovis":4907,"Ġestabli":4908,"tuals":4909,"rened":4910,"guessin":4911,"egant":4912,"ĠSerra":4913,"ordre":4914,"Ġconfigu":4915,"Ġrestaurant":4916,"ĠprimÃłria":4917,"Ãºnica":4918,"ESO":4919,"Ġtrobareu":4920,"mi":4921,"Ġreserva":4922,"Ġpropera":4923,"guis":4924,"acom":4925,"ĠgeneraciÃ³":4926,"ordÃł":4927,"Ġdo":4928,"fecte":4929,"60":4930,"Ġorganitzar":4931,"ĠBon":4932,"Ġcomptes":4933,"Ġbol":4934,"Ġmobilitat":4935,"are":4936,"ĠrealitzaciÃ³":4937,"vo":4938,"Ġeducativa":4939,"',":4940,"inari":4941,"Ġfron":4942,"ĠJun":4943,"Ġdocumental":4944,"gatzem":4945,"ĠeducaciÃ³":4946,"cel":4947,"Inter":4948,"vas":4949,"anova":4950,"gacions":4951,"22":4952,"ĠrecuperaciÃ³":4953,"ĠsuperfÃŃcie":4954,"dal":4955,"ĠresoluciÃ³":4956,"ĠnotÃŃcia":4957,"ĠacciÃ³":4958,"eixo":4959,"ossa":4960,"Ġdepend":4961,"Ġbicicle":4962,"hem":4963,"ĠGe":4964,"aixÃ²":4965,"sia":4966,"ĠFont":4967,"Ġajuntament":4968,"Ġxoc":4969,"ĠdemÃł":4970,"ĠGoogle":4971,"ĠnotÃŃcies":4972,"Ġferro":4973,"ĠllengÃ¼es":4974,"Ġtecnologies":4975,"Ġjornades":4976,"):":4977,"Ã§al":4978,"uti":4979,"ĠPos":4980,"lent":4981,"Ġencarreg":4982,"Ġfen":4983,"Ag":4984,"ĠdistÃłncia":4985,"rez":4986,"Ġqueden":4987,"org":4988,"ficats":4989,"Ġvide":4990,"Ġfitx":4991,"esca":4992,"Ġcaure":4993,"van":4994,"US":4995,"Ġis":4996,"Ġfines":4997,"ĠopciÃ³":4998,"ulari":4999,"Ġveloci":5000,"adap":5001,"eros":5002,"ficial":5003,"Ġdalt":5004,"ĠcompetÃ¨ncies":5005,"ĠsensaciÃ³":5006,"tro":5007,"labora":5008,"Ġterreny":5009,"Ġadop":5010,"Ã²noma":5011,"gÃ³":5012,"Ġmag":5013,"ĠLi":5014,"Ġbases":5015,"Ġllui":5016,"ĠSar":5017,"Ġpromoure":5018,"ĠjustÃŃcia":5019,"Ġmida":5020,"Ġnaix":5021,"Ã²sit":5022,"ĠÃºtil":5023,"ĠrÃłpid":5024,"ĠsÃ²":5025,"Ġcompleta":5026,"Ġtextos":5027,"obreix":5028,"Ġresulta":5029,"ĠXIX":5030,"Ġpreci":5031,"ĠMerc":5032,"Ġpermanent":5033,"osofia":5034,"Ġcim":5035,"ias":5036,"Ġvespre":5037,"Ġunitat":5038,"iÃ³s":5039,"ĠParÃŃs":5040,"pat":5041,"Ġclaus":5042,"prom":5043,"atur":5044,"Ġtermes":5045,"Ġquants":5046,"UN":5047,"Ġcurt":5048,"Ġamic":5049,"Ġfant":5050,"ĠAlgun":5051,"Ġol":5052,"Ġinicial":5053,"Ð¸":5054,"Ġlleug":5055,"Ġrepe":5056,"judi":5057,"IL":5058,"Ġcondem":5059,"Ġeducatius":5060,"Ġplani":5061,"IV":5062,"lectius":5063,"rb":5064,"jador":5065,"ĠES":5066,"ĠdistribuciÃ³":5067,"Ġdiscurs":5068,"IÃĵ":5069,"Ġreforma":5070,"Rec":5071,"audi":5072,"Ġassistir":5073,"cons":5074,"mac":5075,"Ġinno":5076,"Ġfranqu":5077,"Ãłnic":5078,"eques":5079,"Ġestona":5080,"Ġderro":5081,"Ġespectacle":5082,"ĠQuÃ¨":5083,"Ġales":5084,"Ġregular":5085,"ĠAquÃŃ":5086,"Ġcita":5087,"Ġpet":5088,"Ġcarreg":5089,"Ġsenyor":5090,"Ġvots":5091,"ĠprovÃŃn":5092,"Ġpoca":5093,"ras":5094,"Ġcriteris":5095,"ĠFern":5096,"Ġincre":5097,"Ġorganitzacions":5098,"ĠcomissiÃ³":5099,"cul":5100,"item":5101,"Ġmateixes":5102,"Ġmoviments":5103,"issions":5104,"ĠPe":5105,"Ġinterp":5106,"ĠfinanÃ§ament":5107,"QU":5108,"abs":5109,"Ġsimple":5110,"Ġator":5111,"icada":5112,"rani":5113,"Ġpreparar":5114,"nsit":5115,"Art":5116,"Ġocasions":5117,"Ġconveni":5118,"ajuda":5119,"ĠBal":5120,"Ġvoleu":5121,"rants":5122,"osament":5123,"Ġdescomp":5124,"Ġseguiment":5125,"Ġdefensar":5126,"ĠestarÃł":5127,"ĠCla":5128,"guera":5129,"Ġpropers":5130,"Ġconvertit":5131,"esde":5132,"ĠRob":5133,"ck":5134,"Ġcontracte":5135,"Ġdetalls":5136,"Ġ35":5137,"ĠÃłrees":5138,"taments":5139,"ÃŃg":5140,"Ġmirada":5141,"Ġassenyal":5142,"vÃ©":5143,"Ġpartida":5144,"uri":5145,"Ġanava":5146,"ĠProf":5147,"Ġsegles":5148,"Ġetapa":5149,"Ġdestacat":5150,"rals":5151,"grama":5152,"ĠAjuntament":5153,"ĠOb":5154,"one":5155,"ĠCiÃ¨ncies":5156,"RA":5157,"Ġvess":5158,"ĠpeÃ§a":5159,"arquitec":5160,"ĠorganitzaciÃ³":5161,"our":5162,"Ġprecisament":5163,"Ġpopulars":5164,"Ġconseller":5165,"vestigaciÃ³":5166,"Ġdescans":5167,"Ġ90":5168,"Ġoportunitat":5169,"Ġsolucions":5170,"Ġcodi":5171,"Ġcommem":5172,"ixes":5173,"ĠMediter":5174,"Ġcomarques":5175,"ĠconsciÃ¨ncia":5176,"Ġnormal":5177,"ĠFil":5178,"21":5179,"Ob":5180,"eli":5181,"emany":5182,"Ġtranspar":5183,"erÃł":5184,"80":5185,"ID":5186,"obli":5187,"Ġconflicte":5188,".âĢĿ":5189,"tadors":5190,"Ġsituada":5191,"Ġforn":5192,"uss":5193,"Ġimprescindi":5194,"Ġprotagonistes":5195,"ĠEspany":5196,"Ġperiodista":5197,"ĠJust":5198,"ripcions":5199,"ĠTurisme":5200,"ĠtrajectÃ²ria":5201,"Ġher":5202,"Ġassociacions":5203,"arien":5204,"Ġestiu":5205,"ltima":5206,"Ġ2006":5207,"RC":5208,"Ġespecials":5209,"Ġment":5210,"ĠMenorca":5211,"istat":5212,"ay":5213,"Ġenten":5214,"Ġaprofitar":5215,"tatges":5216,"ind":5217,"Ġedificis":5218,"ĠqÃ¼estions":5219,"gada":5220,"Ġpatir":5221,"Ġatac":5222,"Ġhauran":5223,"aluaciÃ³":5224,"ĠpÃ¨rdua":5225,"Ġmass":5226,"ĠCastellÃ³":5227,"ĠindÃºstria":5228,"Ġproposa":5229,"Ġrat":5230,"ĠreferÃ¨ndum":5231,"sitat":5232,"ficina":5233,"Ġvall":5234,"Ġitali":5235,"Ġpitj":5236,"Ġpodi":5237,"Ġsola":5238,"ĠcÃł":5239,"ĠNord":5240,"Ġenrere":5241,"ĠmantÃ©":5242,"etari":5243,"Ġrelacionades":5244,"Ġenviar":5245,"Ġbusca":5246,"ĠAll":5247,"ĠPopular":5248,"tÃłlia":5249,"enat":5250,"Ġrecollida":5251,"lars":5252,"Ġcookies":5253,"Ġcarn":5254,"equi":5255,"ox":5256,"mana":5257,"ĠquilÃ²metres":5258,"Ġmodels":5259,"dag":5260,"Ġdarrere":5261,"Ġwww":5262,"Ġopcions":5263,"licitud":5264,"Ġsang":5265,"Ġesdeveniments":5266,"Ġmera":5267,"Ġinterac":5268,"Ġmilers":5269,"Ġfred":5270,"Ġapren":5271,"ux":5272,"Ġcalor":5273,"Cons":5274,"Ġconeguda":5275,"bar":5276,"th":5277,"allar":5278,"ensenyament":5279,"avera":5280,"Ġassess":5281,"EsglÃ©sia":5282,"Ãłrdia":5283,"Ġplantej":5284,"Ġviuen":5285,"gic":5286,"insc":5287,"tÃłria":5288,"ĠOn":5289,"Ìģ":5290,"ĠFigu":5291,"ito":5292,"Ġdemanda":5293,"ĠPob":5294,"ĠÂ»":5295,"ortunitats":5296,"Ġcamins":5297,"Ġimplic":5298,"Ġdut":5299,"ĠNou":5300,"Ġvins":5301,"tador":5302,"Ġhabitatges":5303,"Ġmobil":5304,"Ġlliura":5305,"ĠCris":5306,"ĠÃłmplia":5307,"Ġideal":5308,"Ġcinqu":5309,"IP":5310,"especi":5311,"ĠFar":5312,"ĠMatar":5313,"ĠDom":5314,"alitzats":5315,"ĠpressiÃ³":5316,"Ġavis":5317,"illerat":5318,"-,":5319,"Ġtinguin":5320,"Ġvotar":5321,"Ġcolla":5322,"ĠAndreu":5323,"Ġtut":5324,"Ġconnex":5325,"trat":5326,"Ġfarem":5327,"eguda":5328,"venir":5329,"ergia":5330,"amÃŃ":5331,"Ġarran":5332,"Ġprincipalment":5333,"Ġelectoral":5334,"Hospital":5335,"Em":5336,"Ġveus":5337,"otidi":5338,"habili":5339,"Ãłster":5340,"ĠLA":5341,"Ġexclusiva":5342,"Ġassistents":5343,"Fa":5344,"entura":5345,"ity":5346,"rÃŃem":5347,"Ġverita":5348,"ires":5349,"Ġflu":5350,"ĠPass":5351,"rits":5352,"fin":5353,"ĠeconÃ²mics":5354,"Ġboti":5355,"ĠPalma":5356,"ĠJuli":5357,"ĠLocal":5358,"Ġpic":5359,"Ġfruit":5360,"ĠPotser":5361,"Ġmigdia":5362,"enllaÃ§":5363,"anitat":5364,"Ġmares":5365,"ĠPers":5366,"ĠSalvador":5367,"Ġconsisteix":5368,"Ġvelocitat":5369,"Ġdetall":5370,"Ġbastant":5371,"Ġmaneres":5372,"Ġcomplir":5373,"Ġprofessorat":5374,"Ġcircums":5375,"Ġpac":5376,"ÃŃfiques":5377,"Ġexpress":5378,"Ã²nic":5379,"ĠOli":5380,"ĠactuaciÃ³":5381,"Ġtradicionals":5382,"esport":5383,"Ġbru":5384,"icl":5385,"Ġassegurar":5386,"lel":5387,"Ġcomercials":5388,"Ġband":5389,"Pel":5390,"Ġron":5391,"ĠLleg":5392,"ĠautÃ¨n":5393,"quad":5394,"Ġfilla":5395,"Ġexecu":5396,"ĠFeliu":5397,"Ġreflec":5398,"wit":5399,"ĠGrÃłcies":5400,"habitatge":5401,"Entre":5402,"Ġplegat":5403,"Ġvege":5404,"ali":5405,"Ġquotidi":5406,"Â«":5407,"Ġalcal":5408,"mÃłtic":5409,"vic":5410,"Ġnovetats":5411,"ĠhistÃ²ries":5412,"liquen":5413,"ĠSr":5414,"tecciÃ³":5415,"ĠInternet":5416,"ĠManresa":5417,"Ġpintura":5418,"alg":5419,"tern":5420,"Ġreligi":5421,"Ġrepte":5422,"arda":5423,"Ġacus":5424,"Ġestableix":5425,"ĠManuel":5426,"Ġfeu":5427,"Ġacostu":5428,"Ġpoques":5429,"tanyes":5430,"Ġdenom":5431,"Ġgenerar":5432,"rgell":5433,"Ġespanyols":5434,"promÃŃs":5435,"Ġestudiar":5436,"Ġfid":5437,"Ġimpar":5438,".)":5439,"ĠDirecciÃ³":5440,"ĠregiÃ³":5441,"ĠSocietat":5442,"Ġboca":5443,"ĠFab":5444,"Ġpedag":5445,"Ġdisf":5446,"don":5447,"Ã¡nchez":5448,"Ġexemples":5449,"ĠgratuÃ¯ta":5450,"ĠespÃ¨cies":5451,"Ġfeien":5452,"Ġtreballen":5453,"olla":5454,"45":5455,"Ġprove":5456,"Ġlliga":5457,"formes":5458,"exercici":5459,"Ġamor":5460,"Ġorgan":5461,"AdministraciÃ³":5462,"ĠBla":5463,"ĠBas":5464,"opos":5465,"Ġresum":5466,"ĠfaÃ§":5467,"Ġpodreu":5468,"Ġingres":5469,"ĠPartit":5470,"ĠSu":5471,"Ġpensament":5472,"Barcelona":5473,"Ġhagin":5474,"Ġobtin":5475,"ĠDis":5476,"Ġrealitza":5477,"daria":5478,"Ġresidus":5479,"Ġrestes":5480,"ebook":5481,"Ġvarietat":5482,"hivern":5483,"Ġafegit":5484,"expl":5485,"MÃ©s":5486,"mentat":5487,"Ġquins":5488,"Ġnega":5489,"aconsegu":5490,"Ġlos":5491,"icciÃ³":5492,"Ġnormes":5493,"Ġmenors":5494,"ferÃ¨ncies":5495,"Ġsug":5496,"ĠWeb":5497,"Ġreac":5498,"ĠCatalans":5499,"Ġcalendari":5500,"Ġvehicle":5501,"Ãłstica":5502,"Ġindividual":5503,"ĠMe":5504,"Ġdirecta":5505,"Ġconsiderar":5506,"rab":5507,"ĠprevenciÃ³":5508,"ĠEncara":5509,"Ġpresti":5510,"Ġpolici":5511,"Ã²d":5512,"ĠComarcal":5513,"Ġfiscal":5514,"29":5515,"Ġnucli":5516,"ĠTribunal":5517,"inam":5518,"mer":5519,"oga":5520,"Ġmestre":5521,"Ġanomenat":5522,"ĠCerd":5523,"Ġcompren":5524,"Ġproxim":5525,"Ġquines":5526,"ĠRaf":5527,"oportunitat":5528,"Ġpodrien":5529,"ostos":5530,"fÃ¨":5531,"cor":5532,"Ġelement":5533,"28":5534,"Ġenlla":5535,"Ġbot":5536,"edÃ¨s":5537,"ĠÃłnim":5538,"ĠtraducciÃ³":5539,"ĠmÃ¨":5540,"ĠurbÃł":5541,"Ġevident":5542,"Ġconten":5543,"ĠconseqÃ¼Ã¨ncies":5544,"istÃ²":5545,"Ġ2000":5546,"Ġda":5547,"Ġfomentar":5548,"Ġcompr":5549,"ĠXarxa":5550,"hn":5551,"pez":5552,"Fin":5553,"Ġreper":5554,"Ġirre":5555,"ĠContinua":5556,"Ġnecessaris":5557,"Ġconjuntament":5558,"ĠFinalment":5559,"Ġcandidat":5560,"Ġconstruc":5561,"onÃ²mica":5562,"Ġdistin":5563,"ĠfÃłb":5564,"rana":5565,"erop":5566,"Mol":5567,"27":5568,"Ġadministracions":5569,"Ġjunts":5570,"Ġdurada":5571,"www":5572,"ĠprÃłcticament":5573,"Ġrecomana":5574,"ĠSÃ¡nchez":5575,"Ġteat":5576,"Ġmedia":5577,"Ġbreu":5578,"Par":5579,"existÃ¨ncia":5580,"Ġdot":5581,"ĠnecessÃłries":5582,"Ġveiem":5583,"Ġfira":5584,"Ġafirma":5585,"Ġposici":5586,"ĠreconÃ¨ixer":5587,"Ġllet":5588,"tins":5589,"Ġlloguer":5590,"io":5591,"Ġsimplement":5592,"Ġperspectiva":5593,"estan":5594,"Ġinvesti":5595,"Ġbut":5596,"ellÃ³":5597,"Ġplans":5598,"Ġvistes":5599,"Ġantiga":5600,"ĠlÃŃder":5601,"Ġbeneficis":5602,"Ã¨cia":5603,"OP":5604,"escenari":5605,"Ġobjecte":5606,"Ġassolir":5607,"Ġpacients":5608,"ĠPenedÃ¨s":5609,"amar":5610,"eratura":5611,"Oc":5612,"Ġpeus":5613,"Ġparal":5614,"Ġrequis":5615,"Ġtornat":5616,"cionada":5617,"anÃłlisi":5618,"Ġpreten":5619,"ricultura":5620,"canvi":5621,"expressiÃ³":5622,"ĠDem":5623,"Ġcotxes":5624,"Ġidentitat":5625,"Ġmalalties":5626,"eller":5627,"Ġgenerals":5628,"Ġorganitzada":5629,"ÑĤ":5630,"Ġep":5631,"ĠCUP":5632,"lum":5633,"Ġgel":5634,"Ġmotor":5635,"aller":5636,"ie":5637,"ĠtransformaciÃ³":5638,"inada":5639,"ressiÃ³":5640,"Ġnasc":5641,"Ġlegal":5642,"Ġjugador":5643,"Ġpresenten":5644,"ĠÂ¿":5645,"ĠAndorra":5646,"espectacle":5647,"taran":5648,"Ġacompanyat":5649,"Ġdolor":5650,"Ġefecte":5651,"Ã¨rcit":5652,"Ġcelebrat":5653,"Ġrevis":5654,"ĠHum":5655,"26":5656,"Ġesdevin":5657,"Ġfaig":5658,"ĠcrÃ¨":5659,"fera":5660,"ĠconferÃ¨ncia":5661,"ĠMitj":5662,"ĠNav":5663,"Ġsingular":5664,"cident":5665,"ĠtrÃłnsit":5666,"Ġbotiga":5667,"...]":5668,"oferta":5669,"Ġdomici":5670,"Ġmala":5671,"ĠMatarÃ³":5672,"Ġali":5673,"ĠinnovaciÃ³":5674,"Ġtants":5675,"fes":5676,"Ġpoeta":5677,"toris":5678,"Ġregistre":5679,"Ġreptes":5680,"red":5681,"empreses":5682,"inal":5683,"onestir":5684,"laborar":5685,"Ġpreparat":5686,"cidental":5687,"Ġmanifesta":5688,"Ġforta":5689,"ĠPR":5690,"Ġtreballat":5691,"ĠinscripciÃ³":5692,"Ġbenestar":5693,"isa":5694,"Ġsimb":5695,"artista":5696,"Ġcompliment":5697,"Ġconsider":5698,"diques":5699,"Ġedat":5700,"dad":5701,"Ġmarques":5702,"Ġori":5703,"Ġserveix":5704,"Ġmuseu":5705,"Ġdomini":5706,"Estudis":5707,"Ġalmenys":5708,"ler":5709,"Ġparlant":5710,"Ġtriar":5711,"llat":5712,"Ġcrida":5713,"Ġcompleix":5714,"Ġvaix":5715,"missiÃ³":5716,"ĠconcentraciÃ³":5717,"antic":5718,"ĠCreu":5719,"Ġjudici":5720,"ĀĀĀĀĀĀĀĀ":5721,"encs":5722,"Ġcomunitats":5723,"ĠconservaciÃ³":5724,"erada":5725,"ner":5726,"Ġdeixem":5727,"ross":5728,"Ġportaveu":5729,"rÃłnia":5730,"rell":5731,"etaris":5732,"Ġdiscipl":5733,"Ġprovin":5734,"Ġtemperatura":5735,"ical":5736,"ĠcondiciÃ³":5737,"Ġgestionar":5738,"Ġ300":5739,"Ġigu":5740,"Ġoferta":5741,"otjament":5742,"Ġreferent":5743,"gull":5744,"ĠUE":5745,"ĠvÃŃctimes":5746,"gudes":5747,"ranca":5748,"Ġdedicada":5749,"%.":5750,"ĠCoop":5751,"Ġ45":5752,"Ġintens":5753,"Ġdirigit":5754,"ĠvostÃ¨":5755,"Ø§":5756,"witter":5757,"ĠAf":5758,"Ġanual":5759,"Ġobjectes":5760,"ĠÃºltima":5761,"Ġportat":5762,"itÃł":5763,"ĠLliga":5764,"Ġassegura":5765,"Ġsucce":5766,"ticar":5767,"rÃłs":5768,"Ġproximitat":5769,"jos":5770,"mos":5771,"Ġsenzilla":5772,"elaboraciÃ³":5773,"lectual":5774,"citats":5775,"Ġdansa":5776,"entes":5777,"Ġenca":5778,"Ġjuvenil":5779,"Alt":5780,"ficada":5781,"Ġcarb":5782,"Ġvies":5783,"onia":5784,"lis":5785,"ineu":5786,"lÃŃcules":5787,"Ġmusicals":5788,"ĠColl":5789,"Ġpron":5790,"ĠcÃłm":5791,"Ġsostenible":5792,"Ġdedicar":5793,"Hem":5794,"ĠcelebrarÃł":5795,"pers":5796,"Ġordre":5797,"Ã²rum":5798,"ĠFormaciÃ³":5799,"rÃ©":5800,"Ġassign":5801,"onÃ²mic":5802,"ĠtÃŃp":5803,"Ġregi":5804,"Ġcamb":5805,"Ġcens":5806,"Ġlog":5807,"ĠMu":5808,"Ġmetod":5809,"Ġrepublic":5810,"adalona":5811,"Ġporten":5812,"Ġhttp":5813,"Ġajuntaments":5814,"Ġplats":5815,"alguns":5816,"Ġaleshores":5817,"ĠRoca":5818,"Ġigualtat":5819,"Ð½":5820,"Ġprocediment":5821,"gment":5822,"ociÃ³":5823,"etre":5824,"ĠTorre":5825,"pira":5826,"Ġdismin":5827,"ĠPo":5828,"ĠMare":5829,"ĠComerÃ§":5830,"jol":5831,"ĠTrans":5832,"ricte":5833,"uni":5834,"Ġadolesc":5835,"Ġvid":5836,"tas":5837,"ĠSom":5838,"ĠPSOE":5839,"evi":5840,"Ġvet":5841,"Ãºltip":5842,"500":5843,"Ġdig":5844,"rupciÃ³":5845,"ĠFot":5846,"Ġcadascun":5847,"Ġsecretari":5848,"ĠmanifestaciÃ³":5849,"PS":5850,"orci":5851,"Ġcompletament":5852,"Ġneteja":5853,"TA":5854,"IR":5855,"Ġpont":5856,"Ġdubtes":5857,"05":5858,"vera":5859,"Ġdespeses":5860,"ussiÃ³":5861,"Ġtardor":5862,"ĠPri":5863,"Ġterror":5864,"Ġacum":5865,"Ġhaurien":5866,"Ġlleis":5867,"ĠSud":5868,"ĠActualment":5869,"Ġinfra":5870,"Ġindependent":5871,"Ġprodueix":5872,"Ġbaixar":5873,"cÃ³":5874,"ospita":5875,"gor":5876,"ÃŃssima":5877,"ĠcontinuÃ¯":5878,"Ġestructura":5879,"ĠPle":5880,"ĠprovÃŃncia":5881,"Ġpassen":5882,"Ġpag":5883,"Ġtercers":5884,"Ġ;":5885,"Ġiniciatives":5886,"Ġ2005":5887,"Ġmantin":5888,"Ġimmedia":5889,"Ġdemostrar":5890,"Ġfals":5891,"Ġgo":5892,"Ġgarant":5893,"ĠCentral":5894,"Ca":5895,"questa":5896,"ĠenllaÃ§":5897,"Ġsegurament":5898,"sco":5899,"09":5900,"Ġaprovar":5901,"Ġnorma":5902,"lades":5903,"Ġmulti":5904,"undi":5905,"Ġaudiovis":5906,"mant":5907,"ĠVicent":5908,"ult":5909,"aquell":5910,"ĠmÃºsics":5911,"ngel":5912,"Ġimpossible":5913,"Ġequipa":5914,"Ġpluja":5915,"Ġvigent":5916,"Andorra":5917,"viament":5918,"Âª":5919,"ĠDoncs":5920,"ĠreducciÃ³":5921,"estran":5922,"ĠCE":5923,"ack":5924,"Ġcomplic":5925,"Ã³pez":5926,"ucion":5927,"Ġconverteix":5928,"Ġlaborals":5929,"itors":5930,"Ġbellesa":5931,"Ġaliments":5932,"Ġportal":5933,"Ġinclos":5934,"Ġdiri":5935,"Ġambiental":5936,"ĠGer":5937,"Ġteves":5938,"Ġdivid":5939,"liaciÃ³":5940,"ĠÃ²r":5941,"epres":5942,"tivar":5943,"mad":5944,"Ġsolidaritat":5945,"ĠcompetÃ¨ncia":5946,"ĠRub":5947,"Ġtindran":5948,"Ġrelat":5949,"postes":5950,"Ġaprovat":5951,"ĠEstat":5952,"dÃ³s":5953,"ĠÃ²p":5954,"Ġaixec":5955,"Ã²graf":5956,"ERC":5957,"Ġreivindic":5958,"itÃ¨":5959,"ĠcontÃ©":5960,"indica":5961,"ĠBern":5962,"Ġuniversitat":5963,"ĠconvivÃ¨ncia":5964,"ðŁ":5965,"Ġdescarreg":5966,"ÑĢ":5967,"omf":5968,"Ġtes":5969,"Ġempresarial":5970,"atÃ³":5971,"ĠcrÃ©ixer":5972,"Ġofereixen":5973,"Ġpujada":5974,"ĠpermetrÃł":5975,"ĠFon":5976,"Ñģ":5977,"Ġmajors":5978,"Ġprotes":5979,"Ġprocla":5980,"tits":5981,"teria":5982,"Ġmanifest":5983,"esdeven":5984,"Ġcomentari":5985,"eval":5986,"Ġaplicar":5987,"ĠDani":5988,"ĠMossos":5989,"Ġarriben":5990,"ĠTrob":5991,"GT":5992,"Ġposteriorment":5993,"ĠartÃŃstica":5994,"Ġfeli":5995,"land":5996,"ĠesforÃ§":5997,"allÃ²":5998,"Ġriques":5999,"Ġactiva":6000,"questra":6001,"ĠDr":6002,"ĠPep":6003,"Ġcog":6004,"Ġministre":6005,"Ġnoies":6006,"ualment":6007,"Ġeuropeu":6008,"ĠÃºltimes":6009,"Ġdinam":6010,"Ġnaturalesa":6011,"Ġcm":6012,"Ġves":6013,"Ġescal":6014,"Ġcontamin":6015,"llar":6016,"ostra":6017,"moni":6018,"Ġadults":6019,"Ġprivi":6020,"Ġterri":6021,"Ġartes":6022,"Ġnoti":6023,"ĠlÃ²g":6024,"Ġfeix":6025,"Ġoli":6026,"Ġdivul":6027,"opciÃ³":6028,"utri":6029,"Ġminut":6030,"enament":6031,"ĠBadalona":6032,"Ġraons":6033,"ulats":6034,"estructures":6035,"Ġrecurs":6036,"ĠutilitzaciÃ³":6037,"ĠLlen":6038,"ĠEstÃł":6039,"36":6040,"Ġvas":6041,"itzada":6042,"ĠClar":6043,"ĠrestauraciÃ³":6044,"Ġretir":6045,"mina":6046,"havien":6047,"ore":6048,"ionar":6049,"ĠMinisteri":6050,"ĠEspa":6051,"ĠTÃ©":6052,"esforÃ§":6053,"essa":6054,"ĠSo":6055,"ĠaplicaciÃ³":6056,"Ġacol":6057,"ĠEra":6058,"presa":6059,"jectes":6060,"antiga":6061,"ĠFerran":6062,"Ġlliures":6063,"yes":6064,"Ġalum":6065,"morzar":6066,"Ġprovoca":6067,"ate":6068,"ĠLÃ³pez":6069,"Ġamena":6070,"Ġbarris":6071,"otÃŃcies":6072,"Ġameric":6073,"itges":6074,"bit":6075,"ĠdeclaraciÃ³":6076,"ĠCin":6077,"ĠinversiÃ³":6078,"quetes":6079,"07":6080,"Ġprivat":6081,"Ġdemostra":6082,"adre":6083,"Ġmenjador":6084,"Ġcaigu":6085,"anomen":6086,"Ġtantes":6087,"ĠSense":6088,"ĠDiss":6089,"ĠTom":6090,"Ġsucc":6091,"Ġdoctor":6092,"Ġlector":6093,"Ġaleg":6094,"ĠVilanova":6095,"Ġfol":6096,"Ġets":6097,"ĠinstituciÃ³":6098,"ĠcÃ²":6099,"Ġgest":6100,"ĠComunicaciÃ³":6101,"ĠmodificaciÃ³":6102,"Ġrepeti":6103,"Ġmalament":6104,"Ġvuln":6105,"Ġtancat":6106,"licitat":6107,"Ġentrades":6108,"ĠAp":6109,"AV":6110,"Ġvaga":6111,"obres":6112,"anti":6113,"istori":6114,"Ġeuropea":6115,"Ġforen":6116,"ĠLon":6117,"ĠMalgrat":6118,"tesa":6119,"2017":6120,"Ġcomplet":6121,"Ġvulguin":6122,"ĠsÃŃmb":6123,"Ġdeixant":6124,"ĠFacultat":6125,"Pod":6126,"Ġsuficient":6127,"Ġestre":6128,"Ġ[...]":6129,"camp":6130,"ĠConselleria":6131,"Ġcomprovar":6132,"ĠGrau":6133,"vinguda":6134,"Ġtarge":6135,"Ġcostu":6136,"ĠTri":6137,"Ġmascul":6138,"ĠmÃºltip":6139,"ĠTerritori":6140,"brer":6141,"Ġpitjor":6142,"Ġdirectora":6143,"Ġveig":6144,"ĠToni":6145,"Ġinformar":6146,"Ġ@":6147,"Ġtirar":6148,"Ġmental":6149,"Ġrecent":6150,"ĠSuperior":6151,"Ġ500":6152,"ĠquÃŃm":6153,"ĠdÃ¨cada":6154,"Ġpantalla":6155,"Ġbu":6156,"anyes":6157,"ĠMil":6158,"Ġtros":6159,"Ġpodrem":6160,"Ġpublicitat":6161,"Ġmarge":6162,"rils":6163,"ĠSetmana":6164,"Ġdob":6165,"04":6166,"Ġfilosofia":6167,"Ġimplica":6168,"ry":6169,"ĠPrat":6170,"Ġconserva":6171,"usos":6172,"06":6173,"Ġhomenatge":6174,"nex":6175,"35":6176,"Ã¡ndez":6177,"Ġmoda":6178,"ginyeria":6179,"ĠImp":6180,"Ġparticipen":6181,"ĠReial":6182,"Ġlas":6183,"mun":6184,"aco":6185,"CE":6186,"Ġsaluda":6187,"ĠRei":6188,"Ġflor":6189,"accep":6190,"ĠSim":6191,"ĠCaixa":6192,"ils":6193,"ĠcooperaciÃ³":6194,"Ġdiscapacitat":6195,"ĠCiU":6196,"Ġhabitacions":6197,"Ġfir":6198,"ĠautomÃł":6199,"novaciÃ³":6200,"Ġciutadana":6201,"pass":6202,"Ec":6203,"dec":6204,"Ġindis":6205,"Ġcicl":6206,"??":6207,"Ġexperts":6208,"ĠCD":6209,"Ġeste":6210,"Ġviatges":6211,"ico":6212,"ĠSon":6213,"Ġpiscina":6214,"lets":6215,"Ġesfor":6216,"ĠrÃłdio":6217,"ĠMartÃŃnez":6218,"ĠRosa":6219,"Ġpropietaris":6220,"ĠJocs":6221,"ĠclassificaciÃ³":6222,"asti":6223,"ivis":6224,"Ġintent":6225,"isbe":6226,"ĠMet":6227,"Ġesportiva":6228,"table":6229,"ĠSeguretat":6230,"ĠMarta":6231,"ĠGrÃłcia":6232,"Ġveuen":6233,"ĠeconÃ²miques":6234,"independ":6235,"Tots":6236,"Ġvulgui":6237,"Ġmatin":6238,"ĠAgu":6239,"Ġperfectament":6240,"ostre":6241,"cils":6242,"Ġretalla":6243,"ĠMod":6244,"Ġsorpren":6245,"Ġimprescindible":6246,"dueix":6247,"Ġexterior":6248,"ĠIII":6249,"Ġcanal":6250,"urants":6251,"Ġfactors":6252,"Ã²niques":6253,"licitar":6254,"ĠPaÃ¯sos":6255,"ph":6256,"Ġobservar":6257,"ĠRegne":6258,"ĠavanÃ§ar":6259,"Ġmanip":6260,"Ġoper":6261,"__":6262,"Ġplantil":6263,"Ġposada":6264,"lou":6265,"oposiciÃ³":6266,"Ġxerrada":6267,"ĠPresident":6268,"Ġtrim":6269,"Ġestiguin":6270,"Ġbrill":6271,"Ġposem":6272,"orts":6273,"Ġantics":6274,"tua":6275,"Ġoficials":6276,"ĠSeu":6277,"ova":6278,"Ġtanta":6279,"CC":6280,"Ġvell":6281,"Ġhotel":6282,"ĠAnna":6283,"iner":6284,"Ġestabliments":6285,"anÃ§ar":6286,"ĠCarme":6287,"Ġprivada":6288,"ĠValls":6289,"ĠCre":6290,"Ġllegit":6291,"Ġexac":6292,"Ġdomicili":6293,"Ġpensat":6294,"Ġcreure":6295,"Ġaspecte":6296,"Ã¨u":6297,"Ġcops":6298,"Ġfum":6299,"Ġcomunicar":6300,"Ġnaixement":6301,"Ġinferior":6302,"Ġestal":6303,"Ġlluitar":6304,"Ġmur":6305,"ĠpermÃ¨s":6306,"Ġsorpresa":6307,"Ġpasseig":6308,"78":6309,"edeix":6310,"ients":6311,"Ġaugmentar":6312,"Ġlliurament":6313,"Ġsignat":6314,"ĠhÃłb":6315,"Ġprofunda":6316,"ĠEsper":6317,"ĠfÃŃsic":6318,"instal":6319,"ĠNatural":6320,"Car":6321,"Ġtriomf":6322,"Ġcomporta":6323,"Ġlimita":6324,"Ġcans":6325,"ÃĪ":6326,"Ġamunt":6327,"Ġ2004":6328,"ĠAutÃ²noma":6329,"Ġprevis":6330,"Ã¡s":6331,"Ġtransi":6332,"Ġpresa":6333,"Ġvoluntaris":6334,"ĠYork":6335,"ĠIN":6336,"On":6337,"ama":6338,"aquells":6339,"gats":6340,"ĠGarc":6341,"Ġcorrent":6342,"Ġrespondre":6343,"Ãłtics":6344,"dom":6345,"ĠsentÃ¨ncia":6346,"ĠresistÃ¨ncia":6347,"ĠSel":6348,"Ġflors":6349,"ĠAlemanya":6350,"har":6351,"Ġprestigi":6352,"ilibri":6353,"Ġdisposar":6354,"hol":6355,"Ãĥ":6356,"ĠvÃłrem":6357,"Aut":6358,"Ġinteressants":6359,"Ġguanyat":6360,"Ġconceptes":6361,"Ġestats":6362,"ĠXina":6363,"Ġcrim":6364,"ĠgermÃł":6365,"Ġdescar":6366,"Ġapareixen":6367,"Ġcreixent":6368,"Ġterritorial":6369,"Ġatra":6370,"Ġsaben":6371,"jats":6372,"Finalment":6373,"Ġafavor":6374,"idi":6375,"ati":6376,"ĠBell":6377,"ACIÃĵ":6378,"Ġaugment":6379,"lim":6380,"84":6381,"ĠdemocrÃłtica":6382,"Ġviscut":6383,"Ġlocalitat":6384,"leta":6385,"ĠCompromÃŃs":6386,"Ġcalc":6387,"antar":6388,"Ġentra":6389,"indi":6390,"ues":6391,"Ġactuar":6392,"Ġesdeveniment":6393,"ĠEdi":6394,"marca":6395,"Ġdegut":6396,"ĠfaÃ§ana":6397,"onz":6398,"entada":6399,"ĠgratuÃ¯t":6400,"ego":6401,"ĠRip":6402,"ĠVe":6403,"ugat":6404,"Ð¾Ð":6405,"Ġprimavera":6406,"Ġdomin":6407,"ĠlÃŃmits":6408,"Ġgermans":6409,"Ġmeravell":6410,"ender":6411,"voca":6412,"Ãłrrega":6413,"Ġdirigida":6414,"ĠUrb":6415,"Ġparar":6416,"Ġproba":6417,"ĠaigÃ¼es":6418,"Ġplaer":6419,"Ġcorresponents":6420,"%,":6421,"assistÃ¨ncia":6422,"AgÃ¨ncia":6423,"âĢĺ":6424,"ĠEducaciÃ³":6425,"ater":6426,"Ġidi":6427,"Ġmediter":6428,"ĠâĢ¢":6429,"ĠconnexiÃ³":6430,"ondre":6431,"ĠPrograma":6432,"Ġhav":6433,"Ġtitu":6434,"rupaciÃ³":6435,"03":6436,"eroport":6437,"oz":6438,"Ġbarcelon":6439,"Ġsortit":6440,"ĠjardÃŃ":6441,"Ġclarament":6442,"itzacions":6443,"Ġneix":6444,"Ġ*":6445,"lib":6446,"ĠMic":6447,"ĠTÃ¨c":6448,"Ġhaur":6449,"Ġmarx":6450,"Ġformada":6451,"ĠTecn":6452,"ĠclÃłssic":6453,"Ġnombrosos":6454,"obser":6455,"Ġrecap":6456,"Ġpoemes":6457,"Ġalim":6458,"Ã¯ts":6459,"Ġformulari":6460,"ders":6461,"ĠpeticiÃ³":6462,"Ġrus":6463,"Ġvendre":6464,"ĠCu":6465,"ĠMill":6466,"alÃ§ada":6467,"Ġreunir":6468,"Ġfed":6469,"Ġcaps":6470,"ĠautÃ²n":6471,"versions":6472,"ĠCasal":6473,"lectiva":6474,"Ġeuropeus":6475,"frica":6476,"Ãºncia":6477,"Ġintegral":6478,"anal":6479,"Ġinternet":6480,"Ġdemanat":6481,"ĠQui":6482,"onals":6483,"Ġreunions":6484,"ĠcÃłncer":6485,"Ġlectors":6486,"asa":6487,"Ãłcia":6488,"ĠPrincip":6489,"EU":6490,"ĠbÃłsics":6491,"ĠSub":6492,"Ġnecessiten":6493,"tric":6494,"Ġsou":6495,"Ġfacin":6496,"Ġvalorar":6497,"Ġenvi":6498,"Ġdirigir":6499,"ĠcientÃŃfica":6500,"IF":6501,"Ġplata":6502,"65":6503,"ĠGuill":6504,"Ġenorm":6505,"Ġbur":6506,"Ġperfecte":6507,"Ġbr":6508,"col":6509,"guez":6510,"empor":6511,"Ġesport":6512,"ĠERC":6513,"Ġtop":6514,"ÃĴ":6515,"Ġseguida":6516,"Ġsenc":6517,"ecutiu":6518,"ĠTar":6519,"urb":6520,"Ġcategories":6521,"rÃ²quia":6522,"Ġitiner":6523,"arribar":6524,"ĠCarlos":6525,"Ġllit":6526,"apartat":6527,"cepciÃ³":6528,"Ġafecta":6529,"Ġcartell":6530,"ĠSeny":6531,"2015":6532,"tl":6533,"Ġobertes":6534,"ock":6535,"Ġexercir":6536,"Ġrecepta":6537,"Ġteoria":6538,"uig":6539,"emen":6540,"Ġexcur":6541,"Ġdocent":6542,"dex":6543,"Ġentrevista":6544,"ĠrÃłpida":6545,"Ġmarxar":6546,"ea":6547,"gal":6548,"Ãłlia":6549,"ĠBus":6550,"Ġtornada":6551,"Ġtorre":6552,"Ha":6553,"Ġinj":6554,"isos":6555,"ĠÃºnicament":6556,"Ġregidora":6557,"Ġbicicleta":6558,"ĠtendÃ¨ncia":6559,"enguany":6560,"Ġgira":6561,"CAT":6562,"Ġdescobri":6563,"ĠEste":6564,"oo":6565,"egar":6566,"eracions":6567,"alitzades":6568,"Ġfug":6569,"ĠEnric":6570,"iblioteques":6571,"sil":6572,"ĠInd":6573,"ĠfÃłbrica":6574,"Ġing":6575,"Ġaposta":6576,"impacte":6577,"Ġjuga":6578,"08":6579,"Ġimmig":6580,"entren":6581,"Ġreconegut":6582,"ualitat":6583,"ĠCopa":6584,"ĠRoma":6585,"cionalment":6586,"Ġpenso":6587,"lacant":6588,"Ġpobresa":6589,"UM":6590,"Ġmorts":6591,"Ġxifra":6592,"ĠDol":6593,"ĠlegislaciÃ³":6594,"ĠresidÃ¨ncia":6595,"ood":6596,"ĠEL":6597,"dol":6598,"ĠGarcÃŃa":6599,"Ġtanca":6600,"âĢĻ.":6601,"Ġeleg":6602,"Ġfinalitzar":6603,"ĠlÃŃmit":6604,"Ġnois":6605,"ĠmÃ¨tode":6606,"Ġactors":6607,"ĠHistÃ²ria":6608,"Assemblea":6609,"dard":6610,"Ġhaure":6611,"ĠgrÃłfic":6612,"ĠMercat":6613,"Ġlletres":6614,"piraciÃ³":6615,"ws":6616,"istema":6617,"Espai":6618,"Ġxocola":6619,"Ġacredi":6620,"ĠespecÃŃfica":6621,"Ġemocions":6622,"Ġcomencen":6623,"ĠPodem":6624,"Ġescen":6625,"Ġclima":6626,"Ġpodien":6627,"omun":6628,"Ġverd":6629,"Ġradic":6630,"Ġposant":6631,"berg":6632,"Ġfilm":6633,"ĠdiferÃ¨ncies":6634,"Ġsexual":6635,"Ġarbres":6636,"ientals":6637,"atures":6638,"uÃ¯t":6639,"Ġautoritats":6640,"Ġnoia":6641,"Ġpositiu":6642,"Ġcomplement":6643,"bal":6644,"ĠSocials":6645,"ĠÃłmbit":6646,"Ġincrem":6647,"ĠcÃłrrecs":6648,"Ġ2003":6649,"avaluaciÃ³":6650,"ign":6651,"elcom":6652,"ĠBÃ©":6653,"Ġrepresentant":6654,"ky":6655,"Ġconflictes":6656,"ĠConsorci":6657,"ĠItÃłlia":6658,"Ġdepen":6659,"Ġrural":6660,"ando":6661,"Ġjudicial":6662,"Ġdarreres":6663,"tirÃł":6664,"ĠinterpretaciÃ³":6665,"Ġculpa":6666,"Ġrell":6667,"Ġposen":6668,"99":6669,"Ġfetes":6670,"has":6671,"ional":6672,"Ġxic":6673,"liar":6674,"Ġesperar":6675,"itÃłries":6676,"Ġdisponible":6677,"titzaciÃ³":6678,"Ġcadascuna":6679,"habilitaciÃ³":6680,"ila":6681,"ĠrÃłpidament":6682,"alls":6683,"Ġ150":6684,"Ġmecan":6685,"Ol":6686,"Ġvora":6687,"Ġacompanyar":6688,"eng":6689,"Ġmeves":6690,"ĠBanc":6691,"Ġpoblacions":6692,"ardo":6693,"Ġdefinir":6694,"liber":6695,"vet":6696,"eure":6697,"istit":6698,"orden":6699,"Ġdisponibles":6700,"ĠGuÃłrdia":6701,"Ġcantant":6702,"Ġtestimoni":6703,"ĠsecundÃłria":6704,"ĠenergÃ¨tica":6705,"Ġlu":6706,"ĠLlor":6707,"Ġhid":6708,"ĠdÃ¨cades":6709,"Ġutilitzant":6710,"Ġcated":6711,"ik":6712,"Ġvalencians":6713,"Ġrestaurants":6714,"magatzem":6715,"ĠAs":6716,"ĠteÃ²":6717,"ĠFC":6718,"ue":6719,"Ġonline":6720,"Ġagu":6721,"Ġcontribuir":6722,"Ã³rm":6723,"Ġrellev":6724,"Ġaplic":6725,"Ġprovocar":6726,"Ġacollir":6727,"LA":6728,"letes":6729,"ĠcontractaciÃ³":6730,"pla":6731,"ĠPolÃŃtica":6732,"vacions":6733,"Ġnombroses":6734,"Ġfrase":6735,"ĠcircumstÃłncies":6736,"ocar":6737,"Ġprobablement":6738,"ĠPÃ©":6739,"histÃ²ria":6740,"Ġdificultat":6741,"ssia":6742,"75":6743,"Imp":6744,"ĠIm":6745,"Ġoportunitats":6746,"Ġpotenciar":6747,"hagi":6748,"posar":6749,"ustr":6750,"ile":6751,"aurada":6752,"ĠVaig":6753,"Ġconvida":6754,"iada":6755,"demont":6756,"ĠAntonio":6757,"Ġcenten":6758,"Ġespectacular":6759,"dessa":6760,"ĠelectrÃ²nica":6761,"...)":6762,"Ġcreativitat":6763,"atÃŃ":6764,"Ġterritoris":6765,"ĠvÃŃdeos":6766,"ĠSanti":6767,"Ġpressupostos":6768,"Ã¯m":6769,"ĠvaloraciÃ³":6770,"ĠNÃºria":6771,"Ġpromoci":6772,"ĠJoaqu":6773,"Ġconsells":6774,"espa":6775,"ĠFigueres":6776,"Ġconsens":6777,"ĠUN":6778,"Ġhabilitats":6779,"ĠPolicia":6780,"ĠtÃŃtols":6781,"Ġpilota":6782,"ĠcadascÃº":6783,"vatori":6784,"Ġutilitzat":6785,"ĠproduÃ¯t":6786,"Ġtrencar":6787,"tans":6788,"Ġesperem":6789,"Ġpaga":6790,"Cada":6791,"ĠFerrer":6792,"Ġcauses":6793,"Ġregula":6794,"ĠproveÃ¯":6795,"fers":6796,"Ġparlat":6797,"Ġoct":6798,"ÃŃtim":6799,"ĠArt":6800,"'.":6801,"Ġenergia":6802,"Que":6803,"Ġinstitucional":6804,"ĠPatrimoni":6805,"Ġperjudi":6806,"Ġparticulars":6807,"Ġmostren":6808,"ĠIV":6809,"33":6810,"otels":6811,"blo":6812,"extre":6813,"Segu":6814,"Ġaproximadament":6815,"ĠEuropeu":6816,"Ġsimilar":6817,"ĠcaldrÃł":6818,"ĠAlta":6819,"ĠEspor":6820,"Ġutilitza":6821,"!!!!":6822,"Ġbasat":6823,"Ġballar":6824,"Ã²nies":6825,"ĠSt":6826,"gma":6827,"Ġdesenvolupat":6828,"esperit":6829,"Ġaplicacions":6830,"Ġmarcat":6831,"ĠConstituciÃ³":6832,"Ġner":6833,"Ġvisual":6834,"Ġmereix":6835,"Ġparlem":6836,"Ġplaneta":6837,"timent":6838,"Ġpreguntar":6839,"Ġgru":6840,"SS":6841,"Ġetique":6842,"ulada":6843,"ress":6844,"ĠhavÃŃem":6845,"Ġescolars":6846,"Ġemprened":6847,"Ġprotegir":6848,"Ġuniversitats":6849,"oda":6850,"Ġdicta":6851,"Ġcomplem":6852,"Ġunitats":6853,"olar":6854,"Ġext":6855,"Ġrepresentar":6856,"Ġrequisits":6857,"ĠlingÃ¼ÃŃstica":6858,"ĠGl":6859,"ĠPlataforma":6860,"ĠHan":6861,"Ġproperes":6862,"Ġrecentment":6863,"Ġcanviat":6864,"Ġriquesa":6865,"Ã²legs":6866,"idal":6867,"ĠProtecciÃ³":6868,"Ġmuntanyes":6869,"hauria":6870,"Ġconvoca":6871,"Ġinstruments":6872,"Ġcomportament":6873,"ĠcoordinaciÃ³":6874,"envolupament":6875,"ligÃ¨ncia":6876,"Ġdocents":6877,"Ġconsistori":6878,"Ã¨tics":6879,"ĠdefiniciÃ³":6880,"Ġfigures":6881,"Ġtindre":6882,"rors":6883,"Ġactiu":6884,"Ġnacionals":6885,"Ġmedieval":6886,"Ġprote":6887,"rÃłcies":6888,"ĠsÃ²l":6889,"Ġroda":6890,"gue":6891,"Ġcircuit":6892,"lusions":6893,"ĠpreparaciÃ³":6894,"Ġpuntu":6895,"ĠĠĠĠĠ":6896,"tensiÃ³":6897,"Ġrepor":6898,"ĠRic":6899,"prÃ¨n":6900,"Urgell":6901,"Ġoblidar":6902,"Ġinqui":6903,"Ġsubvencions":6904,"ĠSergi":6905,"ĠlÃº":6906,"ĠPÃº":6907,"be":6908,"âĨ":6909,"Ġprovar":6910,"ĠcapÃŃtol":6911,"Ġassass":6912,"mÃ©s":6913,"iri":6914,"ĠÃģ":6915,"ĠSants":6916,"olo":6917,"ĠmociÃ³":6918,"ĠUnivers":6919,"ĠAls":6920,"ibles":6921,"Ġcomentar":6922,"ĠpassiÃ³":6923,"Ġreclama":6924,"alista":6925,"lem":6926,"ĠProm":6927,"Ġcerves":6928,"Ġsitua":6929,"eo":6930,"anista":6931,"Ġtaules":6932,"Ã²lica":6933,"Ġsumar":6934,"joy":6935,"2016":6936,"Ġdormir":6937,"Ġparada":6938,"Ġplantejar":6939,"ago":6940,"Ġveritable":6941,"tils":6942,"ĠTanmateix":6943,"informe":6944,"acompany":6945,"70":6946,"Ġintenta":6947,"Ġagradat":6948,"tanta":6949,"Ġvoluntari":6950,"ĠcapaÃ§os":6951,"Ġbatalla":6952,"Os":6953,"Ġtrenta":6954,"ĠLondres":6955,"Ġreals":6956,"ĠopiniÃ³":6957,"ĠcomposiciÃ³":6958,"Ġidentificar":6959,"cionalitat":6960,"ĠPic":6961,"ĠcontinuÃ¯tat":6962,"EG":6963,"quadra":6964,"Uni":6965,"Ġampliar":6966,"Ġmercats":6967,"Ġcontrolar":6968,"osi":6969,"ĠCrist":6970,"Ġ64":6971,"Ġfores":6972,"39":6973,"Ġedicions":6974,"Ġreivindica":6975,"Ġconeguts":6976,"Ġsemblant":6977,"Ġimmob":6978,"IG":6979,"Ġproposar":6980,"ĠdiÃłria":6981,"alguna":6982,"Ġagradable":6983,"ĠPÃ©rez":6984,"ĠVia":6985,"Ġarque":6986,"ĠRafa":6987,"Ġparelles":6988,"anterior":6989,"tesi":6990,"ĠrevoluciÃ³":6991,"Ġsinc":6992,"Ġfrancesa":6993,"Ġaportar":6994,"obertura":6995,"Ġcontras":6996,"ĠDiari":6997,"Ġvalenciana":6998,"ĠestratÃ¨gies":6999,"ĠJove":7000,"Ġcomanda":7001,"efecte":7002,"Ġcapdavant":7003,"Ġescala":7004,"Ġrere":7005,"Ġmoderna":7006,"Ġmunt":7007,"ĠSor":7008,"Ġjurat":7009,"regist":7010,"ĠcÃłrrega":7011,"Ġdeclaracions":7012,"Ġpols":7013,"Ġdeixen":7014,"ĠesforÃ§os":7015,"Ġesportiu":7016,"Ġesportives":7017,".\"":7018,"Ġ34":7019,"Ġguitar":7020,"Ġalemany":7021,"Ġ%":7022,"Ġembl":7023,"Ġblo":7024,"ĠGestiÃ³":7025,"Ġmeta":7026,"ĠAqu":7027,"Ġquelcom":7028,"Ġdesf":7029,"lides":7030,"Ġban":7031,"Ġatre":7032,"ĠTi":7033,"Ġespectacles":7034,"Ġangles":7035,"Ġescrita":7036,"Ġjunt":7037,"Ġacords":7038,"oest":7039,"ĠbÃł":7040,"inions":7041,"Ġinterpreta":7042,"ãĥ":7043,"'t":7044,"ff":7045,"Ġanalitzar":7046,"ĠmÃºltiples":7047,"Ġconsiderat":7048,"ĠSegona":7049,"ĠJustÃŃcia":7050,"Ġsucre":7051,"tena":7052,"Ġsentiments":7053,"Ġrequereix":7054,"ome":7055,"ĠPÃºblica":7056,"ĠTal":7057,"umb":7058,"Ġsegueixen":7059,"ĠFacebook":7060,"inats":7061,"Ġvital":7062,"Ġdesg":7063,"ĠCurs":7064,"Ġdient":7065,"ĠEscola":7066,"Ġhabituals":7067,"emple":7068,"ĠConf":7069,"Ġrigor":7070,"ĠPuigdemont":7071,"Ġdanys":7072,"Ġtemporal":7073,"ĠMolt":7074,"Ġvideo":7075,"Ġincon":7076,"Ġ400":7077,"ĠInformaciÃ³":7078,"Ġsuma":7079,"Ġocupa":7080,"ĠNorm":7081,"cos":7082,"Ġgoverns":7083,"arro":7084,"Ġpreser":7085,"ĠprojecciÃ³":7086,"Ġpositiva":7087,"Ġestada":7088,"issa":7089,"Ġconcretament":7090,"essos":7091,"Ġescollir":7092,"ĠGonz":7093,"ĠMares":7094,"Ġvermell":7095,"br":7096,"EP":7097,"gol":7098,"ĠCampionat":7099,"Ġpendent":7100,"ĠFamÃŃ":7101,"ĠLo":7102,"ĠagrÃŃc":7103,"anglÃ¨s":7104,"ech":7105,"Ġinforme":7106,"Ġfit":7107,"Ġavi":7108,"ĠVen":7109,"egudes":7110,"Ġpersegu":7111,"Ġestatal":7112,"ĠSc":7113,"Ġdespesa":7114,"Ġaportacions":7115,"Ġorg":7116,"Ġclic":7117,"ĠAlguns":7118,"Ġescriptor":7119,"Ġ2019":7120,"ĠRecerca":7121,"ĠÃ©sser":7122,"Ġdates":7123,"Ġdimensions":7124,"Ġpotencial":7125,"Ġpersonalitat":7126,"ĠestratÃ¨gia":7127,"ĠcientÃŃfic":7128,"Ġdid":7129,"retes":7130,"Ġpros":7131,"Ġrelleu":7132,"guard":7133,"ficant":7134,"Ġvinent":7135,"Ġcadena":7136,"Ġabsoluta":7137,"edor":7138,"Ġelaborat":7139,"Ġadquirir":7140,"ĠMÃ³n":7141,"Ġdescarregar":7142,"abel":7143,"redients":7144,"yer":7145,"Ġfruita":7146,"tet":7147,"eguts":7148,"Ġoptim":7149,"Ġimpulsar":7150,"Ġsiga":7151,"ĠparÃł":7152,"ilia":7153,"Ġacull":7154,"ĠPon":7155,"ĠturÃŃstica":7156,"ĠDecret":7157,"Ġefica":7158,"hesiÃ³":7159,"rossa":7160,"Ġdiscrim":7161,"Ġfemin":7162,"Ġmicro":7163,"ĠdonarÃł":7164,"Ġpresidenta":7165,"Ġgos":7166,"Ġhistoria":7167,"Ġpriva":7168,"king":7169,"Ġaddi":7170,"investigaciÃ³":7171,"Ġxocolata":7172,"mats":7173,"rons":7174,"02":7175,"ĠArts":7176,"teor":7177,"Ġparlen":7178,"Ġgrec":7179,"Ã²tica":7180,"Ġlater":7181,"esqu":7182,"Ġemocional":7183,"Ġvirtu":7184,"Ġmonestir":7185,"ĠHer":7186,"Ġorden":7187,"Ġbarreja":7188,"Ġrendiment":7189,"Mar":7190,"Ġsabia":7191,"ĠXVIII":7192,"ĠPrimer":7193,"opiniÃ³":7194,"ĠtemÃłtica":7195,"ĠEll":7196,"dues":7197,"ĠVella":7198,"Vol":7199,"Ġdesit":7200,"Ġfisc":7201,"Ġbuscant":7202,"ÃŃns":7203,"Ġdiaris":7204,"Ġmarcar":7205,"Ġpensant":7206,"ĠinclÃ²s":7207,"ĠEsta":7208,"Res":7209,"ĠJornada":7210,"abast":7211,"Ġfidel":7212,"Ġplanteja":7213,"Ġ33":7214,"Ġpesca":7215,"Ensenyament":7216,"ĠturÃŃstic":7217,"ey":7218,"reres":7219,"ollers":7220,"Ġcadi":7221,"Ġtancament":7222,"Ġestad":7223,"Ġsomni":7224,"ONS":7225,"gus":7226,"Ã§ades":7227,"lica":7228,"Ġmonu":7229,"Ġtrib":7230,"Ġresponsab":7231,"igues":7232,"queu":7233,"Ġreti":7234,"tiss":7235,"Ġmodificar":7236,"ĠCha":7237,"Ã¨xic":7238,"duÃ¯t":7239,"Ġbotigues":7240,"iÃł":7241,"Ġincom":7242,"ĠGab":7243,"ĠBel":7244,"Ġ75":7245,"ĠMarina":7246,"ogrÃłfiques":7247,"Ġrespostes":7248,"Ġpassos":7249,"Ġomplir":7250,"adreÃ§a":7251,"Ġcir":7252,"Ġcris":7253,"ĠEN":7254,"ĠVilaf":7255,"Ġacceptar":7256,"ogia":7257,"ĠmissiÃ³":7258,"Ġ)":7259,"pot":7260,"Ġjutge":7261,"arreu":7262,"Igual":7263,"ĠinfluÃ¨ncia":7264,"Ġaliment":7265,"ĠllicÃ¨ncia":7266,"ĠPedro":7267,"Ġconsolida":7268,"ecess":7269,"ĠJoventut":7270,"ĠCugat":7271,"loure":7272,"ĠconvenÃ§":7273,"ĠartÃŃstic":7274,"Is":7275,"ĠOs":7276,"Ġtransmetre":7277,"ĠInfantil":7278,"ĠpodrÃłs":7279,"Ġmetge":7280,"bes":7281,"UA":7282,"uida":7283,"Ġsimil":7284,"ajud":7285,"aprovaciÃ³":7286,"ĠconferÃ¨ncies":7287,"Ġmenti":7288,"Ġpop":7289,"nar":7290,"quid":7291,"198":7292,"egants":7293,"ĠaÃ¯":7294,"escal":7295,"cem":7296,"assegu":7297,"gueren":7298,"Ġabsolu":7299,"Ãłri":7300,"ĠDret":7301,"ecs":7302,"Ġgols":7303,"Ġconversa":7304,"ocol":7305,"ĠdestÃŃ":7306,"Ġescenari":7307,"ellÃł":7308,"][":7309,"2014":7310,"Ġpensa":7311,"Ġtem":7312,"Ġencap":7313,"ĠMercÃ¨":7314,"execuciÃ³":7315,"Ġseleccion":7316,"Ġtraslladar":7317,"Ġguanyador":7318,"Ġbaixada":7319,"elim":7320,"ĠnavegaciÃ³":7321,"Ġfenomen":7322,"Ġtomb":7323,"Ġ36":7324,"Ġalternativa":7325,"endemÃł":7326,"ĠcÃ³rrer":7327,"Ġinde":7328,"ĠNotÃŃcies":7329,"mol":7330,"Ġteixit":7331,"ortar":7332,"ĠLuis":7333,"ĠcatÃłleg":7334,"ĠVir":7335,"OG":7336,"ĠbÃ©ns":7337,"lid":7338,"Ġnormalment":7339,"ĠdidÃłc":7340,"inscripciÃ³":7341,"adia":7342,"endi":7343,"ospitalet":7344,"Ġcomunicat":7345,"Ã§ament":7346,"Ġnutri":7347,"Ġsuperi":7348,"Ġregidors":7349,"Ġvoc":7350,"Ġagrup":7351,"Ġcaminar":7352,"Ãī":7353,"onant":7354,"ĠpoguÃ©s":7355,"Ġesquerra":7356,"escriptor":7357,"Ġnau":7358,"emÃłtic":7359,"ĠTort":7360,"Ġfrag":7361,"ĠGas":7362,"ĠperiÃ²":7363,"ĠespÃ¨cie":7364,"Ġgiron":7365,"Ġencar":7366,"ĠRajoy":7367,"Ġservid":7368,"Ġarts":7369,"Ġlletra":7370,"dits":7371,"ĠtransparÃ¨ncia":7372,"Ġ189":7373,"ĠliterÃłria":7374,"Ġjub":7375,"Ġexpressar":7376,"ĠGR":7377,"Ġmoral":7378,"Ġexercici":7379,"rida":7380,"Ġtrimestre":7381,"Ġparet":7382,"cials":7383,"Ġvicepres":7384,"UT":7385,"Ġsabeu":7386,"ei":7387,"Ġpoema":7388,"ĠmÃłquina":7389,"Ġadver":7390,"Ġparets":7391,"ĠFabra":7392,"Ġmoure":7393,"Ant":7394,"Ġinfantils":7395,"Ġnena":7396,"Ġgreus":7397,"Ġdibuixos":7398,"Ġtrop":7399,"Ġasc":7400,"Ġros":7401,"ĠNO":7402,"Ġcorpor":7403,"aletes":7404,"ĠprÃ¨viament":7405,"ĠCompany":7406,"atÃ¨gia":7407,"Ġhonor":7408,"pens":7409,"Ġrealitzen":7410,"Ġras":7411,"ĠdinÃłmica":7412,"ombra":7413,"Ġdro":7414,"ĠProjecte":7415,"aterra":7416,"ĠCN":7417,"Ã²stic":7418,"ĠRipoll":7419,"ĠSempre":7420,"Ġbasada":7421,"Ġplana":7422,"Ġadequat":7423,"ĠfemenÃŃ":7424,"Ġaire":7425,"ĠTo":7426,"Ġplantilla":7427,"ĠRog":7428,"iors":7429,"Ġtaxa":7430,"Ġdesenvolupa":7431,"ĠRecord":7432,"Ãłrrec":7433,"Ġflex":7434,"ĠTant":7435,"vila":7436,"ĠSeb":7437,"ĠPrimÃłria":7438,"Ġpistes":7439,"ted":7440,"ĠbÃłsiques":7441,"ulant":7442,"tivaciÃ³":7443,"far":7444,"Ġaten":7445,"Ġdestaquen":7446,"Ġiniciat":7447,"Ġarren":7448,"ĠanÃłlisi":7449,"Ġpublicacions":7450,"Ġsorte":7451,"ĠpodrÃŃem":7452,"ĠVI":7453,"ãĤ":7454,"ĠcomenÃ§ament":7455,"oto":7456,"Ġavalu":7457,"ĠaparÃ¨ixer":7458,"Ġquarta":7459,"lin":7460,"lez":7461,"gades":7462,"Ġsolament":7463,"Ġoferim":7464,"ĠcafÃ¨":7465,"Ġinteressats":7466,"Ġsuau":7467,"ĠbritÃł":7468,"Ġnotes":7469,"Ġrenov":7470,"Ġoriginals":7471,"Ġrecons":7472,"Ġmissatges":7473,"CN":7474,"omena":7475,"Ġpacient":7476,"ĠUP":7477,"Ġradi":7478,"ĠTotes":7479,"dÃł":7480,"Ġign":7481,"Ġrecords":7482,"Ġcertificat":7483,"incor":7484,"zo":7485,"ĠcorrupciÃ³":7486,"Ten":7487,"mada":7488,"idat":7489,"ĠElec":7490,"ĠIS":7491,"Ġdotze":7492,"vocats":7493,"Ġprob":7494,"Ġgro":7495,"ng":7496,"queting":7497,"Ġrecin":7498,"Ġhabitatge":7499,"ĠVis":7500,"pte":7501,"Ġprovis":7502,"Ġassegurat":7503,"orge":7504,"Ġexposicions":7505,"tituds":7506,"Ġdesigual":7507,"ĠcirculaciÃ³":7508,"ĠCorn":7509,"Catal":7510,"mal":7511,"SÃŃ":7512,"ĠProfession":7513,"Ġ65":7514,"arca":7515,"ĠTres":7516,"ĠUnit":7517,"aconseguir":7518,"datura":7519,"Ãºssia":7520,"Ġindividuals":7521,"ĠUniversi":7522,"vies":7523,"Ġmu":7524,"Ġsensibil":7525,"Ġcartes":7526,"Ġdiputat":7527,"Ġmens":7528,"Ġsemblava":7529,"rint":7530,"llet":7531,"ĠGen":7532,"otacions":7533,"Ġvessant":7534,"ĠDra":7535,"Ġnegra":7536,"ĠintegraciÃ³":7537,"Ġrepetir":7538,"ĠPujol":7539,"entiment":7540,"Ġrutes":7541,"encarreg":7542,"Ã²tic":7543,"Ġquarts":7544,"cisco":7545,"ĠGr":7546,"Ġdecret":7547,"iguel":7548,"Ġexistents":7549,"ĠcontÃŃn":7550,"ĠRobert":7551,"Ġensenyar":7552,"Col":7553,"Ġcomodi":7554,"ĠestÃłn":7555,"ĠPirineu":7556,"mel":7557,"Ġlit":7558,"Ġalluny":7559,"ĠRibera":7560,"Ġadaptar":7561,"Ġenri":7562,"ĠEr":7563,"ĠfeliÃ§":7564,"Ġadjun":7565,"ĠciutadÃł":7566,"Ġfr":7567,"ĠCirc":7568,"Ġengan":7569,"Ġger":7570,"ĠĠĠ":7571,"Ġcapacitats":7572,"34":7573,"Aten":7574,"Don":7575,"ĠmÃ²bils":7576,"alimentaciÃ³":7577,"ĠGarcia":7578,"ebre":7579,"AixÃ²":7580,"Ġsortides":7581,"ĠassociaciÃ³":7582,"lig":7583,"ĠPin":7584,"ĠmÃłgia":7585,"ĠsÃŃn":7586,"Ġhoraris":7587,"Ġavall":7588,"establi":7589,"ÃŃnica":7590,"Ġblau":7591,"ĠenllaÃ§os":7592,"Ġclubs":7593,"Ġfanta":7594,"ĠmÃłr":7595,"Ġriscos":7596,"ĠMoltes":7597,"Ġcobrir":7598,"Ġrecti":7599,"SA":7600,"ĠAmbient":7601,"xo":7602,"Ġanomenada":7603,"auto":7604,"ance":7605,"dures":7606,"Ġvenen":7607,"ĠcrÃŃtic":7608,"Ġsolar":7609,"Aquests":7610,"Ġsexe":7611,"Ġpublicada":7612,"esdeveniment":7613,"ĠanirÃł":7614,"Ġseri":7615,"ĠCard":7616,"ĠDesenvolupament":7617,"Ġcossos":7618,"emÃłtics":7619,"Ġblocs":7620,"ĠrecÃ³rrer":7621,"Ġnovetat":7622,"agradaria":7623,"Ġafectats":7624,"Ġtro":7625,"ĠPunt":7626,"Ġpacte":7627,"Ġpresen":7628,"Ġth":7629,"odis":7630,"rari":7631,"Ġviva":7632,"Ġdintre":7633,"Ġincloent":7634,"Ġrecordat":7635,"ĠÃłrea":7636,"ĠRel":7637,"ĠCarrer":7638,"ĠSh":7639,"Ġmuntatge":7640,"Ġpassi":7641,"usias":7642,"Ġconscient":7643,"gram":7644,"ĠAbans":7645,"ĠhabitaciÃ³":7646,"rents":7647,"Ġreflexionar":7648,"Ġtracte":7649,"Ġboscos":7650,"Ġindependentista":7651,"Ġjoventut":7652,"ĠNosaltres":7653,"ĠTeresa":7654,"exterior":7655,"Ġpermeti":7656,"quing":7657,"Ġcoberta":7658,"ĠBat":7659,"ĠEspanyola":7660,"ĠplanificaciÃ³":7661,"inicia":7662,"Ġllibrer":7663,"ĠBany":7664,"Ġsurten":7665,"Ġfus":7666,"reci":7667,"Ġrealitzada":7668,"xius":7669,"Ġdigitals":7670,"Ġbrillant":7671,"Ġsemblar":7672,"Ġsales":7673,"ĠmÃŃnima":7674,"enciat":7675,"vira":7676,"Ġparlament":7677,"ĠCos":7678,"unciar":7679,"Ġguer":7680,"Ġblanca":7681,"Ġestu":7682,"Ġpero":7683,"ĠSobre":7684,"ĠMira":7685,"Ġrecolz":7686,"Ġlema":7687,"arquitectura":7688,"Ġrevel":7689,"Desc":7690,"essor":7691,"ĠLlengua":7692,"Ġvingut":7693,"tÃ©":7694,"Ġaconsegueix":7695,"sionant":7696,"ĠrenovaciÃ³":7697,"ĠPodeu":7698,"ĠacadÃ¨mic":7699,"Ġestruc":7700,"Ġexclusivament":7701,"Ġgeneracions":7702,"Ġmatrimoni":7703,"ĠCel":7704,"Hospitalet":7705,"Ã§Ã²":7706,"Ġinven":7707,"augment":7708,"Ġprofundi":7709,"Ap":7710,"Ġsocialista":7711,"entendre":7712,"gem":7713,"Ġestructures":7714,"He":7715,"Ġfonamentals":7716,"Ġdeute":7717,"tÃłnia":7718,"istia":7719,"ĠQuin":7720,"Ġantigues":7721,"itzats":7722,"Ġessent":7723,"ĠsatisfacciÃ³":7724,"Val":7725,"Ġluc":7726,"Ġplatges":7727,"Ġvulnera":7728,"Ġintensitat":7729,"Ġcomprendre":7730,"Ġvides":7731,"Ġcanta":7732,"].":7733,"Ġcrema":7734,"ĠcientÃŃfics":7735,"Ġincorporar":7736,"cla":7737,"ĠVicenÃ§":7738,"mÃłtica":7739,"Ġpess":7740,"ĠTel":7741,"Ġnascut":7742,"ĠParti":7743,"ĠprofessiÃ³":7744,"Ġfull":7745,"Ġ32":7746,"Ã¨nia":7747,",...":7748,"ĠMes":7749,"Ġdemostrat":7750,"jades":7751,"ĠØ":7752,"estima":7753,"ĠrevisiÃ³":7754,"alumne":7755,"ĠfÃłcilment":7756,"drets":7757,"Ġnegocis":7758,"Ġbonic":7759,"nal":7760,"Ġpresos":7761,"Ġescena":7762,"ĠXXI":7763,"ĠSch":7764,"ĠDEL":7765,"Ġanunciat":7766,"Ġescla":7767,"Ġxifres":7768,"ivissa":7769,"Ġenmig":7770,"Ġq":7771,"Ġvidre":7772,"Ġ2002":7773,"Ġactitud":7774,"38":7775,"Ġadolescents":7776,"ĠcombinaciÃ³":7777,"ĠinauguraciÃ³":7778,"QuÃ¨":7779,"Ġsubministra":7780,"ĠestÃłs":7781,"ĠDesc":7782,"ĠclÃłssica":7783,"remi":7784,"ĠConcurs":7785,"TR":7786,"ĠMem":7787,"use":7788,"afeg":7789,"Ġingressos":7790,"Ġcircular":7791,"Ġexcepte":7792,"Ġdign":7793,"desa":7794,"ĠcÃłmera":7795,"fiquen":7796,"37":7797,"ĠJap":7798,"Ġtrobo":7799,"ĠfÃ³rm":7800,"Ġcombina":7801,"antaciÃ³":7802,"Ġcarre":7803,"Ġsentiment":7804,"Ġviatgers":7805,"Ġmostrat":7806,"ĠVilafranca":7807,"Ġmillores":7808,"Ġcentenars":7809,"Ġnoi":7810,"versiÃ³":7811,"Ġsituar":7812,"ofici":7813,"Ġestablert":7814,"irem":7815,"bum":7816,"Ġprevi":7817,"Ġfacilitat":7818,"erador":7819,"ĠCorts":7820,"Ġpisos":7821,"Ġorigen":7822,"legis":7823,"Ġinvestigadors":7824,"Ġcampionat":7825,"Ġcomuns":7826,"ANT":7827,"Ġestudiant":7828,"ĠLlo":7829,"Ġcomunicacions":7830,"Ġmall":7831,"upaciÃ³":7832,"Som":7833,"ĠcomptarÃł":7834,"ÃĢrea":7835,"Ġtalent":7836,"Ġsamar":7837,"ĠelÃ¨ctrica":7838,"LE":7839,"Ġvisu":7840,"Ġvigil":7841,"ĠMaresme":7842,"Ġedats":7843,"ĠrepressiÃ³":7844,"âĨĳ":7845,"Ġmodalitat":7846,"rÃŃguez":7847,"rel":7848,"ĠFrancisco":7849,"ĠGranollers":7850,"ĠIb":7851,"Ġesqu":7852,"ficients":7853,"inen":7854,"Ġextrem":7855,"Ġbasa":7856,"Ġuniversal":7857,"Ġprivades":7858,"ÌĢ":7859,"ĠMentre":7860,"ker":7861,"ĠPremis":7862,"Ġrealitzades":7863,"Economia":7864,"Ġadm":7865,"Ġobtingut":7866,"ĠcomenÃ§arÃł":7867,"emps":7868,"Ġdeterminats":7869,"Ġaccessi":7870,"dics":7871,"OB":7872,"cu":7873,"hospital":7874,"Ġcaixa":7875,"Ġtrip":7876,"lam":7877,"Ġsostenibilitat":7878,"ĠEduca":7879,"ĠNeg":7880,"tivitats":7881,"orb":7882,"Ġpintor":7883,"Ġlider":7884,"Ġsard":7885,"Ġexpec":7886,"Ser":7887,"Ġfulles":7888,"ĠTele":7889,"Ġsugger":7890,"Ġcontractes":7891,"ĠEspeci":7892,"ĠdinÃłm":7893,"ĠRamb":7894,"imag":7895,"ĠMiguel":7896,"exÃ¨rcit":7897,"Ġretallades":7898,"organ":7899,"Ġprofessora":7900,"ĠfundaciÃ³":7901,"Ġata":7902,"urt":7903,"ĠLlibre":7904,"Ġsubsc":7905,"Ġpropietari":7906,"ĠTerres":7907,"Ġanimal":7908,"otge":7909,"Ġllog":7910,"Ġ2001":7911,"Ġconsideren":7912,"Ġviatjar":7913,"tatives":7914,"ĠgrÃłcia":7915,"Ġdispositius":7916,"Ġfactura":7917,"ĠtensiÃ³":7918,"ĠVam":7919,"Ġinscripcions":7920,"ĠficciÃ³":7921,"Ġproporcion":7922,"Ġdelicte":7923,"55":7924,"Pos":7925,"ĠIgual":7926,"onen":7927,"Ġilles":7928,"Ġdisting":7929,"Ġperiodistes":7930,"Ġescollit":7931,"ĠTwitter":7932,"ĠTh":7933,"eno":7934,"Ġrepresenten":7935,"ish":7936,"cisme":7937,"ĠBlanc":7938,"Ġvivint":7939,"urada":7940,"erial":7941,"Ġrespectivament":7942,"ĠcÃ¨l":7943,"Ġcomplicat":7944,"Ġcorrecte":7945,"Ġxiquets":7946,"Ġsocietats":7947,"ĠAssociaciÃ³":7948,"Ġnar":7949,"Ġcandidatura":7950,"Ãºr":7951,"lista":7952,"uch":7953,"Ġlegals":7954,"Ġexisteixen":7955,"Ġrecinte":7956,"Ġincloure":7957,"Ġcomunica":7958,"etit":7959,"Ġingredients":7960,"ĠDrets":7961,"ĠQ":7962,"Ġcontrib":7963,"ĠparrÃ²quia":7964,"ĠJoaquim":7965,"Ġerrors":7966,"ĠSebasti":7967,"ĠnÃºvol":7968,"Ġdestinat":7969,"Ġcompletar":7970,"ĠGel":7971,"ĠSosten":7972,"Ġadequada":7973,"avin":7974,"irar":7975,"Ġgruix":7976,"ĠTorn":7977,"fra":7978,"acol":7979,"toria":7980,"ĠdepÃ¨n":7981,"Ġsenyal":7982,"Ahir":7983,"ĠRodrÃŃguez":7984,"intercanvi":7985,"Ġgradu":7986,"Ġtargeta":7987,"Ġmecanismes":7988,"Ġposs":7989,"ĠimplicaciÃ³":7990,"Ġavantatges":7991,"Ġcaiguda":7992,"teriorment":7993,"oler":7994,"Ġinformat":7995,"77":7996,"Ġartista":7997,"UC":7998,"Ġcomponents":7999,"onÃ¨s":8000,"Ġopinions":8001,"Ġintroduir":8002,"lant":8003,"ĠhistÃ²rics":8004,"latura":8005,"Ġsals":8006,"ambient":8007,"vil":8008,"Ġmos":8009,"Ġrenda":8010,"Ġvisitant":8011,"Del":8012,"Ġesdevenir":8013,"Ġimplem":8014,"COO":8015,"ĠTorres":8016,"Ġcostos":8017,"ÃŃmp":8018,"ÃŃgens":8019,"Ġpropietats":8020,"ĠMob":8021,"Ġtraduc":8022,"olls":8023,"Ġpaisatges":8024,"Ġronda":8025,"ÃŃb":8026,"Ġvirtual":8027,"Ã¶":8028,"Ã²lic":8029,"Ġcompanyies":8030,"oluciÃ³":8031,"allÃł":8032,"Ġarti":8033,"Ġatendre":8034,"gans":8035,"Ġgarantia":8036,"Ġsindicats":8037,"ĠprestaciÃ³":8038,"Ġmac":8039,"edes":8040,"ĠAltres":8041,"mental":8042,"Ġpur":8043,"viure":8044,"Ġdenunciar":8045,"Ġsalvar":8046,"Ġcreiem":8047,"Sant":8048,"Ġcampanyes":8049,"Ġescrits":8050,"ĠPD":8051,"Ġquantes":8052,"Ġbatx":8053,"Ġcurta":8054,"zena":8055,"Ġpassej":8056,"institut":8057,"ticament":8058,"lÃ¨ncia":8059,"Ġequival":8060,"Ġagrair":8061,"Ġhorari":8062,"Ġdignitat":8063,"Mal":8064,"Ġorgull":8065,"ĠEst":8066,"ĠMass":8067,"ĠFernÃ¡ndez":8068,"estranger":8069,"ĠOp":8070,"Ġbaixes":8071,"Ġcoher":8072,"ius":8073,"Ġpatro":8074,"ĠincorporaciÃ³":8075,"Ġplens":8076,"uditori":8077,"Ġcanvia":8078,"Ġmatar":8079,"Ã¯na":8080,"ĠNic":8081,"Ġfinestra":8082,"cionari":8083,"ĠIndepend":8084,"ĠconstruÃ¯t":8085,"Ġemerg":8086,"Ġlleure":8087,"ĠPrimera":8088,"Ġindustrials":8089,"Ġapos":8090,"Ġtip":8091,"Ġdecideix":8092,"Ġaules":8093,"Ġencer":8094,"Ġvoltes":8095,"ĠmajoritÃłria":8096,"Ġpuja":8097,"Ġsuperiors":8098,"yo":8099,"import":8100,"Ġdiagn":8101,"Ġtorneig":8102,"Ġaltes":8103,"Ġfelicitat":8104,"ĠRiu":8105,"ĠredacciÃ³":8106,"Ġadonar":8107,"ĠDos":8108,"Ġdifondre":8109,"ĠdestinaciÃ³":8110,"lega":8111,"GrÃłcies":8112,"aquella":8113,"Ġmarcador":8114,"alumnes":8115,"Ġurbana":8116,"Ġacud":8117,"Ġdeterminar":8118,"ĠDal":8119,"Ġpotenci":8120,"Ġdispositiu":8121,"Ġacoll":8122,"ĠmatÃ¨ries":8123,"Ġgraus":8124,"olf":8125,"Ġrelax":8126,"ĠFestes":8127,"Ġconscients":8128,"Ġ38":8129,"Ġalternatives":8130,"ĠtransiciÃ³":8131,"iliar":8132,"Ġturistes":8133,"Ġinstrument":8134,"Ġseguim":8135,"Esquadra":8136,"explica":8137,"Oficina":8138,"tera":8139,"establ":8140,"AragÃ³":8141,"laboradors":8142,"ĠclÃłssics":8143,"Ġindependentistes":8144,"verna":8145,"pecte":8146,"Ġprofund":8147,"Ġanunciar":8148,"Ġeliminar":8149,"encar":8150,"2013":8151,"humor":8152,"etu":8153,"Ġdiputats":8154,"Ġtemple":8155,"Ġsignificat":8156,"ĠsÃł":8157,"Ġimpacte":8158,"Ġusos":8159,"erciÃ³":8160,"quÃ©s":8161,"ĠdecoraciÃ³":8162,"ley":8163,"Ġabsolutament":8164,"Ġpercentatge":8165,"Ġnoc":8166,"Ġefectiva":8167,"31":8168,"lÃŃ":8169,"Ġdescens":8170,"Ġvergon":8171,"Ġsecret":8172,"Ġaturar":8173,"ĠDiada":8174,"Ġaudiovisual":8175,"egat":8176,"Ġpracticar":8177,"ĠrealitzarÃł":8178,"ĠDisseny":8179,"dies":8180,"ineus":8181,"Ġmoder":8182,"Ġterrenys":8183,"aval":8184,"Ġhumanitat":8185,"identi":8186,"ĠadreÃ§a":8187,"ĠfÃŃ":8188,"Ġsoroll":8189,"quisiciÃ³":8190,"ordinador":8191,"orten":8192,"48":8193,"Ġvaixell":8194,"Ġtrets":8195,"ĠÃłl":8196,"ĠhÃłbits":8197,"Ġcanals":8198,"df":8199,"Ġsocialistes":8200,"ĠescÃ¨n":8201,"Ġreceptes":8202,"Ġsuposar":8203,"ĠTortosa":8204,"Ġtrobades":8205,"cadÃ¨mia":8206,"UB":8207,"liques":8208,"Ġcorpora":8209,"ĠComitÃ¨":8210,"Ġhospital":8211,"mica":8212,"Ġarquitect":8213,"Ã¯a":8214,"onesa":8215,"Ã²sits":8216,"ĠVidal":8217,"aeroport":8218,"ĠCO":8219,"Ġsimilars":8220,"Ġoctubre":8221,"Ġeuropees":8222,"ima":8223,"Diss":8224,"Ġdip":8225,"vitat":8226,"Ġsorra":8227,"ĠrecepciÃ³":8228,"Ġmons":8229,"Ġmetodologia":8230,"Ġtemperat":8231,"ĠEmpordÃł":8232,"Ġveter":8233,"ĠÃĴ":8234,"entisme":8235,"ĠplÃłstic":8236,"Ġenvers":8237,"ĠGuillem":8238,"Ġterrassa":8239,"Ġdeterminat":8240,"ĠdivisiÃ³":8241,"AtenciÃ³":8242,"tol":8243,"Ġacompanyats":8244,"Ġelaborar":8245,"ĠrehabilitaciÃ³":8246,"truccions":8247,"ÃŃnsula":8248,"Ġrival":8249,"etis":8250,"ĠCristina":8251,"ĠDig":8252,"ĠnaciÃ³":8253,"ĠMarÃŃa":8254,"Ġesquer":8255,"Ġbro":8256,"cohol":8257,"ĠpedagÃ²g":8258,"ju":8259,"Ġgastronomia":8260,"entaris":8261,"ĠJornades":8262,"Ġconjunta":8263,"Ġrevolucion":8264,"ĠDeix":8265,"Ġdisposen":8266,"Ġremun":8267,"ĠSoler":8268,"Ġgossos":8269,"Ġtransvers":8270,"Ġarribem":8271,"uster":8272,"ĠubicaciÃ³":8273,"Ġtriat":8274,"Ġbandera":8275,"ente":8276,"Aquestes":8277,"Ġdipl":8278,"icis":8279,"Ġpilot":8280,"Ġofertes":8281,"ĠveÃ¯nes":8282,"Ġendins":8283,"ĠTIC":8284,"illes":8285,"ratge":8286,"Ã¨tiques":8287,"Ġcontinuen":8288,"Ġfrontera":8289,"Ġcriteri":8290,"Ġprofunditat":8291,"Pres":8292,"Ġcompe":8293,"Ġtrobava":8294,"ĠnÃºmeros":8295,"Ġgaudi":8296,"UL":8297,"Cat":8298,"Ġos":8299,"Ġdivertit":8300,"hist":8301,"ĠfabricaciÃ³":8302,"algunes":8303,"Ġrevistes":8304,"Ġconvidats":8305,"IES":8306,"Ġsabut":8307,"Ġbandes":8308,"Ġopos":8309,"ĠJohn":8310,"Ġestrany":8311,"Ġbarra":8312,"Ġmandat":8313,"ĠprÃ©s":8314,"Ġjunta":8315,"Ġeducatives":8316,"ranÃ§a":8317,"ĠJavi":8318,"ficades":8319,"Ġclo":8320,"Ġadi":8321,"ĠpresentarÃł":8322,"dos":8323,"Ġvivim":8324,"orama":8325,"Ġassocia":8326,"horari":8327,"Ġensenya":8328,"retaria":8329,"ĠGa":8330,"Ġnoctur":8331,"ĠPlat":8332,"Ġpasta":8333,"ĠfamÃ³s":8334,"avo":8335,"Ġmirant":8336,"oment":8337,"ropoli":8338,"ANC":8339,"66":8340,"ĠRoger":8341,"Ġesperant":8342,"mesa":8343,"ĠcrÃ¨dit":8344,"Ġindrets":8345,"ĠpotÃ¨ncia":8346,"Ġbancs":8347,"EST":8348,"impuls":8349,"asta":8350,"Ġdeclarar":8351,"Ġdial":8352,"Ġprogramari":8353,"Ġblan":8354,"Ãºlia":8355,"ĠpolÃ¨m":8356,"ustament":8357,"79":8358,"Ġcomer":8359,"apariciÃ³":8360,"HistÃ²ria":8361,"Ġafegeix":8362,"ieu":8363,"Ġaprofitant":8364,"trol":8365,"ĠreacciÃ³":8366,"Ġacaben":8367,"lit":8368,"Ġcomiss":8369,"Ġnadal":8370,"Ġinversions":8371,"Ãłncies":8372,"Ġdispar":8373,"ann":8374,"ĠvotaciÃ³":8375,"apos":8376,"ĠSil":8377,"mentada":8378,"CIÃĵ":8379,"Ġderrota":8380,"Ġepis":8381,"Ġexactament":8382,"ĠeficaÃ§":8383,"lats":8384,"Ġabra":8385,"Ġtranspor":8386,"Ġrecor":8387,"Ġoficines":8388,"2012":8389,"ĠreligiÃ³":8390,"iar":8391,"ĠmÃłquines":8392,"ĠSembla":8393,"Ġle":8394,"emerg":8395,"TV":8396,"Ġhipot":8397,"Ġevolu":8398,"ĠPh":8399,"Ġequipaments":8400,"ĠAM":8401,"Ġcorrecta":8402,"ulades":8403,"Ġtradicions":8404,"Ġpedres":8405,"atac":8406,"Ġnet":8407,"Ġ39":8408,"Ġmultitud":8409,"Albert":8410,"ĠLlorenÃ§":8411,"ĠGaud":8412,"ĠNew":8413,"Ã¯n":8414,"Ġespecialitzada":8415,"Ġsaps":8416,"Ġinclosos":8417,"glaterra":8418,"AquÃŃ":8419,"Ġlluit":8420,"isenda":8421,"cipaciÃ³":8422,"Ġgaranteix":8423,"Ġliterari":8424,"Ġposicions":8425,"Ġveient":8426,"rael":8427,"ĠGarri":8428,"eixement":8429,"Ġtelevis":8430,"Ġnavegador":8431,"ĠCont":8432,"entitats":8433,"Ġdedi":8434,"estableix":8435,"mm":8436,"itzen":8437,"Ġfacilita":8438,"ulm":8439,"Ġfib":8440,"Ġparcial":8441,"ĠBatx":8442,"Ġtec":8443,"ĠAlb":8444,"entals":8445,"ĠpermÃŃs":8446,"mus":8447,"Ġroman":8448,"estratÃ¨gia":8449,"ficiÃ¨ncia":8450,"ĠMac":8451,"Ġcompromet":8452,"ld":8453,"Ġpertin":8454,"Ġsomriure":8455,"Ġnad":8456,"2010":8457,"Ġrefugiats":8458,"Ġajudes":8459,"Ġtreballadores":8460,"ĠespecÃŃfic":8461,"Ġcres":8462,"ĠXVI":8463,"Ġmaquin":8464,"Ġdistribu":8465,"ĠSam":8466,"sers":8467,"Ġpresump":8468,"Ġerror":8469,"expos":8470,"Alb":8471,"ĠSL":8472,"Ġmatinada":8473,"Ġactiv":8474,"arcar":8475,"ĠsolidÃłria":8476,"ostal":8477,"Ġgall":8478,"acaba":8479,"Ġcau":8480,"Ġbatxillerat":8481,"Ġcancel":8482,"onÃ²miques":8483,"fecciÃ³":8484,"Ġgam":8485,"32":8486,"ĠEUA":8487,"legar":8488,"Ġconsentiment":8489,"Ġnegres":8490,"ĠesdevÃ©":8491,"rimir":8492,"Ġjogu":8493,"ĠconcessiÃ³":8494,"andre":8495,"ĠbÃłsic":8496,"Ġperque":8497,"Ġenfron":8498,"Ġcontund":8499,"ĠatÃ¨s":8500,"Ġtractaments":8501,"Ġfactor":8502,"ĠRÃºssia":8503,"2011":8504,"ĠCamÃŃ":8505,"ĠSelva":8506,"oren":8507,"Ã¡lez":8508,"Co":8509,"Ġplas":8510,"dam":8511,"Ġsensacions":8512,"ĠoposiciÃ³":8513,"ĠreferÃ¨ncies":8514,"ĠCambra":8515,"dicciÃ³":8516,"udiÃ¨ncia":8517,"ĠmÃ²d":8518,"ĠLos":8519,"Ġluxe":8520,"ĠInstitut":8521,"Ġposicionament":8522,"ĠDa":8523,"Ġfeines":8524,"ĠintroducciÃ³":8525,"Ġoferint":8526,"ĠPlan":8527,"ĠRafael":8528,"Ġefectu":8529,"esperanÃ§a":8530,"ĠMÃ¨xic":8531,"licituds":8532,"Ġformatge":8533,"ĠmenÃº":8534,"truir":8535,"alcaldessa":8536,"EB":8537,"ĠMÃłster":8538,"Ġvita":8539,"ĠMai":8540,"Ġinspir":8541,"Ġversions":8542,"Ġguanyadors":8543,"ĠcomprensiÃ³":8544,"Ġrebuig":8545,"Ġpotent":8546,"ĠmÃ¨todes":8547,"Ġquinze":8548,"uma":8549,"ĠOficial":8550,"Ġmisteri":8551,"Ġarrel":8552,"Ġjazz":8553,"ĠĠĠĠĠĠĠ":8554,"Ġformacions":8555,"Ġcervell":8556,"Ġeconomia":8557,"ĠsÃŃmbol":8558,"ĠEdu":8559,"ĠSitges":8560,"Ġinicis":8561,"Ġfaltar":8562,"ĠportarÃł":8563,"Ġinnovador":8564,"Ġbuit":8565,"aleg":8566,"ĠelÃ¨ctric":8567,"enfron":8568,"Ġretirar":8569,"ĠDones":8570,"Ġtaron":8571,"ĠSolid":8572,"ogrÃłfics":8573,"ĠVill":8574,"Ġsentits":8575,"Ġ48":8576,"Ġtransformar":8577,"iliari":8578,"Ġdesemb":8579,"Ġsegell":8580,"tional":8581,"ĠBes":8582,"ĠMirÃ³":8583,"Ãºp":8584,"Ġrebaix":8585,"ĠconstituciÃ³":8586,"Pre":8587,"ĠclimÃłtic":8588,"Ġusuari":8589,"ĠdistribuÃ¯":8590,"Ãłu":8591,"ĠCrec":8592,"Ġcoc":8593,"Ġtemperatures":8594,"establiment":8595,"Ġposse":8596,"ĠFamÃŃlia":8597,"ean":8598,"Ã¨ncer":8599,"Ġcompens":8600,"Ġmallor":8601,"quina":8602,"quista":8603,"alsevol":8604,"Ġpateixen":8605,"ĠencapÃ§al":8606,"ĠDef":8607,"ĠFelip":8608,"ĠOriol":8609,"Ġobre":8610,"ermita":8611,"ĠBur":8612,"Ġintervencions":8613,"ĠcomerÃ§os":8614,"Internet":8615,"Pot":8616,"Ġmanifestacions":8617,"yn":8618,"CA":8619,"luÃ¨ncia":8620,"estal":8621,"ĠRiera":8622,"Ġapunta":8623,"Oli":8624,"Ġtindrem":8625,"Ġgris":8626,"Ġllac":8627,"Ġtab":8628,"ĠDades":8629,"utilitza":8630,"dida":8631,"Ġincrement":8632,"ĠSte":8633,"ĠManel":8634,"seg":8635,"Ġcantar":8636,"Ġpunta":8637,"Ġrock":8638,"Ġsignar":8639,"anada":8640,"Prim":8641,"ĠdenÃºncia":8642,"Ġenregist":8643,"Ġformats":8644,"Ġ?":8645,"ĠPsic":8646,"onades":8647,"Ġcastells":8648,"ĠavanÃ§at":8649,"Ġbiblioteques":8650,"Ġescenaris":8651,"Ġpatit":8652,"Ġauto":8653,"orld":8654,"estudis":8655,"Ġlegislatura":8656,"Ġrelacionat":8657,"ulla":8658,"Ġorganismes":8659,"ĠGonzÃ¡lez":8660,"ĠbÃłsica":8661,"ĠCub":8662,"ĠcÃŃ":8663,"estrena":8664,"explotaciÃ³":8665,"Ġsolen":8666,"ings":8667,"Ġetapes":8668,"Ġanaven":8669,"ĠLaura":8670,"Ġperdu":8671,"Ġequilib":8672,"Ġ<":8673,"Ġagres":8674,"ĠbÃłsicament":8675,"inten":8676,"Ġoberts":8677,"Ġespanyoles":8678,"Ġhaurem":8679,"ĠUAB":8680,"Ġapropar":8681,"ahir":8682,"Ã²x":8683,"49":8684,"Ġanal":8685,"Ġcalia":8686,"Ġafavorir":8687,"anunci":8688,"ÃŃncep":8689,"ty":8690,"Ġallar":8691,"Ġprevista":8692,"ink":8693,"ĠtenÃŃem":8694,"ĠaC":8695,"Ġwebs":8696,"ĠciÃ¨ncies":8697,"Ġdescobreix":8698,"Ġ1999":8699,"Fins":8700,"Ġcreant":8701,"Ġplegats":8702,"Ã¯des":8703,"Ġpartid":8704,"ĠEsteve":8705,"Ġmeteor":8706,"Ġdiada":8707,"Ġgim":8708,"ĠInstitu":8709,"vÃł":8710,"arts":8711,"gs":8712,"Ġproposem":8713,"Ġfemenina":8714,"TE":8715,"Ġquedi":8716,"Antoni":8717,"Ġps":8718,"autonomia":8719,"rep":8720,"Ġtotalitat":8721,"panyol":8722,"Ð»":8723,"nau":8724,"ĠbalanÃ§":8725,"Ġib":8726,"Ġafirmar":8727,"Ġalcalde":8728,"anyola":8729,"Ġexpliquen":8730,"arcaciÃ³":8731,"Ã©sser":8732,"Ġproporciona":8733,"Ġpropa":8734,"ĠLlavors":8735,"Ġirregular":8736,"Ġfinca":8737,"ĠextraordinÃłria":8738,"ĠtrobarÃłs":8739,"Ġcandidats":8740,"Ġ37":8741,"riel":8742,"ĠFÃ²rum":8743,"inant":8744,"aranta":8745,"edient":8746,"obrir":8747,"Ġgegant":8748,"Esper":8749,"Ġveurem":8750,"Ġprocedents":8751,"Ġguanya":8752,"Ġenfront":8753,"cÃ©s":8754,"mpt":8755,"Ġriure":8756,"ĠinfÃłncia":8757,"ĠJan":8758,"discipl":8759,"Ġinfraestructures":8760,"Ġdissenyat":8761,"Ġliber":8762,"ith":8763,"Ġdistricte":8764,"Ġestacions":8765,"RES":8766,"Ġfaria":8767,"Ġafrontar":8768,"ordar":8769,"ĠFre":8770,"Ġcooperativa":8771,"ĠSenyor":8772,"Ã²f":8773,"Ġhui":8774,"ĠSerÃł":8775,"Hola":8776,"MA":8777,"68":8778,"Ġfren":8779,"escriptura":8780,"cre":8781,"ĠreproducciÃ³":8782,"ĠRoss":8783,"ace":8784,"Ġquadre":8785,"entres":8786,"Ġdonava":8787,"Ġamen":8788,"ÃŃx":8789,"ĠColoma":8790,"Ġpiano":8791,"aces":8792,"ĠPens":8793,"zi":8794,"ĠveÃŃ":8795,"ĠPablo":8796,"Ġdeterminades":8797,"Ateneu":8798,"torals":8799,"ĠvÃŃctima":8800,"ĠLiter":8801,"Ġallot":8802,"ronat":8803,"Ġresidents":8804,"Ġajus":8805,"emat":8806,"ĠtendÃ¨ncies":8807,"Ġmostres":8808,"Ġdetectar":8809,"ĠData":8810,"Ġreferents":8811,"ĠimaginaciÃ³":8812,"Ġprol":8813,"Ġfiscals":8814,"ĠBatxillerat":8815,"ĠSindic":8816,"Ġessencial":8817,"Ġsensibilitat":8818,"ĠðŁ":8819,"ĠdedicaciÃ³":8820,"orials":8821,"Ġparticipant":8822,"Inici":8823,"ĠcolÃ²nies":8824,"Gu":8825,"Ġautob":8826,"allers":8827,"ĠBos":8828,"Ġboni":8829,"ilat":8830,"ĠcÃłl":8831,"Organitz":8832,"Ġconsultes":8833,"Ġabund":8834,"nec":8835,"Ġdemanen":8836,"Ġprocediments":8837,"Ġdegus":8838,"ĠevoluciÃ³":8839,"ĠRambla":8840,"Ġigualment":8841,"gas":8842,"ĠSols":8843,"Ġxerrades":8844,"Jos":8845,"essorament":8846,"Ġinformacions":8847,"ĠFo":8848,"Ġcreada":8849,"Ġespiri":8850,"Alacant":8851,"ĠcontaminaciÃ³":8852,"Ġretar":8853,"Ġcass":8854,"âĢ¦)":8855,"Ġpion":8856,"espÃ¨":8857,"ulen":8858,"Ġdivertida":8859,"ĠdemocrÃłtic":8860,"ĠestÃłndard":8861,"Ġconsellera":8862,"ĠColom":8863,"ĠPortu":8864,"ĠpropÃ²sit":8865,"ĠInici":8866,"Ġmuseus":8867,"ĠdescripciÃ³":8868,"Ġafici":8869,"ĠtransmissiÃ³":8870,"equilibri":8871,"Ġull":8872,"ĠjurÃŃdica":8873,"Ġimpostos":8874,"egen":8875,"elecciÃ³":8876,"ĠMostra":8877,"ĠDaniel":8878,"ham":8879,"vellÃ³":8880,"Ġ=":8881,"ĠCad":8882,"Ġespectadors":8883,"Ġintensa":8884,"ĠmÃŃ":8885,"ĠconfiguraciÃ³":8886,"ĠGi":8887,"Ã§ats":8888,"ĠJapÃ³":8889,"Ġsabor":8890,"Ġapartat":8891,"ĠFe":8892,"ĠRoig":8893,"ĠexpressiÃ³":8894,"Ġcares":8895,"ĠÃ²rgans":8896,"Ġsuperat":8897,"Ġcentenar":8898,"ĠApro":8899,"Ġprivilegi":8900,"pons":8901,"Ġafecten":8902,"anitaris":8903,"aparcament":8904,"Ġresultar":8905,"din":8906,"Arxiu":8907,"cles":8908,"ĠDu":8909,"Ġvisitat":8910,"Ġposteriors":8911,"Ġassociats":8912,"Ġajuden":8913,"ĠLL":8914,"Ġsemblen":8915,"Ġrequ":8916,"Ġpateix":8917,"Ġdetalla":8918,"escena":8919,"ĠdimensiÃ³":8920,"Ġ600":8921,"Ġquotidiana":8922,"ĠCiutadans":8923,"Ġaprofund":8924,"ĠMartin":8925,"Ġinclouen":8926,"Ġbit":8927,"Ġpassava":8928,"Ġ55":8929,"Ġrelacionada":8930,"Ġdescobert":8931,"Ġpages":8932,"assign":8933,"ĠMediterrÃłnia":8934,"ĠfotÃ²graf":8935,"ucions":8936,"ĠPoble":8937,"Ġdocumen":8938,"Ġcambra":8939,"Ġservit":8940,"Ġmedicina":8941,"Ġalts":8942,"Ġconcreta":8943,"ĠMel":8944,"dran":8945,"Ġconductor":8946,"Ġocupar":8947,"ĠnegociaciÃ³":8948,"SÃ³n":8949,"sius":8950,"ĠRoc":8951,"ĠSarriÃł":8952,"Ġroca":8953,"ĠambdÃ³s":8954,"ä¸":8955,"ilaciÃ³":8956,"Ġpromou":8957,"ĠÃ©":8958,"Ġguar":8959,"Ġatura":8960,"tÃ²ries":8961,"Ġfoment":8962,"Ġenorme":8963,"Ġvisible":8964,"Ġconeixem":8965,"Ġrecordo":8966,"obri":8967,"Ġcomptat":8968,"Ġvertic":8969,"Ġcurses":8970,"Ġteatral":8971,"ĠorÃŃgens":8972,"Encara":8973,"Ġvendes":8974,"Ġreform":8975,"ĠcontemporÃłnia":8976,"Ġpendents":8977,"ĠTru":8978,"ĠPons":8979,"Ġsuposat":8980,"Ġimaginar":8981,"Ġenem":8982,"ller":8983,"ames":8984,"Ġsalari":8985,"Ġcertes":8986,"monis":8987,"ĠÃłrab":8988,"rÃŃcul":8989,"Ġtrenca":8990,"ĠlÃŃders":8991,"ĠAL":8992,"Ġgaletes":8993,"Ġcompartit":8994,"ĠEt":8995,"Ġ--":8996,"ko":8997,"forme":8998,"Ãļ":8999,"Ġrepertori":9000,"Ġesmen":9001,"ĠAllÃł":9002,"bra":9003,"Ġparad":9004,"ĠacÃŃ":9005,"Ġsalt":9006,"><":9007,"Ġelevat":9008,"Ġcercar":9009,"gis":9010,"Ġdespatx":9011,"igs":9012,"Ġrecop":9013,"esquer":9014,"ĠSE":9015,"Ġcorrectament":9016,"Ġsostre":9017,"Ġtornen":9018,"Ġenginy":9019,"Ġverda":9020,"Ġdonem":9021,"erals":9022,"Ãºries":9023,"Ġrenova":9024,"Ġnovament":9025,"sses":9026,"entures":9027,"fal":9028,"itori":9029,"Ã±o":9030,"Ġajuts":9031,"Ġ1936":9032,"Ġtornem":9033,"rist":9034,"Ġprivats":9035,"Ġreben":9036,"interess":9037,"rement":9038,"Ġbonica":9039,"edents":9040,"Ġhar":9041,"Ġgla":9042,"ĠcongrÃ©s":9043,"Ġabsolut":9044,"excel":9045,"isp":9046,"ĠCoopera":9047,"Ġeixos":9048,"anten":9049,"Ġparades":9050,"resari":9051,"orientaciÃ³":9052,"Ġbloque":9053,"ĠsÃŃmpt":9054,"direc":9055,"Ġvian":9056,"44":9057,"incorpor":9058,"idÃ¨ncia":9059,"Ġdictadura":9060,"88":9061,"ences":9062,"Ġtallar":9063,"Ġcontactar":9064,"ĠPirineus":9065,"aplica":9066,"entari":9067,"Ġnum":9068,"Ġdestacats":9069,"Ġorien":9070,"ĠAfeg":9071,"Ġcultures":9072,"Ġtractat":9073,"Ġsento":9074,"ĠChar":9075,"Ġrelats":9076,"ĠCoordin":9077,"ĠPrincipat":9078,"Ġfitxer":9079,"ĠPER":9080,"Ġconsumidors":9081,"Ġespecialistes":9082,"Ġcapella":9083,"Actualment":9084,"Ġtreu":9085,"ustria":9086,"rotxa":9087,"ĠmÃº":9088,"Ġsobiran":9089,"Ġpobres":9090,"ĠOlÃŃmp":9091,"ĠreforÃ§ar":9092,"igua":9093,"euro":9094,"Ġaclar":9095,"Ġfinalitats":9096,"Ġfinestres":9097,"Ġllistes":9098,"dim":9099,"erÃłpia":9100,"Ġsaludable":9101,"inet":9102,"ĠmatemÃłtiques":9103,"itoral":9104,"Ġnits":9105,"Ġesmorzar":9106,"ficÃłcia":9107,"Ġinnova":9108,"Ġdefinitivament":9109,"ĠBrava":9110,"Ġpublici":9111,"ĠOrganitz":9112,"Ġmilitars":9113,"ĠfantÃłstic":9114,"ĠcrÃŃtiques":9115,"Ġseix":9116,"ĠpassarÃł":9117,"Ġsobir":9118,"ĠmÃłster":9119,"Ġinfant":9120,"quir":9121,"Ġassa":9122,"aquelles":9123,"Ġjugant":9124,"Ġcobertura":9125,"Ġsupervi":9126,"Ġpanorama":9127,"Ġinfin":9128,"alisme":9129,"lÃłn":9130,"Ġretrob":9131,"ĠDep":9132,"Ġgeneralment":9133,"Ġceb":9134,"ĠregulaciÃ³":9135,"ĀĀĀĀĀĀĀĀĀĀĀĀĀĀĀĀ":9136,"Ġplenament":9137,"ĠmÃ¨ri":9138,"ĠXVII":9139,"ĠSp":9140,"Ġdisminu":9141,"ĠdomÃ¨s":9142,"Ġalliber":9143,"Ġvigor":9144,"avan":9145,"ĠVÃŃc":9146,"Ġproporcionar":9147,"ĠIl":9148,"Ġbuf":9149,"Ġacompanyada":9150,"Ġcogn":9151,"Ġquaranta":9152,"ony":9153,"ĠlocalitzaciÃ³":9154,"Ġanteriorment":9155,"Ã²metre":9156,"Ġsegura":9157,"Ġfossin":9158,"72":9159,"Ġcorredors":9160,"ĠResta":9161,"AF":9162,"leix":9163,"ĠLlar":9164,"Ġcerts":9165,"Ġanuals":9166,"Etique":9167,"itzant":9168,"Ðº":9169,"Ġgegants":9170,"59":9171,"ĠespecÃŃfics":9172,"ĠespecÃŃfiques":9173,"Ġespecialitzat":9174,"Ġdits":9175,"Ġcinquanta":9176,"ĠfÃŃsiques":9177,"Ã²b":9178,"Ġhoritz":9179,"Ġconeixen":9180,"ĠCF":9181,"ementi":9182,"utilitzar":9183,"Ġuniversitaris":9184,"ĠdifÃŃcils":9185,"âĢĵ,":9186,"ĠdÃ¨fici":9187,"Ġpenjar":9188,"andia":9189,"ciment":9190,"ĠPont":9191,"Doncs":9192,"Ġescriptors":9193,"Ġrespectar":9194,"ĠCiÃ¨ncia":9195,"mas":9196,"Ġpantal":9197,"Ġhivern":9198,"ĠaÃ§Ã²":9199,"ĠPorta":9200,"by":9201,"ee":9202,"ĠMaratÃ³":9203,"ĠUnitat":9204,"Ġimposar":9205,"ĠitaliÃł":9206,"agu":9207,"Ġhotels":9208,"100":9209,"Ġenvia":9210,"ĠmÃºsic":9211,"Ġcervesa":9212,"CV":9213,"Ġtrobarem":9214,"ĠUB":9215,",[":9216,"mic":9217,"ĠimplantaciÃ³":9218,"Ġcreuen":9219,"gentina":9220,"Ġconegudes":9221,"ĠFut":9222,"Ġapas":9223,"Ġramad":9224,"Ġtron":9225,"Any":9226,"ĠFons":9227,"Ġbaixos":9228,"Ġfruits":9229,"roqui":9230,"ĠRegid":9231,"ous":9232,"Ġort":9233,"Ġcomuna":9234,"ĠRovira":9235,"ĠproveÃ¯dors":9236,"Ġbenvinguda":9237,"ids":9238,"ĠlÃ²gica":9239,"gant":9240,"ĠvegetaciÃ³":9241,"Ġprepara":9242,"Ġabandonar":9243,"aband":9244,"ext":9245,"Ġperfecta":9246,"allotjament":9247,"cas":9248,"Ġmanifestar":9249,"Ġoccidental":9250,"Ġfascin":9251,"Ġbisbe":9252,"Ġcore":9253,"Ġoptar":9254,"VA":9255,"Ġvalora":9256,"ĠsubvenciÃ³":9257,"Ori":9258,"renys":9259,"Ġconservar":9260,"Ġinformes":9261,"Ġdestinats":9262,"ĠLabor":9263,"Ġintrodu":9264,"ĠseqÃ¼":9265,"lau":9266,"Ġrebel":9267,"Ġhabilitat":9268,"Ġpapers":9269,"Ġsender":9270,"Esp":9271,"ĠFed":9272,"Ġsorti":9273,"Ġsorgir":9274,"luminaciÃ³":9275,"Ġfrancesos":9276,"Catalunya":9277,"ĠtomÃł":9278,"Ġdissenyar":9279,"fab":9280,"Ġtub":9281,"ware":9282,"Ġagradar":9283,"embl":9284,"Ġescul":9285,"ligent":9286,"adequ":9287,"Ġtera":9288,"Ġforts":9289,"ĠQuim":9290,"Ġveia":9291,"Ġsusp":9292,"ĠLib":9293,"ĠReglament":9294,"ĠdurÃł":9295,"tines":9296,"ĠtornarÃł":9297,"ĠBre":9298,"Ġllevat":9299,"Public":9300,"Ġresponsabilitats":9301,"Ġprogressiva":9302,"tÃŃs":9303,"ĠecolÃ²gica":9304,"ĠDist":9305,"Ġordinador":9306,"avoreix":9307,"ĠCodi":9308,"ĠaportaciÃ³":9309,"Ġconstitueix":9310,"InformaciÃ³":9311,"ÃŃsica":9312,"Ġesports":9313,"odel":9314,"ĠMediterrani":9315,"adaptaciÃ³":9316,"ĠJer":9317,"asiÃ³":9318,"rita":9319,"Ġvagi":9320,"Ġconvidat":9321,"Ġhabitualment":9322,"Estudi":9323,"Ġlucre":9324,"ĠEstem":9325,"adr":9326,"ĠInc":9327,"Ġprodueixen":9328,"efec":9329,"ÃĢfrica":9330,"Ġnervi":9331,"haurÃł":9332,"aprofi":9333,"ung":9334,"Ġseguidors":9335,"americÃł":9336,"Ġtropes":9337,"Ġmarit":9338,"Ġpoders":9339,"AG":9340,"Ġcron":9341,"Ġcua":9342,"quÃ©":9343,"assos":9344,"Ġcicles":9345,"Ġemmagatzem":9346,"Ġgroc":9347,"Ġvestit":9348,"ĠmÃłrqueting":9349,"Ġcondu":9350,"acs":9351,"Ġexter":9352,"Ġsupera":9353,"Ġcai":9354,"Ġventall":9355,"iat":9356,"Ġesportius":9357,"ĠvoluntÃłria":9358,"Ġestaran":9359,"Ġ44":9360,"Inf":9361,"vella":9362,"ĠTelevisiÃ³":9363,"Ġsaf":9364,"amen":9365,"Ġcru":9366,"ĠPilar":9367,"burg":9368,"Ġexpressa":9369,"Ġfases":9370,"Ġrealitzant":9371,"Ġvirus":9372,"atg":9373,"ĠBro":9374,"Ġtast":9375,"ĠÃ©ssers":9376,"Ġllums":9377,"ĠaprÃ¨s":9378,"EmpordÃł":9379,"tino":9380,"Ġreglament":9381,"76":9382,"ĠBernat":9383,"Ġgermana":9384,"Ġinformativa":9385,"Ġinteressades":9386,"Ġaventura":9387,"Ġpensem":9388,"Ġous":9389,"Ġconfirmar":9390,"Ġarmes":9391,"ĠReis":9392,"TS":9393,"Ġefectiu":9394,"Ġexhib":9395,"Ġarguments":9396,"Ġcuriositat":9397,"ĠdiagnÃ²stic":9398,"aa":9399,"ĠPall":9400,"ĠTrac":9401,"TIC":9402,"ĠbÃłsquet":9403,"OD":9404,"escriure":9405,"Ġnucle":9406,"Ġtestimonis":9407,"Ġnas":9408,"Ġalter":9409,"ĠassistÃ¨ncia":9410,"alitzant":9411,"stÃŃ":9412,"Ġsorteig":9413,"ĠCÃŃ":9414,"Ġportava":9415,"Ġrecomanable":9416,"Ġmonar":9417,"ĠAN":9418,"Ġsuspen":9419,"Ġcompositor":9420,"Ġlong":9421,"Ġpromot":9422,"ĠFlor":9423,"Ġvius":9424,"ĠreparaciÃ³":9425,"exili":9426,"Ġincorpora":9427,"locar":9428,"Ġacons":9429,"ĠcrÃ²nica":9430,"esquena":9431,"Ġempresaris":9432,"Ġzero":9433,"astre":9434,"agaf":9435,"ĠFem":9436,"Ġch":9437,"Ġportada":9438,"Ġatemp":9439,"Ãłpia":9440,"ĠIsabel":9441,"lules":9442,"catal":9443,"Abans":9444,"ĠGerm":9445,"ĠcampiÃ³":9446,"Ġmercad":9447,"ĠBÃłs":9448,"Ġtari":9449,"oft":9450,"ĠmetÃłl":9451,"Ġromana":9452,"Ġserien":9453,"Ġmediamb":9454,"eva":9455,"ĠBages":9456,"ator":9457,"ĠsanitÃłria":9458,"Ġpensava":9459,"Ġconverses":9460,"viment":9461,"Ġnecessitem":9462,"Ãłnima":9463,"ĠdesprÃ¨s":9464,"ĠfreqÃ¼Ã¨ncia":9465,"Ġarribant":9466,"igÃ³":9467,"ĠcurrÃŃcul":9468,"Ġmetges":9469,"The":9470,"Ġdefineix":9471,"quera":9472,"accions":9473,"antat":9474,"ĠCanal":9475,"ĠArrib":9476,"ĠFranco":9477,"Ġoperacions":9478,"ĠreduÃ¯t":9479,"Ġprecip":9480,"Ġaixecar":9481,"ĠEnguany":9482,"etapa":9483,"ĠUns":9484,"ĠSantiago":9485,"Ġmantenen":9486,"ĠHar":9487,"fort":9488,"Ġoral":9489,"ĠBala":9490,"Ġblaug":9491,"Ġassumir":9492,"rÃŃcula":9493,"ĠCCOO":9494,"ĠtrÃłmits":9495,"essiva":9496,"Ġeditorial":9497,"Ġtranscend":9498,"ĠProfessional":9499,"Ġhumor":9500,"oia":9501,"Ġfresc":9502,"Ġimmediatament":9503,"ĠAC":9504,"Ġportu":9505,"avinguda":9506,"ĠCli":9507,"prend":9508,"Ġdipos":9509,"Ġrellevants":9510,"AMPA":9511,"ingÃ¼ÃŃstica":9512,"Ġsanitat":9513,"Ġinicialment":9514,"ĠJuliÃł":9515,"ly":9516,"Ġllargues":9517,"Ġconci":9518,"Ġdesni":9519,"oterÃłpia":9520,"osses":9521,"ĠmagnÃŃfica":9522,"Ãłstics":9523,"Ġmals":9524,"Ġ155":9525,"aleshores":9526,"Ġtreballem":9527,"Ġsanitari":9528,"gna":9529,"urats":9530,"Ġrecomanacions":9531,"Ġsubrat":9532,"Ġimmediata":9533,"eni":9534,"Ġinvers":9535,"Ġfronteres":9536,"Olot":9537,"Ġmural":9538,"Ġreflexions":9539,"Pa":9540,"Ġinfo":9541,"Ġrodes":9542,"Sal":9543,"pel":9544,"ĠprÃ©stec":9545,"Ġfilles":9546,"quida":9547,"ĠallÃŃ":9548,"lÃ³":9549,"Ġxines":9550,"leu":9551,"Ġu":9552,"ĠAli":9553,"Ġaugmenta":9554,"ĠTrobada":9555,"ĠHotel":9556,"Ġlliurar":9557,"Ġexplicacions":9558,"Ġtransmet":9559,"Ġcarreteres":9560,"ĠelectrÃ²nics":9561,"triu":9562,"atoris":9563,"Ãºm":9564,"Ġvarietats":9565,"Ġimmedi":9566,"ĠTaller":9567,"Ġtrams":9568,"enaix":9569,"anos":9570,"Ġcoincidint":9571,"Ġadministrativa":9572,"part":9573,"apor":9574,"Ã¨ric":9575,"ĠReal":9576,"ĠTx":9577,"Ġreclamar":9578,"ops":9579,"Ġformant":9580,"ĠLlegeix":9581,"Esports":9582,"ĠGrÃ¨cia":9583,"Ġconclusions":9584,"Ġexcepcional":9585,"ĠCerdanyola":9586,"Anna":9587,"eficiÃ¨ncia":9588,"Ġmodificacions":9589,"Ġpastiss":9590,"Estatut":9591,"cut":9592,"Ġmetro":9593,"ĠUR":9594,"ĠVend":9595,"Ġgreix":9596,"rovis":9597,"Ġengany":9598,"?,":9599,"Ġserveixen":9600,"Ġestric":9601,"ĠJard":9602,"Ġapuntar":9603,"ĠQuina":9604,"Ġhttps":9605,"Ġran":9606,"Ġpatri":9607,"Ġcostum":9608,"Ã¯ble":9609,"ĠpreocupaciÃ³":9610,"idesa":9611,"tral":9612,"ĠPasqu":9613,"»¿":9614,"Ġpit":9615,"Ġllegenda":9616,"Ġvoluntariat":9617,"assol":9618,"Ġentrat":9619,"auradament":9620,"ĠSebastiÃł":9621,"oquen":9622,"Ġvor":9623,"Ġpir":9624,"Ġdeclarat":9625,"Ġant":9626,"ĠAlex":9627,"Ġvivien":9628,"Ġproposat":9629,"Ġcolles":9630,"Esquerra":9631,"Ġarross":9632,"Ġdieta":9633,"ĠGarrotxa":9634,"ĠAt":9635,"ĠForn":9636,"Ġintegrat":9637,"ELL":9638,"Ġexpectatives":9639,"Ã¨rp":9640,"Ġpreven":9641,"Ġ250":9642,"Ġinterpretar":9643,"Ġdemandes":9644,"ĠDic":9645,"Ġvoltants":9646,"ĠfracÃłs":9647,"ĠocupaciÃ³":9648,"Ġexemplars":9649,"anomena":9650,"ĠSuper":9651,"Ġrib":9652,"ĠprevisiÃ³":9653,"Ġfur":9654,"ï»¿":9655,"Ġprovoc":9656,"Ġcomparteix":9657,"ĠPaul":9658,"Ġcinemat":9659,"Ġcombat":9660,"Ġindret":9661,"rany":9662,"ĠCOM":9663,"Ġincomp":9664,"Ġmantingut":9665,"Esta":9666,"ĠhaurÃŃem":9667,"ĠPresentaciÃ³":9668,"ĠPromociÃ³":9669,"Ġdiferenci":9670,"Ġfranquisme":9671,"ĠCinema":9672,"Ġavant":9673,"ĠpercepciÃ³":9674,"ĠXIII":9675,"Ø§Ù":9676,"Ġiguals":9677,"ĠprogrÃ©s":9678,"Ã¨cord":9679,"Algun":9680,"Ġatacs":9681,"ĠRegistre":9682,"Ġjardins":9683,"Ġsalv":9684,"ĠMolts":9685,"ESCO":9686,"ĠmajoritÃłriament":9687,"mez":9688,"Ġobligacions":9689,"Ġpolicial":9690,"Ġcartells":9691,"2007":9692,"aliciÃ³":9693,"orsa":9694,"Ġdisputar":9695,"ĠgrÃłfica":9696,"ĠJavier":9697,"IX":9698,"ĠSuprem":9699,"ĠBanyoles":9700,"Ġentusias":9701,"Ġcridar":9702,"ĠsalÃ³":9703,"Ġpersonalment":9704,"Ġvianants":9705,"oso":9706,"olis":9707,"ascens":9708,"umna":9709,"Ġdetingut":9710,"ĠPet":9711,"Ġescriu":9712,"Ġmagist":9713,"Ġmuntar":9714,"ernitat":9715,"ĠMoll":9716,"enques":9717,"Ġprovocat":9718,"mpa":9719,"posa":9720,"85":9721,"Ġreportatge":9722,"Ġcombatre":9723,"Ã²nics":9724,"Ġreserves":9725,"mines":9726,"Ġ1998":9727,"Ġserra":9728,"Ġaprenentatge":9729,"lli":9730,"utx":9731,"Ġvarem":9732,"Ġpassejar":9733,"ĠdivulgaciÃ³":9734,"Ġalumne":9735,"Ġexpressament":9736,"univers":9737,"Ġcentra":9738,"ĠvocaciÃ³":9739,"vora":9740,"ĠÃºnics":9741,"agricultura":9742,"ĠjurÃŃdic":9743,"Ã¨cd":9744,"ket":9745,"endis":9746,"Ġimpulsat":9747,"Ġsomnis":9748,"Ġcerim":9749,"Ġpresentada":9750,"ĠBu":9751,"hu":9752,"?.":9753,"Ġesteu":9754,"Ġinquietu":9755,"Ġretirada":9756,"ĠBot":9757,"dir":9758,"ĠimpressiÃ³":9759,"Ġgamma":9760,"ĠFoment":9761,"Ġactius":9762,"mentari":9763,"à¸":9764,"Ġfuncionar":9765,"ciones":9766,"ĠHistÃ²":9767,"ndia":9768,"Ġcabell":9769,"ĠHol":9770,"eriments":9771,"Ġgaranties":9772,"ĠUnides":9773,"Ġpintures":9774,"Vaig":9775,"Ġverdures":9776,"Ġsons":9777,"tÃłries":9778,"Ġportem":9779,"69":9780,"ĠNit":9781,"imatges":9782,"gil":9783,"Ġfuncionaris":9784,"ĠPan":9785,"arrÃ²s":9786,"Alcal":9787,"tella":9788,"iners":9789,"ĠAlfons":9790,"ĠVÃŃctor":9791,"-.":9792,"Ġdiscu":9793,"torns":9794,"Ã§ant":9795,"aliments":9796,"Ġcine":9797,"Ã²rica":9798,"ÃŃssimes":9799,"Ġsorprenent":9800,"ĠmagnÃŃfic":9801,"utilitat":9802,"Ġ42":9803,"NomÃ©s":9804,"ĠON":9805,"ĠDar":9806,"ĠPolÃŃ":9807,"ĠBomb":9808,"ĠCambrils":9809,"autob":9810,"Ġsemb":9811,"explicar":9812,"Ġcaldria":9813,"ansiÃ³":9814,"DE":9815,"aprendre":9816,"Ġcanviant":9817,"Ġbeques":9818,"Ġcompres":9819,"Ġlegisla":9820,"Ġmagatzem":9821,"independentisme":9822,"Ġsoc":9823,"increment":9824,"Ġtrist":9825,"assemblea":9826,"ĠconclusiÃ³":9827,"ulsa":9828,"ĠLeg":9829,"Ġcoure":9830,"ussel":9831,"Ġdiria":9832,"Ġamants":9833,"illo":9834,"Ġintern":9835,"Ġbull":9836,"ight":9837,"Ġracons":9838,"tores":9839,"alitzacions":9840,"Ġespl":9841,"uÃ¯ssa":9842,"Ġenlloc":9843,"actitud":9844,"Ġaccepta":9845,"Ġcentrar":9846,"Ġfranquista":9847,"ĠGav":9848,"Ġdeixo":9849,"efacciÃ³":9850,"ĠpossessiÃ³":9851,"Auditori":9852,"Ġadrec":9853,"Ġsolucionar":9854,"AmÃ¨rica":9855,"Ġeficient":9856,"Ġeditat":9857,"Ġvolien":9858,"Ġconnectar":9859,"Ġtruc":9860,"ĠTorrent":9861,"Ġescales":9862,"Ġminim":9863,"ĠBarber":9864,"MP":9865,"Ġguitarra":9866,"inals":9867,"Ġestrelles":9868,"ĠCicle":9869,"Ġmanifes":9870,"ĠdesplaÃ§ar":9871,"ÛĮ":9872,"isses":9873,"ĠTim":9874,"Ġesportistes":9875,"ĠXIV":9876,"Ġadher":9877,"Ġrecicl":9878,".).":9879,"acollida":9880,"Ġric":9881,"ĠacollirÃł":9882,"inaugu":9883,"ĠTenim":9884,"ĠromÃłn":9885,"Ġdetin":9886,"ĠromÃł":9887,"ĠdependÃ¨ncia":9888,"venen":9889,"Ġexistent":9890,"Ġconsolidar":9891,"Ġutilitzen":9892,"Ġanirem":9893,"bon":9894,"equipa":9895,"Ġuniversitari":9896,"pecciÃ³":9897,"Hotel":9898,"ĠManc":9899,"64":9900,"ÃŃnic":9901,"Ġadjud":9902,"Ġobliga":9903,"Ġtalla":9904,"Ġvella":9905,"Ġparcel":9906,"Ġtrama":9907,"acabar":9908,"Ġarxius":9909,"ĠIndustri":9910,"Ġcommemora":9911,"ĠMartor":9912,"tible":9913,"mart":9914,"ĠSistema":9915,"tualitat":9916,"Ġestrang":9917,"Ġassessorament":9918,"Ġdisciplina":9919,"ĠFou":9920,"Ġexercicis":9921,"iades":9922,"ence":9923,"ĠWi":9924,"ded":9925,"ĠcuriÃ³s":9926,"ĠdÃ²":9927,"ĠbraÃ§os":9928,"Ġges":9929,"Ġnegar":9930,"Ġfugir":9931,"ĠLlull":9932,"racciÃ³":9933,"ĠColla":9934,"animaciÃ³":9935,"ĠRoses":9936,"Ġquota":9937,"ĠTro":9938,"Ġculmin":9939,"Ġnormalitat":9940,"........":9941,"ĠÃĢngel":9942,"ĠSecciÃ³":9943,"ĠcohesiÃ³":9944,"âĢ¦.":9945,"Ġcames":9946,"ĠPerp":9947,"Ġdisponibilitat":9948,"Ġfinancera":9949,"ĠDirector":9950,"uten":9951,"Ġapreci":9952,"anÃ¨s":9953,"Ġmoss":9954,"Ġgat":9955,"Ġrodona":9956,"erades":9957,"ĠpatrÃ³":9958,"Ġdisfru":9959,"Ġassist":9960,"Ġsatisfer":9961,"edo":9962,"tivals":9963,"Ġelectorals":9964,"km":9965,"mesos":9966,"Ġenamor":9967,"Ġdescend":9968,"itiu":9969,"Cas":9970,"omet":9971,"mentaciÃ³":9972,"Ġmeua":9973,"ĠmiliÃ³":9974,"ĠtÃ¨x":9975,"Ġdescriu":9976,"ĠLic":9977,"Ġacostar":9978,"Ġprotec":9979,"Ġsacri":9980,"ergies":9981,"ĠBona":9982,"iona":9983,"poques":9984,"Ġaccident":9985,"Ġabril":9986,"operaciÃ³":9987,"istemes":9988,"Ġmurs":9989,"ĠsÃ¨ries":9990,"ĠlÃŃquid":9991,"ĠllatÃŃ":9992,"ropolitana":9993,"meria":9994,"ĠobligatÃ²ria":9995,"Ġesperit":9996,"Ġdirigeix":9997,"Ġinclosa":9998,"Ġhero":9999,"Ġguarda":10000,"ĠPare":10001,"ĠAlg":10002,"Ġdirigents":10003,"Â²":10004,"Ġllin":10005,"ursiÃ³":10006,"tricitat":10007,"ĠcÃ²mic":10008,"inaris":10009,"ĠmobilitzaciÃ³":10010,"ĠSen":10011,"wn":10012,"coi":10013,"Ġbran":10014,"ĠcÃ²pia":10015,"ĠdestrucciÃ³":10016,"Ġestima":10017,"Ġafavoreix":10018,"Ġplataformes":10019,"ĠVerda":10020,"Ġenviat":10021,"ĠMora":10022,"ĠÙ":10023,"Ġilla":10024,"Ġdesa":10025,"ĠResp":10026,"Ġestable":10027,"Ġlideratge":10028,"Ġmatric":10029,"Ġpecu":10030,"Ġnotable":10031,"ĠConser":10032,"ĠdelegaciÃ³":10033,"oferir":10034,"ĠBerl":10035,"lletÃŃ":10036,"Ġpintar":10037,"Ġpoli":10038,"Ġhos":10039,"Ġrellevant":10040,"intro":10041,"ĠBarcelon":10042,"ĠVendrell":10043,"Ġ!":10044,"inÃłria":10045,"enys":10046,"ĠDigital":10047,"OcupaciÃ³":10048,"Ġescenes":10049,"ĠOber":10050,"rÃłcia":10051,"Ġdenuncia":10052,"antena":10053,"medi":10054,"esquÃŃ":10055,"Ġprotagonisme":10056,"dant":10057,"edia":10058,"ionats":10059,"Ġburges":10060,"Ma":10061,"Ġintu":10062,"lustracions":10063,"ĠconstÃłncia":10064,"cidents":10065,"ĠAna":10066,"ĠquedarÃł":10067,"otar":10068,"Ã¤":10069,"Ġelectr":10070,"Ġlamenta":10071,"entrevista":10072,"2009":10073,"hid":10074,"Ġnu":10075,"fre":10076,"honor":10077,"ĠanÃ²nim":10078,"def":10079,"Ġproductors":10080,"Ġclares":10081,"Ġestablerts":10082,"ciÃ³s":10083,"ĠEdit":10084,"assar":10085,"Ġcombusti":10086,"quies":10087,"tilla":10088,"ressol":10089,"anÃ§at":10090,"Ġestils":10091,"Ġconduir":10092,"ĠTaula":10093,"Ġsoldats":10094,"Ġsag":10095,"Ġlaboratori":10096,"Ġadministratiu":10097,"sives":10098,"ĠrÃ¨cord":10099,"gics":10100,"ĠdiscriminaciÃ³":10101,"Obser":10102,"Ġinjust":10103,"ivera":10104,"Ġmasses":10105,"haus":10106,"ĠDemocrÃł":10107,"Ġmanual":10108,"Ġbibli":10109,"Ġamplia":10110,"Ġcopa":10111,"Ġpoetes":10112,"oficina":10113,"89":10114,"ciÃł":10115,"Cap":10116,"ĠCam":10117,"ĠJoves":10118,"Ġreligiosa":10119,"Ġinvol":10120,"Ġcorreg":10121,"allada":10122,"ementiri":10123,"Ġ1992":10124,"wa":10125,"Ġcomplexitat":10126,"ĠNacions":10127,"eto":10128,"ĠCampus":10129,"ellers":10130,"pin":10131,"Ġprovisional":10132,"oteca":10133,"Ġsubjec":10134,"ĠGaudÃŃ":10135,"Ġinvi":10136,"Ġ93":10137,"Ġcorda":10138,"ITAT":10139,"Ġextraordinari":10140,"ĠDavant":10141,"timitat":10142,"Ġmanifestat":10143,"ĠOri":10144,"Ãłstiques":10145,"Comen":10146,"TT":10147,"imm":10148,"Ġservidor":10149,"indo":10150,"Man":10151,"ĠPomp":10152,"Estem":10153,"ixamp":10154,"ĠXII":10155,"acor":10156,"exclusiÃ³":10157,"Ġambientals":10158,"ĠinÃ¨":10159,"Ġconstruccions":10160,"Ġdebats":10161,"ĠEspanyol":10162,"Ġconvertint":10163,"cita":10164,"Ã³mez":10165,"ĠPortugal":10166,"Ġvos":10167,"ĠTorra":10168,"ĠWill":10169,"olles":10170,"ilitar":10171,"Ġsocio":10172,"ÃŃlia":10173,"ĠfÃ³rmula":10174,"ĠEd":10175,"Ġtesi":10176,"Ġmotiva":10177,"Lleg":10178,"Apro":10179,"ĠBol":10180,"infant":10181,"Ġespero":10182,"ares":10183,"ĠdolÃ§":10184,"Ġpaella":10185,"ĠesglÃ©sia":10186,"Ġfreg":10187,"ĠTol":10188,"Ġprestacions":10189,"ĠinformÃłtic":10190,"Ġcongel":10191,"Ġdirectes":10192,"leccions":10193,"Ġintentant":10194,"Ġusar":10195,"Ġafirmat":10196,"Ġcampanar":10197,"ĠagrÃŃcola":10198,"obs":10199,"Ġtravess":10200,"ĠWorld":10201,"ĠBalaguer":10202,"ĠDona":10203,"autora":10204,"Ġregions":10205,"Ġprotesta":10206,"ĠinclusiÃ³":10207,"ĠMedicina":10208,"Ġtria":10209,"Ġconcer":10210,"Ġfo":10211,"Ġfundador":10212,"Ġimpedir":10213,"Ġsorprendre":10214,"arquitecte":10215,"Ġrellotge":10216,"ĠestaciÃ³":10217,"Ġprioritat":10218,"Ġnomenat":10219,"Ġbac":10220,"Malgrat":10221,"ĠSard":10222,"ampliaciÃ³":10223,"Ġarrels":10224,"Ġprotocol":10225,"Ġby":10226,"Ġsetman":10227,"74":10228,"ĠPÃºblic":10229,"SC":10230,"Ġcompati":10231,"Ġtancada":10232,"Ġmm":10233,"Ġ1995":10234,"Ġcontactes":10235,"iteu":10236,"endo":10237,"Ġrecomanem":10238,"Ġemple":10239,"Ġhuman":10240,"Als":10241,"ĠtransferÃ¨ncia":10242,"SE":10243,"enyes":10244,"ĠpresidÃ¨ncia":10245,"Ã¨cnica":10246,"Ġvergonya":10247,"ĠlliÃ§":10248,"ĠSalÃ³":10249,"Ġ1997":10250,"Ġperiodisme":10251,"ĠPasseig":10252,"Ġsignatura":10253,"Ġassump":10254,"erant":10255,"Ġcomarcal":10256,"Ġsindicat":10257,"liberament":10258,"Ã±ol":10259,"Ġacomia":10260,"Ġregla":10261,"ĠalÃ§ada":10262,"Ġrius":10263,"Ġunir":10264,"Ġpreparant":10265,"ĠFu":10266,"erem":10267,"alitzen":10268,"ĠGabriel":10269,"Ġcentrals":10270,"ĠturÃŃstics":10271,"ĠDolors":10272,"iciÃ³s":10273,"IU":10274,"ning":10275,"Ġcaracteritza":10276,"Ġtrucar":10277,"Ġindividu":10278,"ĠLlegir":10279,"Ġrecoll":10280,"Ġcostums":10281,"vir":10282,"tates":10283,"Ġinstruccions":10284,"ĠCerdanya":10285,"Ġrol":10286,"Ġindicat":10287,"ĠincidÃ¨ncia":10288,"Ġvoldria":10289,"Ġvicepresident":10290,"lids":10291,"itzades":10292,"Ġfresca":10293,"Ġferma":10294,"ĠtÃ¨r":10295,"arcat":10296,"Ġurbans":10297,"ĠdÃ¨ficit":10298,"pÃ¨u":10299,"Ġvenia":10300,"aventura":10301,"Ġminist":10302,"juÃ¯":10303,"Ġesdevingut":10304,"Ġsenyora":10305,"Ġvore":10306,"Ġretornar":10307,"entrega":10308,"Ġexposar":10309,"Ġfuncional":10310,"tici":10311,"ĠguiÃ³":10312,"Ġbusquen":10313,"Horta":10314,"Ġic":10315,"Ġparcs":10316,"arxiu":10317,"regues":10318,"Ġdisciplines":10319,"ello":10320,"ĠracÃ³":10321,"Ġhumanes":10322,"Ġreme":10323,"ĠRegidoria":10324,"ĠTr":10325,"ofereix":10326,"Ġintercan":10327,"ĠuniÃ³":10328,"Universitat":10329,"onda":10330,"roquial":10331,"Ġenvolta":10332,"ĠBall":10333,"Ã²ct":10334,"lava":10335,"Ġanuncia":10336,"ĠprovÃ©":10337,"Davant":10338,"Ġespectaculars":10339,"Ġdrogues":10340,"gina":10341,"Ġquantitats":10342,"lvar":10343,"ĠRef":10344,"Ġenganx":10345,"ĠMarg":10346,"ĠuniversitÃłria":10347,"Ġpermetin":10348,"Ġatractiu":10349,"Ġfosc":10350,"ĠAv":10351,"Ġconvidar":10352,"Ġbossa":10353,"Ġamiga":10354,"omÃ²bil":10355,"Ġsalsa":10356,"ĠBri":10357,"Ġcampanes":10358,"ase":10359,"Ġgenial":10360,"BN":10361,"Ġpresentem":10362,"Ġnatur":10363,"Ġcontemplar":10364,"ew":10365,"onaments":10366,"ĠCru":10367,"tive":10368,"ĠBart":10369,"Ġconcretes":10370,"ĠFun":10371,"Ġconvocar":10372,"ĠâĢĿ":10373,"pats":10374,"yent":10375,"pÃŃ":10376,"NI":10377,"laborat":10378,"ĠpastÃŃs":10379,"perÃ²":10380,"ĠFra":10381,"afir":10382,"ĠMau":10383,"Ġtaul":10384,"Ġaval":10385,"ĠIr":10386,"ĠProduc":10387,"iz":10388,"ĠmatrÃŃcula":10389,"Ġseccions":10390,"terminaciÃ³":10391,"Ġpensen":10392,"ĠcerÃłmica":10393,"Ġfauna":10394,"exemple":10395,"americana":10396,"Ġcaire":10397,"ARC":10398,"ĠCant":10399,"ĠCON":10400,"ĠLas":10401,"ĠGil":10402,"Ġespon":10403,"73":10404,"ĠmoltÃŃssim":10405,"Ġpossiblement":10406,"Ġfrases":10407,"Ġsamarreta":10408,"ĠcaracterÃŃstica":10409,"ĠautÃ¨ntic":10410,"ĠcurrÃŃculum":10411,"Ġbron":10412,"Edi":10413,"Ġcomentat":10414,"ĠexcepciÃ³":10415,"ĠComÃº":10416,"ĠsensibilitzaciÃ³":10417,"Ġdav":10418,"Ġquadrats":10419,"ĠRoja":10420,"emergÃ¨ncia":10421,"Ġseixanta":10422,"ĠĠĠĠĠĠĠĠĠĠĠĠĠĠĠĠ":10423,"Ġtaronja":10424,"Ġbesti":10425,"Ġprevenir":10426,"90":10427,"cents":10428,"egem":10429,"ĠOfer":10430,"Ġaven":10431,"Ġurg":10432,"Ġgan":10433,"Ġsolidari":10434,"Ġsobirania":10435,"ĠSin":10436,"ĠAmics":10437,"Ġassenyalat":10438,"Ġmonument":10439,"erd":10440,"rano":10441,"Ġinteressat":10442,"Ġgimn":10443,"real":10444,"Ġlongitud":10445,"usc":10446,"1999":10447,"Ġpartides":10448,"ĠAmÃ¨rica":10449,"ĠPobla":10450,"Ġ1996":10451,"Totes":10452,"Ġdelictes":10453,"allera":10454,"ĠoferirÃł":10455,"Ġtrajecte":10456,"Ġregals":10457,"Ġtrens":10458,"ato":10459,"editorial":10460,"ejament":10461,"animals":10462,"BA":10463,"Ġactituds":10464,"Ġhavent":10465,"Ġpenal":10466,"ticat":10467,"Ġtractava":10468,"Ġevidentment":10469,"Lle":10470,"Ã¯nes":10471,"Ã¨mia":10472,"Ġvisibilitat":10473,"Ġorganitzadors":10474,"work":10475,"ALL":10476,"ĠPeri":10477,"Ġprevistes":10478,"Ġembol":10479,"ĠenergÃ¨tic":10480,"ĠMata":10481,"Ġsubstituir":10482,"llada":10483,"Ġcertamen":10484,"ĠCated":10485,"ĠcrÃ¨dits":10486,"argu":10487,"Ġsop":10488,"Ġenfoca":10489,"Ġforestal":10490,"Ġrelativa":10491,"Ġatribu":10492,"Ġceba":10493,"racions":10494,"ĠBrussel":10495,"Â¿":10496,"Ġparlava":10497,"Ġcontrols":10498,"Ġfia":10499,"ĠCiutadella":10500,"Ġgr":10501,"Ġenques":10502,"Ġfarina":10503,"Ø±":10504,"estu":10505,"ĠLloc":10506,"cera":10507,"objecte":10508,"ĠPatronat":10509,"Ġdrama":10510,"Ġporc":10511,"Ġobri":10512,"ĠFutbol":10513,"Ġtitularitat":10514,"Ġtradu":10515,"ONA":10516,"Ġfixar":10517,"Ġarribi":10518,"Ġlluna":10519,"ĠartÃŃstiques":10520,"Joan":10521,"Ġcultiu":10522,"tinerari":10523,"ii":10524,"ĠDivisiÃ³":10525,"endes":10526,"uar":10527,"Ġdesnivell":10528,"Ġcomissions":10529,"Ġafectades":10530,"gnos":10531,"Ġgaudeix":10532,"Ġpuguem":10533,"Ġmix":10534,"Ġmitjan":10535,"ocasiÃ³":10536,"usi":10537,"Ġrosa":10538,"ĠTampoc":10539,"Ġpensions":10540,"Ġestudia":10541,"aspecte":10542,"avia":10543,"Article":10544,"iliats":10545,"Ġpredom":10546,"adquisiciÃ³":10547,"2008":10548,"Ġentrevistes":10549,"Ġmani":10550,"Ġdespertar":10551,"ĠNov":10552,"Ġcreuar":10553,"ĠAlgunes":10554,"Ġgros":10555,"dell":10556,"Ġlici":10557,"ĠextensiÃ³":10558,"Ġsentim":10559,"hort":10560,"ĠFol":10561,"Ġreformes":10562,"Ġ120":10563,"trada":10564,"uela":10565,"Ġdesenvolupen":10566,"ĠDirectiva":10567,"Ġmaltrac":10568,"utaciÃ³":10569,"And":10570,"Ġpresentacions":10571,"Ġnarrativa":10572,"EF":10573,"Ġfamosa":10574,"emn":10575,"Ġtamb":10576,"ĠOrien":10577,"onis":10578,"Ġsimul":10579,"ĠPosteriorment":10580,"rates":10581,"interpre":10582,"AcciÃ³":10583,"Ġincrementar":10584,"Ġguardar":10585,"Ġsecrets":10586,"ĠRem":10587,"Ġfarmac":10588,"Ġtresor":10589,"Ġtrasllat":10590,"ĠDomÃ¨n":10591,"nium":10592,"horab":10593,"Ġandor":10594,"ĠcapÃŃtols":10595,"Ġtreballador":10596,"Ġconformen":10597,"Ġsolitari":10598,"ĠHumans":10599,"ĠpavellÃ³":10600,"Ġdeterminada":10601,"Ñĥ":10602,"Ġlegi":10603,"Ġjap":10604,"Ġactua":10605,"Ġdefinitiu":10606,"Ġpatrocin":10607,"mÃłcia":10608,"Ġceller":10609,"ĠPompeu":10610,"ĠGÃ³mez":10611,"ĠLuc":10612,"Ġrestric":10613,"46":10614,"ĠEstudi":10615,"Ġagost":10616,"Ġcooperatives":10617,"ĠAir":10618,"Ġutilitzats":10619,"At":10620,"oblida":10621,"Ġbene":10622,"Ġmasia":10623,"Ġcoordinador":10624,"ĠFernando":10625,"Ġplau":10626,"Ġretr":10627,"Ġrealitzats":10628,"Ġdeguda":10629,"ĠsÃŃmptomes":10630,"feu":10631,"Ġvinculats":10632,"ante":10633,"Ġpersonalitzat":10634,"Ġrelativament":10635,".Â»":10636,"Ġ08":10637,"ĠpÃł":10638,"ĠMc":10639,"Ġrector":10640,"ĠtrÃłmit":10641,"Ġtribunal":10642,"Ġcelebrada":10643,"ĠpÃ¨l":10644,"cionament":10645,"isteixen":10646,"ĠAdriÃł":10647,"Ġcristians":10648,"ĠRed":10649,"Ġconstantment":10650,"ĠCasals":10651,"integra":10652,"Ġcivils":10653,"Ġregistrar":10654,"isbal":10655,"!,":10656,"Ġmantenint":10657,"otip":10658,"gur":10659,"Ġreconeguda":10660,"evilla":10661,"Ġ800":10662,"identa":10663,"Alemanya":10664,"Ġmerc":10665,",âĢ¦":10666,"mona":10667,"ĠHab":10668,"Ġcreatiu":10669,"ĠEspaÃ±a":10670,"xos":10671,"Ġinsta":10672,"Ġformular":10673,"Ġgenerat":10674,"ĠGui":10675,"Ġdescompte":10676,"Ã¨sties":10677,"Ġdirectors":10678,"Ġjueus":10679,"Ġred":10680,"Ġcontents":10681,"Ġllibertats":10682,"Ġnegativa":10683,"ank":10684,"Ã¯ment":10685,"As":10686,"Ġmestra":10687,"Ġrespectu":10688,"Ġaux":10689,"Ġreial":10690,"Ġsubministrament":10691,"emma":10692,"gued":10693,"Ġqueix":10694,"Ġambdues":10695,"Ã§Ãł":10696,"Ġcontemporani":10697,"Ġrepartiment":10698,"cau":10699,"Er":10700,"ĠmotivaciÃ³":10701,"Ġcomunic":10702,"Ġverb":10703,"Ġcorrents":10704,"ĠCÃł":10705,"vingut":10706,"Ġinscriure":10707,"Ġentrega":10708,"Ġcreativa":10709,"itada":10710,"Ġdisposem":10711,"ĠSag":10712,"ĠproblemÃłtica":10713,"Ġindependents":10714,"Est":10715,"Publicat":10716,"Ġdepenent":10717,"Ġsosp":10718,"Ġadreces":10719,"ĠcalefacciÃ³":10720,"Ġnor":10721,"ĠJean":10722,"sec":10723,"Ġactivament":10724,"hagin":10725,"ĠOliver":10726,"Ġdius":10727,"hel":10728,"Ġpeixos":10729,"ĠdesaparÃ¨ixer":10730,"ĠmaquinÃłria":10731,"ĠCastella":10732,"Ãłnics":10733,"ĠtramitaciÃ³":10734,"lustraciÃ³":10735,"Ġesbor":10736,"Ġcaminant":10737,"71":10738,"juÃ¯c":10739,"ĠparÃłmetres":10740,"%)":10741,"ĠGre":10742,"ĠTre":10743,"Ġsorpres":10744,"Ġdesaparegut":10745,"esquerres":10746,"alcohol":10747,"ĠexplÃŃ":10748,"Ġ1990":10749,"ĠBru":10750,"Ġconvenient":10751,"adÃł":10752,"Ġci":10753,"ĠdolÃ§a":10754,"ĠcÃ²mode":10755,"Ġintentat":10756,"ft":10757,"Ã¨lgica":10758,"ĠPallars":10759,"Ġbicicletes":10760,"escala":10761,"ultats":10762,"Ġexigeix":10763,"integ":10764,"Arrib":10765,"Ġregne":10766,"ĠWh":10767,"estabilitat":10768,"cÃł":10769,"Ġbateria":10770,"cionalitzaciÃ³":10771,"Ġexperimentar":10772,"Ġmit":10773,"edors":10774,"ĠBarri":10775,"ĠPolit":10776,"âĢĭ":10777,"ĠMartorell":10778,"Ġespecialitzats":10779,"Ġmonitors":10780,"Ġsenten":10781,"ĠConstitucional":10782,"42":10783,"Pla":10784,"Escal":10785,"Ġinaugurar":10786,"ĠMontse":10787,"'m":10788,"arma":10789,"lÃł":10790,"Ġinvas":10791,"Ġcub":10792,"ĠconsideraciÃ³":10793,"Ġlleugerament":10794,"ĠTin":10795,"AE":10796,"ĠcinquÃ¨":10797,"ĠorientaciÃ³":10798,"ĠmasculÃŃ":10799,"Ġestrangers":10800,"ĠadministraciÃ³":10801,"Ġdescomptat":10802,"Ġcasal":10803,"Ġesg":10804,"encanta":10805,"2019":10806,"Ġpreparats":10807,"Ġabast":10808,"fit":10809,"taven":10810,"Ãłtiques":10811,"ĠGandia":10812,"pera":10813,"ĠpolÃ¨mica":10814,"acos":10815,"assessorament":10816,"Ġtorrent":10817,"Ġgaleria":10818,"Ġexplicant":10819,"htt":10820,"Ġpublicats":10821,"Ġcomuni":10822,"Ġsecre":10823,"Ġreuneix":10824,"fÃ²nica":10825,"rÃłtic":10826,"abans":10827,"Ġidiomes":10828,"Ġgeneren":10829,"ĠprÃ²xims":10830,"ĠBerlÃŃn":10831,"agenda":10832,"Ġfacil":10833,"vit":10834,"inclo":10835,"Ġconstituir":10836,"Ġfavorable":10837,"Ġlectures":10838,"Ġllistat":10839,"Ġindicar":10840,"neu":10841,"ĠYou":10842,"ĠsinÃ²nim":10843,"ĠSem":10844,"leshores":10845,"Ġapla":10846,"inyÃł":10847,"Ġdelegat":10848,"Ġvui":10849,"ĠGent":10850,"ĠdocÃ¨ncia":10851,"ribunals":10852,"Ġobstac":10853,"Ġllibreria":10854,"turar":10855,"ĠVolem":10856,"ssos":10857,"evitar":10858,"ĠElla":10859,"ĠCristi":10860,"ash":10861,"enciada":10862,"Ġpobre":10863,"Ġalegria":10864,"ĠtÃºn":10865,"ĠcomparaciÃ³":10866,"ĠJuvenil":10867,"ĠCamps":10868,"ĠdenominaciÃ³":10869,"ĠÃ¨poques":10870,"58":10871,"Ġexerc":10872,"Ġfruites":10873,"rata":10874,"Ġbars":10875,"Ġprobable":10876,"uga":10877,"pis":10878,"agall":10879,"encara":10880,"ĠCarmen":10881,"quez":10882,"exig":10883,"ejat":10884,"ĠZona":10885,"odeterminaciÃ³":10886,"Josep":10887,"ĠpÃłr":10888,"Ġguanyadora":10889,"Ġafectar":10890,"Ġaudi":10891,"Ġtrep":10892,"uiz":10893,"espais":10894,"Ġindividus":10895,"Ġempa":10896,"ĠEstr":10897,"Ġentorns":10898,"ĠbraÃ§":10899,"Ġmodalitats":10900,"Ġllumin":10901,"Ġexpor":10902,"extrem":10903,"haguÃ©s":10904,"ney":10905,"Ġestrella":10906,"43":10907,"Ġmou":10908,"ple":10909,"emanys":10910,"ĠpenÃŃnsula":10911,"Ġestrenar":10912,"Ġdesaf":10913,"DescripciÃ³":10914,"Ġllargs":10915,"Ġretre":10916,"Ġjugat":10917,"Ġexpli":10918,"bara":10919,"vinguts":10920,"Ã²sof":10921,"Ġbolets":10922,"Ġgi":10923,"Ġsexuals":10924,"Ġpassem":10925,"erva":10926,"Ġtancats":10927,"!)":10928,"ĠtemÃłtiques":10929,"ĠBrasil":10930,"vals":10931,"ĠAmp":10932,"ĠCAT":10933,"Ġcinquena":10934,"ĠorgÃłnica":10935,"Ġimplicats":10936,"Ġaccel":10937,"ĠpaciÃ¨ncia":10938,"Ġreivindicar":10939,"Ġregles":10940,"Ġperfils":10941,"Ġsenyals":10942,"Ġaniran":10943,"Ġcobreix":10944,"Ġescap":10945,"Ġcomencem":10946,"ĠbalcÃ³":10947,"ĠVin":10948,"Ġsanitaris":10949,"Ġriera":10950,"ĠprÃłctic":10951,"ĠExc":10952,"Ġlent":10953,"altar":10954,"Ġvil":10955,"utor":10956,"Ġvideoj":10957,"ganda":10958,"urÃłs":10959,"ĠdonaciÃ³":10960,"ĠsuspensiÃ³":10961,"ĠGim":10962,"clop":10963,"ĠcessiÃ³":10964,"istan":10965,"Ġcontrast":10966,"Ġinteressa":10967,"ĠNavarro":10968,"Ġvestits":10969,"PR":10970,"Ġcaixes":10971,"Ġfreda":10972,"ĠbritÃłnic":10973,"Ġinstituts":10974,"Ġacolli":10975,"ĠVives":10976,"Ġaprovada":10977,"Ġtemporades":10978,"ĠLloret":10979,"Ben":10980,"Ġdefen":10981,"Ġtravessa":10982,"ĠquÃŃmica":10983,"vÃŃ":10984,"altura":10985,"impor":10986,"Ġmoneda":10987,"Ã²pia":10988,"ĠplÃłn":10989,"ĠnÃºvols":10990,"ript":10991,"ĠTec":10992,"ĠCR":10993,"Igualada":10994,"ritat":10995,"Ãºrg":10996,"PD":10997,"ader":10998,"Enguany":10999,"gnasi":11000,"ĠCornellÃł":11001,"Ġbrom":11002,"Ġcompetir":11003,"ĠSus":11004,"Ġatrib":11005,"ĠJac":11006,"Ġcomparteixen":11007,"Ġconsecu":11008,"ĠConferÃ¨ncia":11009,"ĠHospital":11010,"Ġyou":11011,"Ġguiada":11012,"Ġremen":11013,"Ġinstant":11014,"Ġbel":11015,"Ġfuturs":11016,"Ġregistrat":11017,"Hab":11018,"Ġtindria":11019,"Ġpota":11020,"Ġsencer":11021,"Ġaspir":11022,"Agricultura":11023,"ĠalimentaciÃ³":11024,"Ġregistres":11025,"Ġesperen":11026,"Ġrelacionar":11027,"Ġallotjament":11028,"acceptaciÃ³":11029,"Ġubicat":11030,"ĠSand":11031,"entrar":11032,"Ġdeien":11033,"ellat":11034,"Ġdestinada":11035,"sense":11036,"Ġgustos":11037,"AudiÃ¨ncia":11038,"Ġsona":11039,"Ġregalar":11040,"ĠHern":11041,"guardia":11042,"Ġafegim":11043,"Ġadaptat":11044,"Ġanglesa":11045,"Ġquedava":11046,"Ġreis":11047,"ĠAD":11048,"Dins":11049,"Ġgoverna":11050,"Mon":11051,"ĠÃºtils":11052,"Ġ1994":11053,"Ġquadres":11054,"Ġcentrat":11055,"Ġencaix":11056,"sionista":11057,"ĠDeu":11058,"mf":11059,"Ġcro":11060,"entrestant":11061,"tions":11062,"Ġvintena":11063,"Ġempresarials":11064,"Ġtert":11065,"ÃŃssims":11066,"erats":11067,"Ġfolk":11068,"EstÃł":11069,"trius":11070,"Ġfitxers":11071,"ST":11072,"ĠautÃ¨ntica":11073,"vint":11074,"ĠclÃŃnica":11075,"ĠRu":11076,"PerquÃ¨":11077,"Ġmalalts":11078,"Ġfixa":11079,"letisme":11080,"ĠexplicaciÃ³":11081,"Ġtocat":11082,"Ã³ra":11083,"Ġajudat":11084,"''":11085,"Ġeconom":11086,"inades":11087,"ĠDO":11088,"Ġsobres":11089,"ĠCooperaciÃ³":11090,"Ġdany":11091,"ĠacadÃ¨mica":11092,"Ġinevi":11093,"Ġpromocionar":11094,"Ġfundar":11095,"ĠtecnolÃ²gica":11096,"Ġderivats":11097,"Ġaventures":11098,"habitaciÃ³":11099,"Ġduu":11100,"Ġcorresponen":11101,"ĠAgustÃŃ":11102,"Ġvells":11103,"ĠMontseny":11104,"Ġcapi":11105,"oba":11106,"Ġrevisar":11107,"Ġbarb":11108,"Ġpluges":11109,"ĠSetembre":11110,"Ġdans":11111,"we":11112,"ĠadreÃ§at":11113,"Ġintegrada":11114,"Ġrecordem":11115,"glÃ©sies":11116,"ĠllanÃ§ar":11117,"!.":11118,"Ġpetr":11119,"Ġdestinades":11120,"ĠSta":11121,"Ġ1993":11122,"ADA":11123,"rug":11124,"ise":11125,"ĠPlana":11126,"ĠperÃŃodes":11127,"ĠseparaciÃ³":11128,"erola":11129,"Ġespecialista":11130,"ĠDim":11131,"Sab":11132,"Ġdebatre":11133,"legal":11134,"Ġcadira":11135,"rome":11136,"Ġconducta":11137,"Ġformal":11138,"ĠLec":11139,"Ġvinculades":11140,"Ġdegra":11141,"unitat":11142,"Ġassenyala":11143,"Ġperjud":11144,"egeu":11145,"ĠurbanÃŃstica":11146,"Ġcaigut":11147,"Ġduen":11148,"lÃłndia":11149,"ĠdesplaÃ§a":11150,"Ġafectat":11151,"nou":11152,"orant":11153,"Ho":11154,"Ġsep":11155,"95":11156,"Ġarm":11157,"Ġ46":11158,"Ġdiem":11159,"apa":11160,"Ġforat":11161,"Ġsobreviure":11162,"ĠAR":11163,"Ġonze":11164,"Ã©r":11165,"Ġclassificat":11166,"ĠPA":11167,"Volem":11168,"Ġvalu":11169,"Ġrefereix":11170,"Ġpostres":11171,"Ġsugg":11172,"alies":11173,"ĠfantÃłstica":11174,"Ġorienta":11175,"ĠUIB":11176,"Ã²loga":11177,"Ġimpossi":11178,"ĠBert":11179,"Ġmatis":11180,"ulacions":11181,"naval":11182,"Enric":11183,"Ġaddicional":11184,"Ġsituats":11185,"Ġlac":11186,"Can":11187,"ĠSegur":11188,"Ġcrem":11189,"Consulta":11190,"Ġcompten":11191,"Ġ43":11192,"individ":11193,"ĠBosch":11194,"ane":11195,"ĠsubstituciÃ³":11196,"pital":11197,"Ġpern":11198,"ĠPost":11199,"Ġcava":11200,"ĠKa":11201,"Ġcalma":11202,"Ġindirec":11203,"ĠPriorat":11204,"ĠavanÃ§a":11205,"Ġxicot":11206,"Ġmissa":11207,"ĠPersonal":11208,"entament":11209,"Ġpensaments":11210,"47":11211,"uth":11212,"ĠvÃ©n":11213,"Ġocells":11214,"Ġversos":11215,"Ġdesde":11216,"Ãłgina":11217,"unts":11218,"Ġcong":11219,"Ġincloses":11220,"pressiÃ³":11221,"ajut":11222,"yl":11223,"Ġveri":11224,"Ġhec":11225,"ĠidentificaciÃ³":11226,"Ġdisposat":11227,"Ġdesenvolupant":11228,"Ġoficialment":11229,"Ġcondicionat":11230,"Ġpoguessin":11231,"fins":11232,"Ġretrat":11233,"ĠÃ¨x":11234,"ĠGall":11235,"titats":11236,"alegria":11237,"Ġfina":11238,"ĠVilla":11239,"41":11240,"Ġaficionats":11241,"Ġmana":11242,"otips":11243,"Ġllars":11244,"ĠÃļ":11245,"Ġsetanta":11246,"ĠavÃŃs":11247,"ĠadaptaciÃ³":11248,"cialment":11249,"Ġentenc":11250,"ĠdesapariciÃ³":11251,"grau":11252,"cient":11253,"Ġconformitat":11254,"ĠVell":11255,"Ġraona":11256,"Ãłrem":11257,"Ġdeures":11258,"Ġjustificar":11259,"je":11260,"ĠRepublic":11261,"Qui":11262,"Ġdocum":11263,"Ġsignes":11264,"Ġblaugrana":11265,"ĠDo":11266,"Ġrurals":11267,"agrup":11268,"ĠcomenÃ§ant":11269,"ARI":11270,"Ġdescri":11271,"ĠPark":11272,"ĠCop":11273,"Ġmarcada":11274,"Ġcristiana":11275,"Ġcatedral":11276,"Ġpilars":11277,"ORT":11278,"Ġanomenar":11279,"Ãłstima":11280,"Ġpeculiar":11281,"ĠGin":11282,"ĠfilÃ²sof":11283,"Ġlitoral":11284,"Ãłtiva":11285,"ĠMur":11286,"Ġviven":11287,"Ġassolit":11288,"jaments":11289,"Ġå":11290,"Ġcementiri":11291,"ĠRicard":11292,"ĠdipÃ²sit":11293,"Ġcelebren":11294,"innovaciÃ³":11295,"Ġdecora":11296,"Ġcist":11297,"lita":11298,"Ġllegat":11299,"Ġdotar":11300,"Ġconvidem":11301,"ĠecolÃ²gic":11302,"nez":11303,"DA":11304,"Ġacompanya":11305,"Ġfestivals":11306,"Ġalemanya":11307,"Ġfinalitz":11308,"Ġcomplert":11309,"essÃ¨ncia":11310,"acus":11311,"ĠTota":11312,"Ġencarregat":11313,"Ġexpert":11314,"ospitals":11315,"Ġaparells":11316,"ĠposarÃł":11317,"Ġplaca":11318,"Ġacabada":11319,"Ġpressa":11320,"orem":11321,"Ġgestiona":11322,"accessi":11323,"ĠcapÃ§al":11324,"ĠtÃŃpic":11325,"ACN":11326,"Alta":11327,"ĠprecisiÃ³":11328,"Ġvaixells":11329,"ĠdiscussiÃ³":11330,"diccions":11331,"ĠLiceu":11332,"IVA":11333,"Af":11334,"Ġemissions":11335,"____":11336,"Ġjoguines":11337,"estalvi":11338,"Ġmusc":11339,"Ġfutura":11340,"ĠMolins":11341,"ĠBerga":11342,"Ġline":11343,"ĠTR":11344,"ĠllanÃ§ament":11345,"Ġcontempla":11346,"Ġafric":11347,"Etiquetes":11348,"pall":11349,"ĠmediterrÃłnia":11350,"Ġromans":11351,"autoritat":11352,"Ġdents":11353,"voluciÃ³":11354,"ĠestÃ¨tica":11355,"Ġdeter":11356,"vents":11357,"Ġ1939":11358,"estes":11359,"Ġconec":11360,"Ġcasar":11361,"Ġblancs":11362,"Ġorganitzades":11363,"landa":11364,"Ġassistit":11365,"Ġcentenari":11366,"Ġjustament":11367,"Ġdestinacions":11368,"Ġsoles":11369,"Moltes":11370,"errada":11371,"Ġtitulars":11372,"Dissabte":11373,"Ġexplorar":11374,"ĠpoÃ¨tica":11375,"ĠvigilÃłncia":11376,"Ãºstica":11377,"ompl":11378,"Ġconsumidor":11379,"mÃ¨s":11380,"Ġcavalls":11381,"diu":11382,"Ġvivia":11383,"Ġparticiparan":11384,"ĠfotogrÃłfic":11385,"Ġciutadanes":11386,"Record":11387,"ĠPoc":11388,"ĠSuÃ¯ssa":11389,"Ġarbre":11390,"ĠSalt":11391,"reballa":11392,"ĠOccidental":11393,"molt":11394,"ĠinformÃłtics":11395,"sat":11396,"ĠBlanca":11397,"inÃ¨s":11398,"ĠvivÃ¨ncies":11399,"ĠAle":11400,"Ġvagin":11401,"ĠOriental":11402,"ĠTÃłrrega":11403,"Ġdiagnos":11404,"Ġcomerciants":11405,"entista":11406,"tÃ©s":11407,"Ġavaluar":11408,"espectador":11409,"ĠComerci":11410,"ĠvictÃ²ries":11411,"monia":11412,"Ġrup":11413,"ĠcomÃ¨dia":11414,"Ġpalau":11415,"mail":11416,"Ġjutjat":11417,"actor":11418,"ĠDins":11419,"ĠcontÃŃnua":11420,"ĠlingÃ¼ÃŃstic":11421,"ĠAnglaterra":11422,"Ġcontinent":11423,"ĠLingÃ¼ÃŃstica":11424,"ĠconvÃ©":11425,"adolesc":11426,"Ġ41":11427,"ĠconsolidaciÃ³":11428,"Ġpujant":11429,"Ġvinya":11430,"Ġrefres":11431,"ĠMaragall":11432,"Ġdada":11433,"ĠEsperem":11434,"Ġponent":11435,"ellas":11436,"Ġfortal":11437,"Ġaconseguint":11438,"Ġreina":11439,"Ġinvis":11440,"Ġaudiovisuals":11441,"Ġhon":11442,"Ġcontractar":11443,"Ġascend":11444,"Ġordres":11445,"Sobre":11446,"ote":11447,"Ġestimat":11448,"inera":11449,"Ġdescriure":11450,"2002":11451,"ĠprÃ²xima":11452,"mosfera":11453,"ĠmÃ¨dica":11454,"Esport":11455,"ĠtinguÃ©s":11456,"ĠFÃŃsica":11457,"ĠreivindicaciÃ³":11458,"ĠExper":11459,"ĠservirÃł":11460,"Ġcontinuada":11461,"Ġdesple":11462,"Ġparticipatiu":11463,"ester":11464,"baix":11465,"Ġcorona":11466,"Ġindign":11467,"Empresa":11468,"Ġcobra":11469,"Ġconsecutiu":11470,"Ġnevera":11471,"Ġreciclatge":11472,"ĠPra":11473,"Ġinstr":11474,"ÃŃxols":11475,"Tan":11476,"tenen":11477,"Ġportant":11478,"ĠterapÃ¨u":11479,"Ġrics":11480,"Ġalemanys":11481,"Ġfinalitzat":11482,"autoritzaciÃ³":11483,"56":11484,"Ġrenta":11485,"Ġdesapareix":11486,"ĠSevilla":11487,"Ġsalva":11488,"Ġconcrets":11489,"ĠsuÃ¯":11490,"ĠSha":11491,"ĠDen":11492,"cionats":11493,"opista":11494,"ĠressÃ²":11495,"ĠTomÃłs":11496,"ĠcÃłlcul":11497,"Ġconsiderem":11498,"Ġseca":11499,"Ġvesprada":11500,"Ġempr":11501,"Ġministeri":11502,"Ġanimar":11503,"horabona":11504,"ĠSanitat":11505,"ĠIndustrial":11506,"Ġcercle":11507,"Ġlesions":11508,"Ġcontent":11509,"Ġreperc":11510,"Ġfabricants":11511,"irat":11512,"entrenament":11513,"ĠMusic":11514,"Ġequipament":11515,"titzar":11516,"Ġrenunciar":11517,"how":11518,"Ġenfor":11519,"vetat":11520,"Ġfesti":11521,"ĠBÃ¨lgica":11522,"Ġjusta":11523,"ĠperiÃ²dica":11524,"Ġrecents":11525,"fectes":11526,"Ġprivacitat":11527,"ĠConsul":11528,"etÃłria":11529,"ĠFla":11530,"Ġaprofundir":11531,"Ġvocal":11532,"Ġtaxes":11533,"Ġtanmateix":11534,"Ã²mens":11535,"Ġcapitalisme":11536,"Ġessencials":11537,"esperar":11538,"Ġadoptar":11539,"ĠportÃł":11540,"guitat":11541,"Ġinscrits":11542,"ĠmarÃŃ":11543,"Ġ1991":11544,"orregut":11545,"Ġencanta":11546,"obligaciÃ³":11547,"utilitzen":11548,"Ġmonitor":11549,"ĠCort":11550,"ĠDam":11551,"ĠVanguardia":11552,"ĠBoi":11553,"tig":11554,"Ġsavi":11555,"ĠRuiz":11556,"ole":11557,"Ġrobots":11558,"ĠâĢĭ":11559,"Ġestaria":11560,"arde":11561,"Ġsubjecte":11562,"xaca":11563,"Ġinnoc":11564,"Ã²crates":11565,"ĠdiÃł":11566,"Tal":11567,"quins":11568,"Ġgana":11569,"lip":11570,"Ġdeixeu":11571,"ĠFrank":11572,"86":11573,"isis":11574,"oliva":11575,"Ġexca":11576,"Ġreconeguts":11577,"ĠdinÃłmiques":11578,"ival":11579,"Ġincapa":11580,"ĠSara":11581,"Ġvalent":11582,"Ġblat":11583,"ĠhistÃ²riques":11584,"Ġcobrar":11585,"Ġcompeticions":11586,"edag":11587,"ĠMot":11588,"instru":11589,"ĠamenaÃ§a":11590,"Ġterritorials":11591,"ĠLliure":11592,"Ġguerres":11593,"Ġsubven":11594,"AcadÃ¨mia":11595,"irona":11596,"ĠMusical":11597,"Ġimpressionant":11598,"ĠoperaciÃ³":11599,"lleu":11600,"ĠBarberÃł":11601,"Ġcontenen":11602,"Ġcompromisos":11603,"ĠnarraciÃ³":11604,"ĠMaig":11605,"rÃ³s":11606,"ĠurbanitzaciÃ³":11607,"mnium":11608,"Ġcompetitivitat":11609,"Ġrati":11610,"ĠÃŃntegra":11611,"Molt":11612,"ĠNor":11613,"ĠJorge":11614,"ĠFiscal":11615,"Ġpatron":11616,"Ġfalla":11617,"ĠvÃ©nen":11618,"ãĢ":11619,"Cre":11620,"ĠEscolar":11621,"Ġcreadors":11622,"Ġcausar":11623,"ĠmanipulaciÃ³":11624,"Ġtransversal":11625,"ĠISBN":11626,"mentera":11627,"Ġplenes":11628,"ĠcalÃ§":11629,"Ġaporten":11630,"Ġfinancer":11631,"ebut":11632,"urn":11633,"Ġcondemna":11634,"Ġimprovis":11635,"ĠcoaliciÃ³":11636,"rosa":11637,"vangel":11638,"Ã¨p":11639,"Ġrectan":11640,"Ġimmobili":11641,"Im":11642,"rocar":11643,"ĠHit":11644,"Ġrepartir":11645,"ĠUniversitari":11646,"Ġdoni":11647,"Ġcova":11648,"tativa":11649,"ĠqualificaciÃ³":11650,"ardi":11651,"ĠOlot":11652,"Ġdemanant":11653,"Ġcedir":11654,"ĠGuÃŃxols":11655,"Ġtitulat":11656,"Ġbeure":11657,"ĠRen":11658,"ĠavaluaciÃ³":11659,"Ġfortes":11660,"Ġfragments":11661,"Ġfisi":11662,"assass":11663,"nicia":11664,"Ġester":11665,"entatges":11666,"culs":11667,"Ã¯ns":11668,"este":11669,"ART":11670,"absÃ¨ncia":11671,"onista":11672,"isca":11673,"ĠTÃ¨cnica":11674,"ĠcÃłmeres":11675,"Ġsos":11676,"urgia":11677,"Ġreunit":11678,"escut":11679,"Interior":11680,"Ġgeni":11681,"Ġmobles":11682,"Ġfutures":11683,"ĠQU":11684,"Ġamar":11685,"Ġculte":11686,"Ġprofit":11687,"Ġfita":11688,"Ġdigui":11689,"enestar":11690,"Ġau":11691,"ĠLliber":11692,"Ġorganitzen":11693,"wood":11694,"ĠCul":11695,"Ġimmediat":11696,"ĠEspai":11697,"AgrupaciÃ³":11698,"Ġartificial":11699,"Ã²bia":11700,"gipte":11701,"Ġcaminada":11702,"ĠDuran":11703,"cits":11704,"ĠFal":11705,"ĠsÃŃmbols":11706,"Ġbressol":11707,"Ġanul":11708,"Ġsubstan":11709,"ĠBlanes":11710,"acredi":11711,"ĠMis":11712,"animitat":11713,"Ġremodel":11714,"ĠcontinuarÃł":11715,"2006":11716,"ĠpÃºblicament":11717,"ĠPaco":11718,"Ġced":11719,"Ġcuida":11720,"Ġmapes":11721,"tinyent":11722,"ingo":11723,"ĠrectificaciÃ³":11724,"Ġlaterals":11725,"blanc":11726,"teniment":11727,"Ġmini":11728,"Ġrumb":11729,"Ġuneix":11730,"guedÃł":11731,"ussa":11732,"aprof":11733,"Ġaccessible":11734,"Ġrecre":11735,"Ġdescoberta":11736,"ING":11737,"educa":11738,"tracciÃ³":11739,"Ġcull":11740,"ĠPolitÃ¨cnica":11741,"Ġderiva":11742,"OrganitzaciÃ³":11743,"OV":11744,"Ġposeu":11745,"ĠAdministra":11746,"ĠTu":11747,"Camp":11748,"Ġconfid":11749,"Ġsemblants":11750,"Ġarreg":11751,"ĠarribarÃł":11752,"Primer":11753,"ĠPav":11754,"Ġsint":11755,"Ġintegrar":11756,"Ġdesconegut":11757,"mÃłtics":11758,"ĠDefensa":11759,"Mentre":11760,"Ġecos":11761,"Ġ{":11762,"ĠÃłlbum":11763,"Ġsuficients":11764,"idament":11765,"Ġsimpa":11766,"ĠMerca":11767,"Ġmasclista":11768,"ĠRuta":11769,"ĠconcepciÃ³":11770,"Ġnuclis":11771,"Ġexpuls":11772,"ĠsupervivÃ¨ncia":11773,"app":11774,"ĠcomenÃ§ava":11775,"ĠanÃ¨cd":11776,"Ġlleuger":11777,"Ġvinyes":11778,"Ġplantar":11779,"Ġretra":11780,"Ġinfec":11781,"asses":11782,"egues":11783,"Ġexigir":11784,"Ġformatius":11785,"eixes":11786,"aportaciÃ³":11787,"heim":11788,"Ġvalorat":11789,"alada":11790,"estada":11791,"Ġprenen":11792,"ĠtÃłc":11793,"Ġpresentades":11794,"ĠUrbana":11795,"ĠCatedral":11796,"Ġcompost":11797,"gressos":11798,"organisme":11799,"Ãįndia":11800,"Ġconsiderada":11801,"ĠreduÃ¯da":11802,"Ġrot":11803,"ĠDoctor":11804,"egaciÃ³":11805,"ĠconstruÃ¯da":11806,"entÃ©n":11807,"ĠSA":11808,"rible":11809,"Ġcelebracions":11810,"Ġdesfi":11811,"Ġconfirmat":11812,"atra":11813,"ĠGerard":11814,"Ġpreservar":11815,"aus":11816,"ulsiÃ³":11817,"Ġaprofita":11818,"amÃ³s":11819,"endrÃł":11820,"Ġcorporal":11821,"Ġurgent":11822,"vertir":11823,"ĠPalaf":11824,"Ġentenem":11825,"Ġmotors":11826,"Ġaer":11827,"ĠconvenÃ§ut":11828,"Ġ62":11829,"arrel":11830,"Ġmorta":11831,"Ġestimar":11832,"Ġactor":11833,"Ġcarnet":11834,"ĠMarcel":11835,"ĠSalou":11836,"ĠRiba":11837,"trÃº":11838,"Ġlateral":11839,"Ġimmigrants":11840,"Ġcolumna":11841,"tuar":11842,"ficials":11843,"Ġtinguem":11844,"ĠÃį":11845,"Ġ49":11846,"Ġalcaldes":11847,"ĠESO":11848,"ĠEsportiu":11849,"Ġincorporat":11850,"own":11851,"Ġcoincidir":11852,"ĠGol":11853,"alia":11854,"Ġberen":11855,"ĠsubstÃłncies":11856,"Ġpalla":11857,"ĠRecursos":11858,"Ġcust":11859,"ĠTerritorial":11860,"Ġsaltar":11861,"Ġdemostren":11862,"ĠCAP":11863,"Ġcomte":11864,"Ġnacionalitat":11865,"ĠMollet":11866,"CD":11867,"sh":11868,"loqui":11869,"ĠentÃ¨s":11870,"ĠpÃłrquing":11871,"ducar":11872,"ĠEscol":11873,"Ġespiritual":11874,"Ġorganisme":11875,"reia":11876,"ĠRaval":11877,"ibil":11878,"set":11879,"Ġembar":11880,"Ġautonomia":11881,"itiva":11882,"ĠTemps":11883,"Ġcarregar":11884,"habitatges":11885,"Ġpura":11886,"Ġhig":11887,"Ġemm":11888,"300":11889,"ĠMay":11890,"Ġlimitat":11891,"Ġinclus":11892,"ington":11893,"Ġinformatiu":11894,"ĠLiteratura":11895,"ĠSaint":11896,"ĠFam":11897,"ritz":11898,"Ġanant":11899,"Ġwith":11900,"Ġdita":11901,"amics":11902,"Ġinfraestructura":11903,"Ġcontundent":11904,"ĠGeltrÃº":11905,"Tant":11906,"Ġ(âĢľ":11907,"Ġcoca":11908,"ĠcommemoraciÃ³":11909,"Ġomp":11910,"oure":11911,"Ġcurts":11912,"Ġdepartaments":11913,"Ġvirtut":11914,"Ġprofundament":11915,"acer":11916,"Ã©nez":11917,"arraf":11918,"Ġartic":11919,"ĠOrg":11920,"ĠreligiÃ³s":11921,"gonal":11922,"ĠPapa":11923,"Ġsost":11924,"lustr":11925,"Ġfederal":11926,"rich":11927,"tein":11928,"Ġoriental":11929,"Ġelegant":11930,"omÃ¨t":11931,"oi":11932,"Ġaugmentat":11933,"**":11934,"Ġrepublicans":11935,"rique":11936,"ĠAnim":11937,"Ġjuguen":11938,"ĠCarta":11939,"off":11940,"autodeterminaciÃ³":11941,"ĠÃ¨xits":11942,"Ġmenuts":11943,"ĠautÃ²ct":11944,"62":11945,"otada":11946,"Ġnegu":11947,"Ġcontex":11948,"Ġcomoditat":11949,"Anoia":11950,"Ġdirigides":11951,"icaments":11952,"Ġdelim":11953,"Ġton":11954,"lents":11955,"Ġcomplexa":11956,"Ġfocus":11957,"rÃłria":11958,"scar":11959,"Home":11960,"ĠEdicions":11961,"tambÃ©":11962,"Ã²tics":11963,"Ġpronunci":11964,"onÃ²mics":11965,"Ġradical":11966,"Ġformatiu":11967,"Ġcloenda":11968,"Ġ1980":11969,"ĠBombers":11970,"Ġagradaria":11971,"Ġinteriors":11972,"Ġnegociacions":11973,"Ġutilitzada":11974,"Ġexemplar":11975,"ĠelÃ¨ctrics":11976,"ferent":11977,"usuaris":11978,"Ġdesert":11979,"Ġconsellers":11980,"ido":11981,"Ġmobiliari":11982,"TER":11983,"ĠEul":11984,"Ã¢":11985,"Ð²":11986,"ĠestratÃ¨gic":11987,"ĠtrÃłfic":11988,"Ġultra":11989,"llament":11990,"sobre":11991,"alitzem":11992,"Ġrenovar":11993,"tituciÃ³":11994,"ĠXÃłtiva":11995,"Ġpropici":11996,"Ġanomenats":11997,"Atl":11998,"ĠmÃłn":11999,"Ġtira":12000,"Ġgaudit":12001,"Ġprovinents":12002,"ĠKar":12003,"Ġroques":12004,"Ġcomoditats":12005,"Potser":12006,"Ġ::":12007,"sionat":12008,"ĠrepÃºblica":12009,"ĠinformÃłtica":12010,"ĠJunts":12011,"Ġconeixia":12012,"obtenciÃ³":12013,"Ġbor":12014,"alim":12015,"Ġbosses":12016,"ĠManacor":12017,"Ġguies":12018,"ĠMarroc":12019,"ICA":12020,"enviament":12021,"Ġrecollit":12022,"regaciÃ³":12023,"Ġitinerari":12024,"mod":12025,"amistat":12026,"Ġvinculat":12027,"Ġrequereixen":12028,"Ġhiper":12029,"Ġmecanisme":12030,"ĠCorre":12031,"Ġvincles":12032,"ĠGÃ¼":12033,"Ġemprenedors":12034,"57":12035,"Ġmargin":12036,"ĠautoritzaciÃ³":12037,"Usuari":12038,"ene":12039,"queras":12040,"Ġassenyalar":12041,"ĠClara":12042,"Ġvolums":12043,"Form":12044,"ĠPenya":12045,"ĠUPC":12046,"ĠGai":12047,"63":12048,"67":12049,"odiversitat":12050,"Ġnotar":12051,"Ġcarboni":12052,"ectes":12053,"Ġelevada":12054,"ĠMateu":12055,"ĠBut":12056,"Ġ47":12057,"Ġprecari":12058,"Ġrema":12059,"risti":12060,"Ã²lics":12061,"Ġdurar":12062,"remta":12063,"Ġprocedent":12064,"ĠMobilitat":12065,"Ġestalvi":12066,"Ġperjudici":12067,"ĠVolun":12068,"Ġdemanem":12069,"Ġparadi":12070,"Ġvalencianes":12071,"Ġvincle":12072,"ĠbotÃ³":12073,"asso":12074,"ĠdemarcaciÃ³":12075,"ĠPlatja":12076,"gre":12077,"Ġitaliana":12078,"Ġoi":12079,"Ġaman":12080,"Ġpatates":12081,"Ġindicadors":12082,"Ġsuports":12083,"Ġextens":12084,"Ġpasses":12085,"ĠUrgell":12086,"Ġadsc":12087,"exic":12088,"ItÃłlia":12089,"Ġ700":12090,"Ġcensura":12091,"Ġinsu":12092,"Ġcuinar":12093,"ete":12094,"ĠBenestar":12095,"ĠtomÃłquet":12096,"Fer":12097,"ĠinteracciÃ³":12098,"Ġpagesos":12099,"tero":12100,"Ġprogramat":12101,"ĠMÃł":12102,"tinciÃ³":12103,"observaciÃ³":12104,"ĠcomunitÃłria":12105,"ĠViu":12106,"Ġballs":12107,"Ġcomponent":12108,"Estiu":12109,"tallar":12110,"ados":12111,"ĠDelta":12112,"lectuals":12113,"lelament":12114,"cida":12115,"infants":12116,"Ġcig":12117,"Ãłriament":12118,"Ġurnes":12119,"ĠAP":12120,"Ġendur":12121,"Ġcampus":12122,"ĠGro":12123,"Ġaparell":12124,"Ġpositivament":12125,"ĠBenet":12126,"eras":12127,"Ġnacionalisme":12128,"ĠVida":12129,"ĠautÃ²noma":12130,"Sempre":12131,"Ġvermella":12132,"ĠestadÃŃstiques":12133,"ĠtraÃ§at":12134,"Ġcaptar":12135,"ilip":12136,"Ġpetroli":12137,"Ġapa":12138,"teb":12139,"Ġcompanyes":12140,"Ġdescobriment":12141,"ĠUGT":12142,"Ġdirectiva":12143,"Ġcondemnat":12144,"indows":12145,"ĠCentres":12146,"ĠexcursiÃ³":12147,"ĠCasas":12148,"Ġperdent":12149,"Dis":12150,"ordenaciÃ³":12151,"Sense":12152,"Ġperspectives":12153,"Ġpollas":12154,"dÃ³":12155,"abtes":12156,"Ġcuidar":12157,"Ġsepara":12158,"eneraciÃ³":12159,"ĠCC":12160,"aproxim":12161,"Ġreflecteix":12162,"Estany":12163,"Ġimporta":12164,"Ġcere":12165,"ĠSecund":12166,"rances":12167,"ĠrepÃłs":12168,"Ġcomplicitat":12169,"Ġtrem":12170,"Ġdenunciat":12171,"Ġguanyant":12172,"Ġlluites":12173,"arbre":12174,"ĠtecnolÃ²gic":12175,"agraden":12176,"ĠfreqÃ¼ent":12177,"ĠpÃ¨rdues":12178,"Ã²pera":12179,"urÃŃ":12180,"Ġsemif":12181,"Ġrepresentacions":12182,"ness":12183,"Ġatorga":12184,"espanyol":12185,"Orquestra":12186,"ngels":12187,"bÃ³":12188,"ĠCalella":12189,"Ġsobte":12190,"Ġquir":12191,"ĠalimentÃłria":12192,"ario":12193,"ĠRevista":12194,"Ġadient":12195,"53":12196,"Ġescapar":12197,"ĠAleshores":12198,"acompanyament":12199,"Ġsenyors":12200,"inacions":12201,"ĠmÃ¨dic":12202,"ĠMestre":12203,"ÃŃcules":12204,"Ġagro":12205,"Dim":12206,"ĠmÃłs":12207,"ĠNicol":12208,"ĠCoral":12209,"Ġbegudes":12210,"ĠhectÃł":12211,"queria":12212,"Ġensenyaments":12213,"Ġcomenci":12214,"Ġlimitacions":12215,"Ġblanques":12216,"cionisme":12217,"Ġcondemn":12218,"Ġsindical":12219,"PV":12220,"IE":12221,"Ġgrapat":12222,"olor":12223,"Ġvuitanta":12224,"ĠTran":12225,"Ñı":12226,"Ġofert":12227,"ĠCala":12228,"Octubre":12229,"ĠprÃŃncep":12230,"52":12231,"ji":12232,"ĠexistÃ¨ncia":12233,"ĠcapitÃł":12234,"Ġcoral":12235,"Ġpesar":12236,"idees":12237,"acosta":12238,"acta":12239,"Ġcorredor":12240,"ĠCity":12241,"afec":12242,"mbia":12243,"tring":12244,"ĠÃłn":12245,"Ġcompartida":12246,"Ã²rgan":12247,"Ġconvencional":12248,"hy":12249,"ĠgÃ¨neres":12250,"orable":12251,"Ġunanimitat":12252,"aliment":12253,"Ġinex":12254,"ĠNoguera":12255,"ĠPeriod":12256,"Ġconstitucional":12257,"ĠRespons":12258,"Ġexpedi":12259,"ĠEurope":12260,"2003":12261,"ĠtÃ¨xtil":12262,"ĠfÃłcils":12263,"Ġlegalitat":12264,"ĠcerimÃ²nia":12265,"Ġimper":12266,"Ãłndol":12267,"uaciÃ³":12268,"Ġconstitueixen":12269,"Ġ1989":12270,"Ġcalcula":12271,"ĠacabarÃł":12272,"ward":12273,"Ġdesfer":12274,"Ġoport":12275,"aps":12276,"ĠSra":12277,"ĠAngel":12278,"ĠautÃ²noms":12279,"ding":12280,"Ġcontinuat":12281,"Ġgaudint":12282,"Ġdeg":12283,"Ġdisposats":12284,"Ġordinadors":12285,"Ġgot":12286,"Ġconsiderable":12287,"TM":12288,"Ġprofessionalitat":12289,"Ġvegetals":12290,"Ġplen":12291,"Ġexteriors":12292,"Ġgirar":12293,"Ġsaludables":12294,"ĠcomitÃ¨":12295,"Ġfibra":12296,"Ġmilitants":12297,"Ġprenent":12298,"Ġpertanyen":12299,"ĠActivitats":12300,"ĠdisminuciÃ³":12301,"ĠViny":12302,"Ġamagar":12303,"ĠdiversiÃ³":12304,"Alz":12305,"ciclop":12306,"Ġgravar":12307,"ĠDalÃŃ":12308,"Amp":12309,"Ġdigne":12310,"Ġannex":12311,"ACI":12312,"ĠParticipaciÃ³":12313,"romp":12314,"rugell":12315,"queb":12316,"Ãłus":12317,"anomenat":12318,"Ġabordar":12319,"61":12320,"ĠAz":12321,"tedra":12322,"Ġremei":12323,"Ġdetermina":12324,"eble":12325,"ĠContra":12326,"Ġpica":12327,"Ġintr":12328,"Rep":12329,"ĠCervera":12330,"Gran":12331,"ĠQuer":12332,"many":12333,"infer":12334,"Ġsimbol":12335,"Ġpersonalitzada":12336,"ĠSÃŃn":12337,"viÃł":12338,"MS":12339,"mera":12340,"Ġterrat":12341,"Ġdesenes":12342,"ĠPortal":12343,"Ġtribunals":12344,"ĠLin":12345,"Ġcarregat":12346,"Ġdobles":12347,"Ġintervenir":12348,"Ġmoto":12349,"Ġnobles":12350,"tries":12351,"UD":12352,"Ġrecorden":12353,"ĠLletres":12354,"ĠEsquerra":12355,"Ġrica":12356,"ĠÎ":12357,"Ġtastar":12358,"Ġprogress":12359,"ĠAcciÃ³":12360,"Ġmentida":12361,"Ġtransparent":12362,"Ġrepeteix":12363,"CIA":12364,"itinerari":12365,"aposta":12366,"Ġconcursos":12367,"ĠinclÃºs":12368,"ĠInt":12369,"antes":12370,"Ġmanc":12371,"olerÃłncia":12372,"ĠCoordinadora":12373,"Ġfall":12374,"ĠInnovaciÃ³":12375,"54":12376,"Ġcreador":12377,"rÃ²s":12378,"Ġenfrontar":12379,"Ġbeca":12380,"assignatura":12381,"Ġavor":12382,"rius":12383,"ĠPacte":12384,"uÃ¯lla":12385,"ĠfusiÃ³":12386,"Ġcobert":12387,"Ġvertical":12388,"Ġfestiu":12389,"ucs":12390,"elements":12391,"Ġlava":12392,"Ġplural":12393,"Ġconfer":12394,"Ġtorres":12395,"Eivissa":12396,"ĠGarriga":12397,"Ãłpies":12398,"queologia":12399,"Ġsortint":12400,"omeu":12401,"Ġaprofitat":12402,"Ġrealitzaran":12403,"ĠRubÃŃ":12404,"ĠMuntanya":12405,"Ġbanys":12406,"ĠCÃŃvic":12407,"Ġcasc":12408,"ĠEstic":12409,"eridi":12410,"ĠÃ²rgan":12411,"ĠQualitat":12412,"bis":12413,"ĠResid":12414,"hero":12415,"homenatge":12416,"ĠCrea":12417,"ĠReb":12418,"Ġsalud":12419,"Ġneur":12420,"encialment":12421,"ajudar":12422,"artistes":12423,"Ġmenja":12424,"ĠfÃ²rum":12425,"Ġdensitat":12426,"ny":12427,"ĠavanÃ§ada":12428,"Ãłmens":12429,"Ġferrovi":12430,"dades":12431,"ĠÃºniques":12432,"ĠPalamÃ³s":12433,"Ġepisodis":12434,"Ð¼":12435,"Ġblogs":12436,"recciÃ³":12437,"Ġdesign":12438,"ĠBil":12439,"Ġporter":12440,"Ġlliurement":12441,"onga":12442,"rena":12443,"Ġsuperm":12444,"tracte":12445,"Ġassignatures":12446,"Ġtorni":12447,"ĠDocumentaciÃ³":12448,"Aran":12449,"Ġpinta":12450,"Ġretor":12451,"ĠQualsevol":12452,"Ġhere":12453,"gualment":12454,"adjud":12455,"ĠConca":12456,"Ġjuris":12457,"media":12458,"Ġtrastorns":12459,"ĠfarÃ©":12460,"Vic":12461,"Ġobligatori":12462,"Ġsonor":12463,"ĠamericÃł":12464,"Ġtap":12465,"Podeu":12466,"Ġconfirma":12467,"Ġpractica":12468,"ĠlÃł":12469,"ĠProvin":12470,"Ġseparar":12471,"ĠSob":12472,"Ġses":12473,"Ġfelicitar":12474,"Ġadequades":12475,"ĠpuntuaciÃ³":12476,"Ġtractats":12477,"ulo":12478,"ĠraÃ¯m":12479,"Ġsorpreses":12480,"ĠintÃ¨rp":12481,"Ġseleccionar":12482,"ĠcomercialitzaciÃ³":12483,"87":12484,"accident":12485,"ĠValencia":12486,"bat":12487,"Ġrefug":12488,"Obra":12489,"Ġforestals":12490,"Ġnegatiu":12491,"cines":12492,"Ġideals":12493,"Ġteixits":12494,"ĠMig":12495,"equipament":12496,"lvia":12497,"Ġxer":12498,"Ġrealitats":12499,"inversiÃ³":12500,"Ġintercanvi":12501,"aries":12502,"Ġpublicades":12503,"Ġequilibri":12504,"encarrega":12505,"Ġmassiva":12506,"ĠFormentera":12507,"ellar":12508,"Ġlligat":12509,"Fi":12510,"Ġperf":12511,"Ġtarra":12512,"ĠRamÃ³n":12513,"ĠJuny":12514,"ĠMireia":12515,"Ġintegrants":12516,"Ġlocalitats":12517,"impost":12518,"ocat":12519,"Ġllogar":12520,"Ġassemblea":12521,"Ġregidoria":12522,"Ġcogni":12523,"aniversari":12524,"Ġcabells":12525,"ĠSecretaria":12526,"ĠMariano":12527,"veni":12528,"Ġjudicials":12529,"ĠpagÃ¨s":12530,"Ġcompanya":12531,"Ġhoritzon":12532,"Ġexcursions":12533,"ĠMÃ²nica":12534,"ĠPersones":12535,"Ġcontenidors":12536,"lai":12537,"ĠInform":12538,"Ġcampana":12539,"Ġpenet":12540,"ĠGlob":12541,"ĠecolÃ²gics":12542,"ĠdÃ²lars":12543,"ĠMul":12544,"Ġcomportar":12545,"Ġaprenent":12546,"Ġpeticions":12547,"Ã©ssim":12548,"ĠSostenibilitat":12549,"mis":12550,"ĠDiu":12551,"iliars":12552,"Ġdefensat":12553,"idioma":12554,"icats":12555,"ĠmÃŃnims":12556,"Ġgala":12557,"egui":12558,"guarda":12559,"lesa":12560,"Ġamaga":12561,"Ġmotx":12562,"ĠFred":12563,"ĠseguirÃł":12564,"agossa":12565,"Ġef":12566,"Ġfantas":12567,"aixa":12568,"Ġcrescut":12569,"dra":12570,"ĠContempor":12571,"Ġestren":12572,"rog":12573,"Ġfitxa":12574,"laraciÃ³":12575,"Ñĭ":12576,"Ġsovi":12577,"ĠimmigraciÃ³":12578,"onem":12579,"Ġlimitar":12580,"Ġvolar":12581,"Ġmedicaments":12582,"igen":12583,"Ġatletes":12584,"Ġpins":12585,"Ġocupat":12586,"ĠcertificaciÃ³":12587,"ĠJim":12588,"ĠFi":12589,"Ġcalent":12590,"Ġ01":12591,"desc":12592,"osex":12593,"Ġdefinit":12594,"CR":12595,"ĠmÃłgic":12596,"Ġjuntes":12597,"Ġdeixava":12598,"rov":12599,"ĠfinanÃ§ar":12600,"ĠPÃºbliques":12601,"Nosaltres":12602,"ville":12603,"Ġdirectius":12604,"ĠMontjuÃ¯c":12605,"ĠllicÃ¨ncies":12606,"ĠrellevÃłncia":12607,"ule":12608,"perquÃ¨":12609,"Ġinoblida":12610,"ĠrepublicÃł":12611,"Sor":12612,"Ġborsa":12613,"Ġreservar":12614,"ĠcientÃŃfiques":12615,"Observatori":12616,"asset":12617,"anitzaciÃ³":12618,"Ġaplicable":12619,"Ġavantatge":12620,"Ġempleats":12621,"Ġtreballadora":12622,"Aigua":12623,"âĢĶ,":12624,"Ã±ez":12625,"his":12626,"Ġinvoluc":12627,"ĠguÃłrdia":12628,"Ã¯tat":12629,"51":12630,"Alc":12631,"umenges":12632,"accessibilitat":12633,"timÃ¨dia":12634,"Ġnaz":12635,"ĠÃŃndex":12636,"Ali":12637,"Ġasi":12638,"assaig":12639,"Vam":12640,"ĠSER":12641,"ĠobligaciÃ³":12642,"Ġdisfres":12643,"ĠLlic":12644,"ocon":12645,"Tenim":12646,"gÃłria":12647,"Ġ00":12648,"uits":12649,"entant":12650,"Ġamigues":12651,"Ġterminis":12652,"ĠAng":12653,"Ġsonora":12654,"imon":12655,"ĠmÃ¡s":12656,"ĠautomÃłticament":12657,"82":12658,"ĠbarcelonÃŃ":12659,"hÃłb":12660,"ĠJut":12661,"ĠSecretari":12662,"Crec":12663,"ĠUd":12664,"chi":12665,"omar":12666,"ellada":12667,"Ġajudant":12668,"ĠProc":12669,"Ġdesigualtats":12670,"Ġmesurar":12671,"jaja":12672,"Ġfundada":12673,"mentant":12674,"ĠteÃ²rica":12675,"ĠForma":12676,"Aqu":12677,"ĠcrÃŃtics":12678,"tagram":12679,"ĠLaia":12680,"Ġfrontal":12681,"Ġformativa":12682,"ĠgrÃłfics":12683,"Ġdonada":12684,"ĠmediaciÃ³":12685,"ĠÃī":12686,"Ġdesplegament":12687,"ĠMargari":12688,"ĠcÃ¨n":12689,"Ġrecuperat":12690,"Ġbrut":12691,"ĠRevoluciÃ³":12692,"Ġober":12693,"Ġcatalog":12694,"ĠIsrael":12695,"Ġprevisions":12696,"Ġaspira":12697,"itxell":12698,"Ġtones":12699,"estudiants":12700,"excursiÃ³":12701,"Ġtest":12702,"Ġestabliment":12703,"92":12704,"ĠViol":12705,"ĠGarraf":12706,"Ġsatisfac":12707,"Ġacudir":12708,"Ġassociat":12709,"Ġdissenys":12710,"Ġmedalla":12711,"Ġdesitja":12712,"ĠJazz":12713,"Ġtrepitj":12714,"ĠConver":12715,"Ġutilitat":12716,"ĠreclamaciÃ³":12717,"Ġdesitjos":12718,"ĠTecnologia":12719,"web":12720,"armes":12721,"bÃ©":12722,"http":12723,"anomenada":12724,"Ġaltament":12725,"ĠterÃłpia":12726,"Ġexplicava":12727,"Ã²crata":12728,"ĠcaÃ§a":12729,"Ġremarcar":12730,"ERS":12731,"Ġarribada":12732,"----":12733,"ĠgeogrÃłfica":12734,"Ġpolicies":12735,"Ġhospitals":12736,"Ġadmet":12737,"Ġpuguis":12738,"Ġnetejar":12739,"BI":12740,"eixa":12741,"ĠCaldes":12742,"ĠVerge":12743,"ĠperfecciÃ³":12744,"Por":12745,"Ġagafat":12746,"Ġreligioses":12747,"ĠtinguÃ©":12748,"Ġ978":12749,"Se":12750,"Ġpatr":12751,"historia":12752,"ixample":12753,"Ġfili":12754,"ĠWillia":12755,"videntment":12756,"Ġ1984":12757,"abora":12758,"ĠGemma":12759,"Ġpassatgers":12760,"Ġdecor":12761,"Ġnegociar":12762,"Ġ1978":12763,"Ġproposen":12764,"83":12765,"Ġindependentment":12766,"Ġpresc":12767,"Ġrecollides":12768,"mping":12769,"olina":12770,"ĠconvÃ¨ncer":12771,"Ġfeminista":12772,"ĠturÃ³":12773,"Ġgovernar":12774,"Ġformatives":12775,"Ġrecomano":12776,"Ġdestacades":12777,"ĠMedia":12778,"Ġvisuals":12779,"Ġbranques":12780,"ĠCod":12781,"Ġ52":12782,"Ãłt":12783,"Ġmonuments":12784,"ban":12785,"ĠEconÃ²mica":12786,"Ãłlisis":12787,"Ġrefre":12788,"Ġcompetent":12789,"ĠBig":12790,"Ġpassats":12791,"Ġfabri":12792,"genda":12793,"opar":12794,"emprened":12795,"Ġpapa":12796,"Ġ180":12797,"ĠagrÃŃcoles":12798,"portiu":12799,"ĠGuia":12800,"cionista":12801,"Ġprinc":12802,"ĠadreÃ§ada":12803,"Ġferides":12804,"ĠArtur":12805,"Ġpreocupa":12806,"ĠPDF":12807,"Ġpolicials":12808,"ĠruÃ¯":12809,"ĠTour":12810,"ĠnÂº":12811,"ĠlesiÃ³":12812,"ĠMemÃ²ria":12813,"ĠfarmacÃ¨u":12814,"anet":12815,"ĠNob":12816,"Ġmales":12817,"ĠelecciÃ³":12818,"Ġcors":12819,"Ġcastellana":12820,"Ġcombinar":12821,"ĠmecÃłnica":12822,"Ġassaig":12823,"Ġpint":12824,"ĠConsum":12825,"Ġflamen":12826,"ĠPots":12827,"acum":12828,"ĠVicente":12829,"Ġhol":12830,"atÃ¨l":12831,"Bar":12832,"Ġposava":12833,"Ġacollida":12834,"Ġascens":12835,"fix":12836,"avis":12837,"Ġaccidents":12838,"aigÃ¼es":12839,"Ġdeure":12840,"pod":12841,"ĠLou":12842,"ĠdetecciÃ³":12843,"Ġbombers":12844,"Ġapuntat":12845,"UE":12846,"torial":12847,"clar":12848,"ĠSagrada":12849,"Ġinquietuds":12850,"defels":12851,"text":12852,"ĠnecessÃłriament":12853,"Ġsentia":12854,"Ã¡r":12855,"tivisme":12856,"ĠCob":12857,"ĠTeix":12858,"veure":12859,"Ġtraduir":12860,"Ġdevia":12861,"ĠGÃ¨n":12862,"ĠIndependÃ¨ncia":12863,"ĠCooperativa":12864,"ruit":12865,"iene":12866,"Ġtemporals":12867,"ĠPesca":12868,"Arquitec":12869,"Ġdibuixar":12870,"Ġconfess":12871,"Ġvotants":12872,"Ġnin":12873,"tatu":12874,"taner":12875,"Ġparroquial":12876,"ĠLoc":12877,"veres":12878,"ĠCAS":12879,"ĠOberta":12880,"Ll":12881,"ĠdÃ©":12882,"Ġprejudi":12883,"inven":12884,"ĠÃłnima":12885,"Ġpujat":12886,"encarregat":12887,"ĠWe":12888,"Ġbutxaca":12889,"?âĢĿ":12890,"oportunitats":12891,"laborador":12892,"ĠÃģlvar":12893,"Ġesmenta":12894,"trina":12895,"Ġprima":12896,"Ġestir":12897,"Ġlocalitzar":12898,"ĠPsicologia":12899,"Ġrepresentat":12900,"Ġot":12901,"quill":12902,"Ġentrenador":12903,"Ġequivalent":12904,"ĠtÃ²p":12905,"Ġconvenis":12906,"uses":12907,"ĠestÃłvem":12908,"entena":12909,"preu":12910,"ĠPasc":12911,"Ġbale":12912,"Ġeixe":12913,"Osona":12914,"Ġcorriol":12915,"Ġbronze":12916,"Ġafegint":12917,"Ġanualment":12918,"Ġdissabtes":12919,"ĠSegarra":12920,"Ġsuposo":12921,"Ġpaquet":12922,"ĠEduard":12923,"Ġdedicats":12924,"Ġtabac":12925,"ĠBerguedÃł":12926,"Ġprevistos":12927,"ĠThom":12928,"Ġfires":12929,".),":12930,"alliberament":12931,"Ġgrand":12932,"Ġidentifica":12933,"ExposiciÃ³":12934,"fol":12935,"Ġinvestigacions":12936,"Autor":12937,"ĠencÃłrrec":12938,"ĠfÃŃsics":12939,"Ġciclistes":12940,"ĠEstudis":12941,"BÃ©":12942,"ĠAquell":12943,"Ġtinent":12944,"ĠhectÃłrees":12945,"ĠCL":12946,"Ġqualitats":12947,"ingres":12948,"Ġcadires":12949,"Ġpales":12950,"Ġasseguren":12951,"Ġidioma":12952,"Ãºstries":12953,"apes":12954,"ĠsÃº":12955,"ĠfÃ²s":12956,"ĠCerc":12957,"Ġimmensa":12958,"Ġacordar":12959,"Ġoperatiu":12960,"gost":12961,"ĠMich":12962,"ak":12963,"ĠautÃ²nomes":12964,"ugues":12965,"ĠRock":12966,"limentaciÃ³":12967,"ĠEspecial":12968,"dada":12969,"Ġreprodu":12970,"omot":12971,"Ġjutges":12972,"tos":12973,"Ġpositius":12974,"Ġsignificatiu":12975,"ĠMuÃ±":12976,"ĠtitulaciÃ³":12977,"Ġgerent":12978,"low":12979,"Ġabandonat":12980,"ĠCiutadana":12981,"ĠSecundÃłria":12982,"usia":12983,"ĠAlba":12984,"edora":12985,"Ġdesn":12986,"Ġfang":12987,"cinc":12988,"tarem":12989,"ĠNatura":12990,"ĠMillor":12991,"Tra":12992,"omunicacions":12993,"ĠHitler":12994,"ĠrebrÃł":12995,"Ġbombarde":12996,"Ġdonaran":12997,"Ġcompleixen":12998,"Ġfuncionen":12999,"Ġfilos":13000,"ĠguardÃ³":13001,"uniÃ³":13002,"Ġinvestigador":13003,"opol":13004,"VD":13005,"ĠesglÃ©sies":13006,"Ġenquestes":13007,"Ġcosm":13008,"Ġestrena":13009,"ĠconfirmaciÃ³":13010,"ulli":13011,"Ġfidels":13012,"ĠCanadÃł":13013,"],":13014,"Ġreproduc":13015,"ĠBasc":13016,"Ġcalenta":13017,"Ġmobilitzacions":13018,"Ġtrag":13019,"Ġredueix":13020,"Ġcentr":13021,"ĠCÃłn":13022,"Ġjugada":13023,"Ġvotat":13024,"ĠacadÃ¨mics":13025,"Ġmediterrani":13026,"Ġresca":13027,"Ġcapes":13028,"rodon":13029,"Ġactives":13030,"alter":13031,"Ġconserven":13032,"ĠCalaf":13033,"Ġsoft":13034,"Ġanuncis":13035,"ĠMessi":13036,"ĠdesplaÃ§ament":13037,"Ġaus":13038,"ĠHel":13039,"ĠreforÃ§":13040,"fonia":13041,"roga":13042,"ĠclÃłus":13043,"guerra":13044,"Ġutilitzades":13045,"Ġpanor":13046,"ĠgastronÃ²mica":13047,"ĠAlc":13048,"ĠcomenÃ§Ãł":13049,"ĠJunqueras":13050,"Aula":13051,"Ġespecialitats":13052,"independÃ¨ncia":13053,"Ġaneu":13054,"Enginyeria":13055,"Ġdutxa":13056,"establir":13057,"Ġarribava":13058,"Ġdivis":13059,"dicions":13060,"ĠinserciÃ³":13061,"actures":13062,"ĠcontribuciÃ³":13063,"Ġtutor":13064,"legacions":13065,"Ġpilar":13066,"Ġ85":13067,"Ġcontinuem":13068,"ĠBand":13069,"Ġdiab":13070,"Ġpsicologia":13071,"Ġimped":13072,"Ġproduccions":13073,"ĠÃ©rem":13074,"iria":13075,"Ġ900":13076,"eia":13077,"ogs":13078,"ĠcÃ²n":13079,"ĠDels":13080,"ĠtÃŃpica":13081,"Ġplantejat":13082,"Ġbarreres":13083,"Ġconfec":13084,"Ġsubjectes":13085,"Ġarc":13086,"identitat":13087,"ĠSanc":13088,"sionistes":13089,"Ġplantejament":13090,"guers":13091,"ĠesperanÃ§a":13092,"Ġcandidatures":13093,"Ġabsur":13094,"Ġconquer":13095,"ĠUNESCO":13096,"Ġpercep":13097,"Ġ1979":13098,"Ġtribu":13099,"ĠEtique":13100,"Ġcentrada":13101,"intervenciÃ³":13102,"umir":13103,"Ġdocumentals":13104,"Ġexcessiva":13105,"Ġobtinguts":13106,"ĠhipÃ²":13107,"ĠIgnasi":13108,"Ġpropaganda":13109,"Ġsegurs":13110,"Ġdestruir":13111,"Ġlligada":13112,"trÃ³":13113,"impar":13114,"Ġficar":13115,"enseny":13116,"ulls":13117,"Ġestrictament":13118,"Ġregional":13119,"Ġconductes":13120,"Ġgravat":13121,"ĠCircuit":13122,"drome":13123,"Ġdediquen":13124,"ĠCS":13125,"ĠXi":13126,"Ġdolent":13127,"cent":13128,"ĠeficiÃ¨ncia":13129,"TES":13130,"olÃŃmp":13131,"americans":13132,"ĠemblemÃłtics":13133,"histÃ²":13134,"ĠCastellers":13135,"ĠdeixarÃł":13136,"ĠsisÃ¨":13137,"ĠDisc":13138,"ĠfreqÃ¼ents":13139,"Ġmadu":13140,"ĠFilosofia":13141,"angle":13142,"Ġ1987":13143,"Ġrespectius":13144,"Ġobligar":13145,"Ġrectangular":13146,"lÃ²s":13147,"estudiant":13148,"Ġ1988":13149,"andesa":13150,"ĠPalafrugell":13151,"ĠfotogrÃłfica":13152,"Ġdramat":13153,"emporada":13154,"Ãłcid":13155,"Ġ1986":13156,"Ġindisc":13157,"ĠSolsona":13158,"Ġulleres":13159,"Sup":13160,"Ġample":13161,"Ġvold":13162,"tims":13163,"Vi":13164,"Ġcaram":13165,"Ġalerta":13166,"Ġamenaces":13167,"arcÃŃs":13168,"Ġtextura":13169,"Ġexecutar":13170,"81":13171,"ĠElls":13172,"Ġubicada":13173,"ĠOpen":13174,"Ġcomparar":13175,"ĠRoser":13176,"Ġacabats":13177,"animal":13178,"quilla":13179,"Ġpassad":13180,"son":13181,"jug":13182,"ĠSis":13183,"itant":13184,"internet":13185,"Ġcoincideix":13186,"Ġdiumenges":13187,"ĠPolÃŃtiques":13188,"Ġrepl":13189,"ĠEug":13190,"Ġcardi":13191,"Ġclars":13192,"ĠincreÃ¯ble":13193,"ento":13194,"ĠentÃ©n":13195,"Ġhabita":13196,"Ġmari":13197,"Ġrecullen":13198,"Ġrebuda":13199,"ĠPolÃ²nia":13200,"odo":13201,"impos":13202,"expedient":13203,"iral":13204,"ĠxinÃ¨s":13205,"Ġextensa":13206,"Ġpenya":13207,"Ġemocionant":13208,"ĠSEO":13209,"bona":13210,"Divendres":13211,"ĠSÃŃlvia":13212,"Ġtracten":13213,"igualtat":13214,"Ãłmic":13215,"ÃīS":13216,"ĠMÃ¨":13217,"fo":13218,"Ġexposat":13219,"ĠevidÃ¨ncia":13220,"laboracions":13221,"Ġreivindicacions":13222,"apat":13223,"Ġanalitza":13224,"ĠtecnolÃ²gics":13225,"ĠONG":13226,"Ġenergies":13227,"Ġtals":13228,"All":13229,"Ġnuclear":13230,"way":13231,"Ġ54":13232,"Ġvestir":13233,"Ġextern":13234,"Ġneta":13235,"Ġsignificativa":13236,"Ġcurtmet":13237,"Ġ1970":13238,"ĠmÃ²dul":13239,"Ġbrutal":13240,"Ġdisfrutar":13241,"ĠMaÃ³":13242,"Ġcontestar":13243,"ĠPIB":13244,"ĠVirg":13245,"ĠMeritxell":13246,"Ġagraden":13247,"Ġmirall":13248,"escolar":13249,"ĠQuÃŃm":13250,"neg":13251,"ĠDNI":13252,"disc":13253,"ĠautonÃ²mic":13254,"ĠmetÃł":13255,"edic":13256,"Ġretard":13257,"ĠRich":13258,"Ġmoderns":13259,"Ġconcloure":13260,"ĠColls":13261,"Ġmediambiental":13262,"Ġcircum":13263,"ebra":13264,"ĠAlacant":13265,"Era":13266,"jectius":13267,"Ġjoia":13268,"Ġguiades":13269,"Ġrevi":13270,"pensable":13271,"Ġdesena":13272,"nomÃ©s":13273,"Ġmensual":13274,"ĠSaragossa":13275,"Ġagradi":13276,"Ġcolumnes":13277,"ĠBarris":13278,"Ġdissol":13279,"ĠManlleu":13280,"anis":13281,"ĠestratÃ¨gica":13282,"ANA":13283,"Ġrega":13284,"Ġpassades":13285,"Ð´":13286,"ĠCir":13287,"ĠBau":13288,"ĠllanÃ§a":13289,"Ġfestius":13290,"ĠPeti":13291,"idant":13292,"Ġobligats":13293,"ĠcatedrÃłtic":13294,"ĠRibes":13295,"ĠDesta":13296,"Ġreligiosos":13297,"ValÃ¨ncia":13298,"ĠPetit":13299,"ribuciÃ³":13300,"Ġfonaments":13301,"Ġfinalistes":13302,"Ġbuits":13303,"Ġnul":13304,"ĠRivera":13305,"Ġsalvatge":13306,"Ġestant":13307,"ternativa":13308,"igo":13309,"Ġplaques":13310,"Ġminerals":13311,"ĠtÃºnel":13312,"Ġdiscursos":13313,"actuar":13314,"Ġconverteixen":13315,"Lli":13316,"ssar":13317,"Ġqueixes":13318,"Ġexten":13319,"Ġobse":13320,"Ġideologia":13321,"Ġhaguessin":13322,"Ġindiquen":13323,"estava":13324,"Ġliteraris":13325,"Orden":13326,"olat":13327,"Ġrev":13328,"Ġincons":13329,"ĠCardona":13330,"ĠdebÃ²":13331,"Pass":13332,"Ġcinta":13333,"Ġestalviar":13334,"ĠÃģngel":13335,"Ġlleugera":13336,"Ġconstants":13337,"ĠCV":13338,"ĠdidÃłctica":13339,"Ġoficina":13340,"Ġparlamentari":13341,"Ġindicacions":13342,"organitzar":13343,"Ġdiputada":13344,"estic":13345,"Ġindemn":13346,"Jordi":13347,"Ġimpulsa":13348,"Ġmite":13349,"ĠdinamitzaciÃ³":13350,"Ġdegudament":13351,"Ġfortalesa":13352,"ĠDÃŃa":13353,"Ġprioritats":13354,"ĠDalt":13355,"Ġballa":13356,"ĠartÃŃstics":13357,"mob":13358,"Ġgravetat":13359,"Ġcognoms":13360,"Ġautoma":13361,"emmarca":13362,"Ġferm":13363,"Ġdescomptes":13364,"ĠcapÃ§alera":13365,"PresentaciÃ³":13366,"Ġmalalt":13367,"alem":13368,"ĠratolÃŃ":13369,"ĠMaj":13370,"ĠsatÃ¨l":13371,"Ġexpressions":13372,"ĠnadÃ³":13373,"Ġimpac":13374,"estim":13375,"Ġfuncionari":13376,"ĠEsportiva":13377,"Ġpuguen":13378,"ĠHist":13379,"Ġaparcament":13380,"diciÃ³":13381,"Ġsituades":13382,"oro":13383,"ĠMoreno":13384,"Ġesb":13385,"ĠMonestir":13386,"ĠdistinciÃ³":13387,"Ġfirma":13388,"ratges":13389,"Ġassaj":13390,"Ġarquitectura":13391,"Ġpou":13392,"Ãºsc":13393,"PC":13394,"ĠconvocatÃ²ries":13395,"ĠdependÃ¨ncies":13396,"Ġdesb":13397,"ĠCNT":13398,"Ġemet":13399,"tus":13400,"Ġcarril":13401,"telles":13402,"Ġ1985":13403,"Ġpuga":13404,"ĠCastelldefels":13405,"Ġgeografia":13406,"Ġbiom":13407,"Serve":13408,"Ġmillorant":13409,"ĠJoana":13410,"pol":13411,"Ġpaisatg":13412,"ĠurbanÃŃstic":13413,"ĠnÃ©":13414,"ĠParal":13415,"tibles":13416,"Ġsimples":13417,"Ġcellers":13418,"ĠArnau":13419,"ustrÃłlia":13420,"irant":13421,"Ġsabates":13422,"Ġamable":13423,"ĠEsport":13424,"ĠFuster":13425,"cionistes":13426,"Ġ1977":13427,"Treball":13428,"ĠconÃ©ixer":13429,"omia":13430,"ĠcoherÃ¨ncia":13431,"ĠcÃłs":13432,"Ġdigna":13433,"600":13434,"ĠWindows":13435,"Ġtargetes":13436,"ĠÃŃntegrament":13437,"Ġbil":13438,"Ġmasculina":13439,"Ġtrin":13440,"400":13441,"ME":13442,"Ġpollastre":13443,"Ã¨nior":13444,"Ġjapon":13445,"plec":13446,"Ġtrentena":13447,"ĠelÃ¨ctriques":13448,"Ġvetllar":13449,"piques":13450,"Ġestudiat":13451,"Ġacostuma":13452,"Ġvapor":13453,"Ġmots":13454,"Ġgats":13455,"empla":13456,"FC":13457,"%),":13458,"ĠproporciÃ³":13459,"ĠfenÃ²mens":13460,"pidesa":13461,"ick":13462,"Ġentrenaments":13463,"onari":13464,"extra":13465,"Ġsorgeix":13466,"hael":13467,"allot":13468,"Ãłritas":13469,"ĠimplementaciÃ³":13470,"Sol":13471,"Ġexterna":13472,"Ġpatin":13473,"aires":13474,"ĠNovembre":13475,"Ġeditorials":13476,"Ġ51":13477,"ĠmÃłgica":13478,"Ġparteix":13479,"Ġimprescindibles":13480,"Ġinvestigar":13481,"mentaris":13482,"sen":13483,"Imperi":13484,"ml":13485,"Ġvariable":13486,"Ġdescansar":13487,"Ġempla":13488,"Ø§Ø":13489,"Ġtarragon":13490,"meres":13491,"Ã²rdia":13492,"ĠCro":13493,"Ġitineraris":13494,"Ġfites":13495,"Ġveureu":13496,"Ġmusulm":13497,"odia":13498,"ĠBuen":13499,"hal":13500,"Ġfragment":13501,"ĠcompromÃ¨s":13502,"arcals":13503,"ĠavenÃ§os":13504,"ĠHor":13505,"Ġestranya":13506,"imatge":13507,"ĠromÃłnic":13508,"mentals":13509,"ĠPascual":13510,"emociÃ³":13511,"Ġsimpli":13512,"Ġfinanceres":13513,"Ġcasti":13514,"Ġaparentment":13515,"Ġinfla":13516,"Ġmenta":13517,"ĠPavellÃ³":13518,"tanes":13519,"Ġverds":13520,"esmorzar":13521,"ĠSimp":13522,"Ġperceb":13523,"Ġrum":13524,"Ġcontextu":13525,"posem":13526,"ĠUr":13527,"ualitats":13528,"Ġhomen":13529,"Ġ1982":13530,"Ġllegeix":13531,"Ġtela":13532,"Ġvinculada":13533,"ath":13534,"Ã¨stia":13535,"Ġrebutjar":13536,"Ġ1000":13537,"ĠJames":13538,"ĠÃłcid":13539,"Ġvegetal":13540,"ĠCavall":13541,"ĠGuin":13542,"eld":13543,"Ġjaciment":13544,"element":13545,"Ġdesac":13546,"Ġusu":13547,"ĠNom":13548,"ĠKm":13549,"ĠCient":13550,"aprova":13551,"ĠED":13552,"ĠromÃłnica":13553,"orquestra":13554,"expansiÃ³":13555,"ĠBB":13556,"Ġconvent":13557,"FE":13558,"Ġmantega":13559,"Mi":13560,"ĠSindicat":13561,"ÙĪ":13562,"erto":13563,"...).":13564,"Ġefectius":13565,"Ġrid":13566,"Ġkil":13567,"Ġargument":13568,"Ġamericana":13569,"Ġderivades":13570,"Ġfavora":13571,"Ġmercaderies":13572,"Ġfrus":13573,"ĠCarl":13574,"ami":13575,"ĠModern":13576,"Ġmides":13577,"Ġterrorisme":13578,"fran":13579,"Ġproclamar":13580,"Ġvessants":13581,"Ġpenjat":13582,"Ġritmes":13583,"ĠCastells":13584,"Ġpractic":13585,"Ġpatrons":13586,"Ġmetall":13587,"tex":13588,"Ġvulguis":13589,"Ġmundi":13590,"eliminaciÃ³":13591,"Ġradia":13592,"ĠsortirÃł":13593,"ĠBloc":13594,"sal":13595,"informa":13596,"ĠCuba":13597,"Ġdors":13598,"Ġvariables":13599,"Ġencarregar":13600,"Contin":13601,"arren":13602,"hen":13603,"ĠdotaciÃ³":13604,"Ġqueixa":13605,"zaciÃ³":13606,"Ġdestinar":13607,"Ġcreen":13608,"ife":13609,"Ġtraslladat":13610,"Ġ2020":13611,"Ġmotiv":13612,"ĠpreferÃ¨ncies":13613,"tallat":13614,"Ġprohibit":13615,"Ġexclusiu":13616,"Ġconsumir":13617,"tiran":13618,"Aro":13619,"emmagatzem":13620,"Ġseleccionats":13621,"quers":13622,"ĠfederaciÃ³":13623,"ĠAcab":13624,"Ġquedant":13625,"amo":13626,"Ã§o":13627,"Ġacabem":13628,"ĠOrgÃłnica":13629,"ĠCreus":13630,"illuns":13631,"Ġproductor":13632,"Ġbeguda":13633,"haurien":13634,"Ġferrocar":13635,"executiu":13636,"Ġinterns":13637,"ĠMuÃ±oz":13638,"Ġencan":13639,"ĠStar":13640,"ĠGreg":13641,"otur":13642,"gons":13643,"Ġencarregats":13644,"ĠVerdaguer":13645,"roba":13646,"ĠsimultÃłnia":13647,"oces":13648,"Ġemetre":13649,"Ġagl":13650,"Ġreclamacions":13651,"Ã²dia":13652,"igh":13653,"Ġconsolidat":13654,"articles":13655,"2004":13656,"ĠVilar":13657,"ĠsistemÃłtica":13658,"Ġpautes":13659,"ĠinstÃłncia":13660,"ĠrÃłbia":13661,"Ġvisualitzar":13662,"âĤ¬.":13663,"ÑģÑĤ":13664,"Ġdestr":13665,"Ġseminari":13666,"ube":13667,"ĠdistÃłncies":13668,"Ġcomplicada":13669,"ĠVeu":13670,"ĠUS":13671,"titzat":13672,"ĠTurquia":13673,"Ġpersonalitats":13674,"riment":13675,"ĠOlÃŃmpics":13676,"Ġdiscos":13677,"Ġrenovables":13678,"hip":13679,"ĠdetenciÃ³":13680,"ineda":13681,"Ġadequats":13682,"ĠeconÃ²micament":13683,"Ġcommemorar":13684,"Ġencant":13685,"Alguns":13686,"ĠHom":13687,"Ġaclarir":13688,"especial":13689,"Ġsensible":13690,"gmail":13691,"ĠSur":13692,"Ġnomen":13693,"Ġestel":13694,"Ġsanta":13695,"ĠdesgrÃłcia":13696,"alcaldia":13697,"Ġindispensable":13698,"ĠEva":13699,"Ġgin":13700,"Ġcreences":13701,"Ġnecessites":13702,"æľ":13703,"Ġ56":13704,"Ġfranja":13705,"ĠCass":13706,"ĠRet":13707,"Ġaparegut":13708,"Ġenvoltat":13709,"Ġlimitada":13710,"ĠolÃŃmp":13711,"Ġtransfer":13712,"Â³":13713,"ice":13714,"Ġsubter":13715,"hool":13716,"Ġinformatius":13717,"onesos":13718,"Ġdiversa":13719,"ĠgenÃ¨tica":13720,"ĠSegre":13721,"cra":13722,"ime":13723,"Ġsumat":13724,"egada":13725,"Ġdetinguts":13726,"ĠBet":13727,"Ġtrobes":13728,"ĠBretanya":13729,"Ġescoll":13730,"Ġorganitzats":13731,"Ġacollit":13732,"Ġseparat":13733,"uren":13734,"Ġpretenen":13735,"sies":13736,"ĠNarcÃŃs":13737,"Ġadquireix":13738,"Ġdistingir":13739,"ĠCall":13740,"ĠdestruÃ¯":13741,"Ġpseu":13742,"ĠveÃ¯nat":13743,"Ġencom":13744,"ĠVel":13745,"ĠTothom":13746,"Ġtrossos":13747,"Ġhel":13748,"ĠlimitaciÃ³":13749,"ĠVerd":13750,"ĠBCN":13751,"Ġatacar":13752,"ĠSaf":13753,"ĠSostenible":13754,"Ġdiccionari":13755,"ĠBanda":13756,"Ġinferiors":13757,"Ġrecrea":13758,"Ġfic":13759,"Estic":13760,"Ġenemics":13761,"eguera":13762,"Ġverdes":13763,"ĠResoluciÃ³":13764,"Ġextrems":13765,"Ġolor":13766,"Ġreaccions":13767,"ĠmÃ²duls":13768,"poraciÃ³":13769,"opera":13770,"Ġdemanava":13771,"ĠPressup":13772,"Ġviabilitat":13773,"ĠPonent":13774,"Ġpenes":13775,"Ġexhaus":13776,"Ġsetmanal":13777,"avantatge":13778,"Ġtitelles":13779,"Ġelaborats":13780,"autobÃºs":13781,"Ġ09":13782,"Ġfama":13783,"ĠLlibres":13784,"ĠCorona":13785,"Ġocupats":13786,"ĠGenerals":13787,"Ãłgrim":13788,"Ġberenar":13789,"ade":13790,"plan":13791,"Ġobligades":13792,"Ġprotegida":13793,"ĠÃĢngels":13794,"ĠdiÃłriament":13795,"ĠSau":13796,"Ġinicials":13797,"Ġmostrant":13798,"Ġsacerd":13799,"entrenador":13800,"Dia":13801,"Ġgratis":13802,"Ġvariant":13803,"organitza":13804,"ĠlÃ²gic":13805,"quistes":13806,"Ġdirigits":13807,"Ġtrastorn":13808,"ĠpedagÃ²gica":13809,"Alg":13810,"ĠHistÃ²ric":13811,"ĠMAR":13812,"Ġbisb":13813,"ĠdÃ©u":13814,"Ġescau":13815,"urÃ³":13816,"ĠBlu":13817,"ĠVII":13818,"Ġbord":13819,"fÃŃcies":13820,"Girona":13821,"emissiÃ³":13822,"Ġferits":13823,"Ġprestar":13824,"ĠEivissa":13825,"ĠTreballa":13826,"Ġbiodiversitat":13827,"ĠBorges":13828,"ĠIgualada":13829,"'\"":13830,"ÑĮ":13831,"Ġprocedir":13832,"ĠGuardi":13833,"ĠEmpresari":13834,"liÃ³":13835,"ĠSota":13836,"ĠmarÃŃtim":13837,"Ġfinancers":13838,"ĠViladec":13839,"Ã²cia":13840,"gam":13841,"quÃ¨s":13842,"Ã¼l":13843,"jam":13844,"Bon":13845,"ĠUnes":13846,"Ġcasualitat":13847,"Ġreproduir":13848,"ventura":13849,"ĠTrÃł":13850,"Ġcritica":13851,"Ġtraspass":13852,"experiÃ¨ncies":13853,"ĠBisbal":13854,"Ġsocialment":13855,"ĠEmili":13856,"Ġhones":13857,"argument":13858,"Ġexag":13859,"Ġbaixant":13860,"ĠMilÃł":13861,"ĠSolidaritat":13862,"Ġpra":13863,"Ġestendre":13864,"DD":13865,"Ġroses":13866,"ier":13867,"riÃ³":13868,"ĠSens":13869,"ĠgratuÃ¯tes":13870,"ĠAh":13871,"Ġrevolta":13872,"Diumenge":13873,"ives":13874,"Ġsumen":13875,"Ġtrobant":13876,"ĠLluna":13877,"usar":13878,"Ġdup":13879,"Ġ59":13880,"traciÃ³":13881,"ĠsÃŃntesi":13882,"ĠBlan":13883,"Ġestreta":13884,"Ġfamilia":13885,"Ġmonarquia":13886,"Ġxiquetes":13887,"ĠescÃ¨niques":13888,"Ġtravessar":13889,"ĠConfederaciÃ³":13890,"Ġinnovadora":13891,"ĠrÃłn":13892,"Ġrelaxar":13893,"arcacions":13894,"Ġinnovadores":13895,"Ġcomunitari":13896,"llats":13897,"ĠĠĠĠĠĠĠĠĠ":13898,"ĠRipollÃ¨s":13899,"Et":13900,"ĠDansa":13901,"rosoft":13902,"Ġpreses":13903,"Ġmode":13904,"ĠCursa":13905,"top":13906,"Ġcorregir":13907,"Ġafectada":13908,"Ġmalestar":13909,"Ġtapa":13910,"ald":13911,"Ġemiss":13912,"ĠveÃ¯n":13913,"Ġmentres":13914,"Ġacusat":13915,"obtenir":13916,"Ġdesigualtat":13917,"hos":13918,"Ġ1983":13919,"utes":13920,"aparell":13921,"Ġlluitant":13922,
[...]
